<unk>	0
▁,	-0
▁的	-1
▁.	-2
▁"	-3
▁中	-4
▁和	-5
▁一	-6
▁在	-7
▁了	-8
▁国	-9
▁是	-10
▁中国	-11
▁人	-12
▁不	-13
▁发	-14
▁对	-15
▁有	-16
▁这	-17
▁政	-18
▁美	-19
▁发展	-20
▁大	-21
▁经	-22
▁要	-23
▁关	-24
▁新	-25
▁我	-26
▁两	-27
▁台	-28
▁上	-29
▁进	-30
▁重	-31
▁与	-32
▁为	-33
▁他	-34
▁以	-35
▁美国	-36
▁全	-37
▁会	-38
▁地	-39
▁工	-40
▁建	-41
▁问	-42
▁实	-43
▁说	-44
▁关系	-45
▁问题	-46
▁经济	-47
▁加	-48
▁也	-49
▁各	-50
▁主	-51
▁成	-52
▁台湾	-53
▁国家	-54
▁就	-55
▁作	-56
▁将	-57
▁领	-58
▁社	-59
▁同	-60
▁军	-61
▁提	-62
▁人民	-63
▁总	-64
▁工作	-65
▁战	-66
▁我们	-67
▁社会	-68
▁合	-69
▁1	-70
▁自	-71
▁党	-72
▁开	-73
▁法	-74
▁一个	-75
▁基	-76
▁表	-77
▁方	-78
▁时	-79
▁部	-80
▁改	-81
▁世	-82
▁三	-83
▁高	-84
▁之	-85
▁出	-86
▁事	-87
▁政府	-88
▁并	-89
▁当	-90
▁等	-91
▁共	-92
▁还	-93
▁民	-94
▁於	-95
▁建设	-96
▁机	-97
▁指	-98
▁今	-99
▁外	-100
▁而	-101
▁都	-102
▁已	-103
▁下	-104
▁其	-105
▁最	-106
▁从	-107
▁合作	-108
▁日	-109
▁公	-110
▁:	-111
▁重要	-112
▁正	-113
▁代	-114
▁多	-115
▁保	-116
▁两国	-117
▁第	-118
▁年	-119
▁可	-120
▁现	-121
▁认	-122
▁反	-123
▁来	-124
▁国际	-125
▁更	-126
▁进行	-127
▁增	-128
▁分	-129
▁领导	-130
主义	-131
▁所	-132
▁生	-133
▁但	-134
▁李	-135
▁(	-136
▁强	-137
▁组	-138
▁)	-139
▁后	-140
▁代表	-141
▁科	-142
▁相	-143
▁表示	-144
▁前	-145
▁世界	-146
▁北	-147
企业	-148
▁农	-149
▁特	-150
▁应	-151
▁江	-152
▁电	-153
▁目	-154
▁政治	-155
▁坚	-156
▁制	-157
▁2	-158
▁解	-159
▁能	-160
▁必	-161
▁推	-162
▁西	-163
▁内	-164
▁市	-165
▁加强	-166
▁教	-167
▁使	-168
▁行	-169
▁企业	-170
▁安	-171
▁把	-172
▁十	-173
▁双	-174
▁联	-175
▁如	-176
▁结	-177
▁记	-178
▁信	-179
▁文	-180
▁通	-181
▁原	-182
▁意	-183
▁利	-184
▁因	-185
▁组织	-186
▁到	-187
▁向	-188
▁交	-189
▁任	-190
▁深	-191
▁北京	-192
▁记者	-193
▁形	-194
▁两岸	-195
▁政策	-196
▁思	-197
▁海	-198
▁规	-199
▁历	-200
00	-201
▁支	-202
▁参	-203
▁改革	-204
▁访	-205
▁统	-206
▁完	-207
▁和平	-208
▁全国	-209
▁广	-210
▁由	-211
▁做	-212
▁委	-213
▁没	-214
▁》	-215
▁《	-216
▁会议	-217
▁过	-218
泽民	-219
▁江泽民	-220
▁著	-221
▁严	-222
▁学	-223
▁本	-224
▁长	-225
▁无	-226
技术	-227
▁产	-228
▁市场	-229
▁友	-230
▁指出	-231
▁资	-232
▁我国	-233
▁中央	-234
▁没有	-235
▁历史	-236
▁只	-237
▁首	-238
▁稳	-239
▁干	-240
一步	-241
▁调	-242
▁很	-243
▁日本	-244
▁二	-245
▁取	-246
▁得	-247
▁进一步	-248
▁要求	-249
▁看	-250
▁有关	-251
▁根	-252
▁积	-253
▁战略	-254
▁及	-255
▁决	-256
▁条	-257
▁理	-258
▁实现	-259
▁双方	-260
▁情	-261
▁思想	-262
▁举	-263
▁投	-264
▁地区	-265
▁创	-266
▁委员	-267
▁体	-268
▁稳定	-269
▁方面	-270
▁副	-271
▁协	-272
▁教育	-273
▁活	-274
▁统一	-275
▁立	-276
▁导	-277
▁他们	-278
▁积极	-279
▁必须	-280
▁认为	-281
▁今天	-282
▁防	-283
▁管	-284
▁研	-285
▁解决	-286
▁金	-287
▁共同	-288
▁明	-289
▁讲	-290
▁布	-291
▁近	-292
▁精	-293
▁报	-294
▁19	-295
▁基础	-296
▁打	-297
▁具	-298
▁提高	-299
▁军事	-300
▁专	-301
▁面	-302
▁非	-303
▁继	-304
▁小	-305
▁坚持	-306
▁此	-307
▁支持	-308
▁安全	-309
▁总统	-310
▁努	-311
▁处	-312
▁需	-313
▁努力	-314
▁俄	-315
▁先	-316
▁联合	-317
▁被	-318
▁水	-319
▁轮	-320
▁提出	-321
▁起	-322
▁功	-323
▁原则	-324
▁新华	-325
▁友好	-326
▁一些	-327
▁通过	-328
▁计	-329
▁建立	-330
▁谈	-331
▁?	-332
▁又	-333
▁新华社	-334
▁不断	-335
▁可以	-336
▁达	-337
▁武	-338
▁五	-339
▁访问	-340
▁比	-341
▁去	-342
▁技术	-343
▁活动	-344
▁取得	-345
▁转	-346
▁社会主义	-347
▁接	-348
▁促	-349
▁采	-350
▁朝	-351
▁维	-352
▁力	-353
▁亚	-354
▁希	-355
▁朱	-356
▁继续	-357
▁受	-358
▁外交	-359
▁这是	-360
▁部门	-361
▁四	-362
▁给	-363
群众	-364
▁;	-365
▁回	-366
▁依	-367
▁管理	-368
▁今年	-369
▁香	-370
▁3	-371
▁利益	-372
▁民族	-373
世纪	-374
▁用	-375
▁已经	-376
▁自己	-377
▁香港	-378
▁成为	-379
▁目前	-380
▁优	-381
▁未	-382
▁变	-383
▁希望	-384
▁情况	-385
贸易	-386
▁影	-387
▁中美	-388
▁集	-389
▁走	-390
▁国务	-391
▁监	-392
▁办	-393
▁充	-394
▁科技	-395
▁基本	-396
▁作为	-397
▁布什	-398
▁感	-399
▁环	-400
▁同时	-401
▁促进	-402
▁5	-403
▁就是	-404
▁领导人	-405
▁东	-406
▁这个	-407
▁文化	-408
▁再	-409
▁选	-410
▁影响	-411
▁强调	-412
▁作用	-413
▁议	-414
▁官	-415
▁研究	-416
▁精神	-417
▁举行	-418
▁飞	-419
▁王	-420
▁系	-421
▁负	-422
▁天	-423
▁增长	-424
▁空	-425
▁南	-426
▁特别	-427
▁需要	-428
▁投资	-429
▁这些	-430
▁领域	-431
▁传	-432
▁贸易	-433
▁现代	-434
▁干部	-435
▁执	-436
▁核	-437
▁生产	-438
▁引	-439
▁宣	-440
▁设	-441
▁至	-442
▁或	-443
▁期	-444
▁才	-445
▁落	-446
▁个	-447
▁开发	-448
▁大陆	-449
▁科学	-450
▁重大	-451
▁陈	-452
▁主要	-453
▁抓	-454
▁导弹	-455
▁平	-456
▁竞	-457
▁承	-458
▁计划	-459
▁维护	-460
▁扩	-461
▁根本	-462
▁财	-463
▁常	-464
▁主席	-465
▁确	-466
▁不能	-467
▁几	-468
▁带	-469
▁好	-470
▁真	-471
▁中共	-472
▁制度	-473
▁项	-474
▁据	-475
▁马	-476
▁推动	-477
▁4	-478
▁实施	-479
▁西部	-480
▁信息	-481
▁199	-482
▁那	-483
▁势	-484
▁整	-485
▁人大	-486
▁职	-487
▁直	-488
▁全面	-489
▁普	-490
▁系统	-491
▁权	-492
▁调整	-493
▁祖	-494
▁许	-495
▁局	-496
▁突	-497
经济	-498
▁也是	-499
▁欧	-500
▁预	-501
▁以来	-502
▁法律	-503
▁国务院	-504
▁人权	-505
▁全球	-506
▁审	-507
▁同志	-508
▁曾	-509
▁印	-510
▁团	-511
▁越	-512
▁包	-513
▁消	-514
▁国防	-515
▁当局	-516
▁环境	-517
▁如果	-518
▁收	-519
▁任务	-520
▁演	-521
▁战争	-522
▁它	-523
▁群众	-524
▁元	-525
▁仍	-526
▁祖国	-527
主席	-528
▁人员	-529
▁目标	-530
▁农业	-531
▁运	-532
▁作出	-533
▁网	-534
▁发生	-535
▁动	-536
▁形势	-537
▁第一	-538
▁具有	-539
▁以及	-540
▁互	-541
▁充分	-542
▁观	-543
▁学习	-544
▁台独	-545
▁民主	-546
▁按	-547
罗斯	-548
▁存	-549
▁搞	-550
▁这种	-551
▁城	-552
▁交流	-553
▁得到	-554
▁决定	-555
▁部队	-556
▁反对	-557
▁克	-558
▁巴	-559
▁考	-560
▁参加	-561
▁去年	-562
▁尽	-563
▁经贸	-564
▁任何	-565
▁邪	-566
▁讲话	-567
▁严重	-568
▁这次	-569
▁结构	-570
▁张	-571
▁检	-572
▁之间	-573
▁性	-574
▁重视	-575
▁采取	-576
▁紧	-577
--	-578
▁单	-579
▁周	-580
▁华	-581
▁者	-582
▁会见	-583
▁军队	-584
▁发挥	-585
▁实际	-586
▁加入	-587
▁保持	-588
▁治	-589
▁随	-590
▁推进	-591
▁条件	-592
▁朝鲜	-593
▁装	-594
▁扩大	-595
▁论	-596
▁热	-597
▁武器	-598
▁即	-599
责任	-600
▁产业	-601
▁措	-602
▁九	-603
▁事业	-604
▁理论	-605
▁开始	-606
▁现代化	-607
▁俄罗斯	-608
▁极	-609
▁一定	-610
▁措施	-611
▁这样	-612
▁国内	-613
▁开展	-614
▁像	-615
▁创新	-616
▁竞争	-617
▁道	-618
▁8	-619
▁不仅	-620
▁中华	-621
▁事件	-622
▁现在	-623
▁李鹏	-624
▁阿	-625
▁处理	-626
▁提供	-627
▁规定	-628
▁十分	-629
▁生活	-630
▁什	-631
▁能力	-632
▁愿	-633
▁知	-634
▁6	-635
▁许多	-636
▁手	-637
▁出现	-638
▁驻	-639
书记	-640
▁7	-641
▁特别是	-642
▁放	-643
▁危	-644
▁商	-645
▁因此	-646
▁增加	-647
▁包括	-648
▁准	-649
▁服	-650
▁西藏	-651
▁联合国	-652
▁百	-653
▁该	-654
▁加快	-655
▁先进	-656
▁正在	-657
▁发表	-658
▁200	-659
▁有利	-660
▁新世纪	-661
▁意见	-662
▁每	-663
▁良	-664
▁不可	-665
▁斗	-666
▁当前	-667
▁数	-668
▁独	-669
▁显	-670
▁难	-671
▁水平	-672
▁公司	-673
开放	-674
▁各国	-675
▁老	-676
▁邪教	-677
▁农民	-678
▁高度	-679
▁立场	-680
▁责任	-681
▁中方	-682
▁欢	-683
▁总理	-684
▁金融	-685
▁机构	-686
▁未来	-687
▁存在	-688
▁监督	-689
▁国民	-690
▁重点	-691
▁斗争	-692
▁修	-693
▁造	-694
▁清	-695
▁切	-696
▁共产	-697
▁农村	-698
▁其他	-699
▁国有	-700
▁证	-701
▁落实	-702
▁行动	-703
▁保障	-704
▁实践	-705
▁案	-706
▁发言	-707
委会	-708
▁认真	-709
▁保护	-710
▁伊	-711
地区	-712
▁减	-713
▁贯	-714
▁而且	-715
▁各级	-716
▁成功	-717
▁负责	-718
▁可能	-719
▁新闻	-720
▁期间	-721
▁失	-722
▁大会	-723
▁势力	-724
▁长期	-725
▁完全	-726
▁报告	-727
▁挑	-728
▁韩	-729
▁利用	-730
▁解放	-731
▁人才	-732
▁评	-733
▁省	-734
▁犯	-735
国家	-736
▁不是	-737
▁为了	-738
▁广大	-739
▁巨	-740
▁地方	-741
▁宗	-742
▁拉	-743
▁服务	-744
▁第二	-745
▁名	-746
▁家	-747
▁力量	-748
▁改善	-749
▁共产党	-750
▁人们	-751
▁相互	-752
▁但是	-753
▁冲	-754
▁标	-755
▁上海	-756
▁时间	-757
▁形成	-758
▁分裂	-759
▁良好	-760
▁更加	-761
▁健	-762
▁主权	-763
▁只有	-764
▁亲	-765
▁让	-766
▁变化	-767
▁委员会	-768
人民	-769
▁早	-770
▁事实	-771
▁自己的	-772
▁不同	-773
▁装备	-774
▁违	-775
▁既	-776
▁进入	-777
▁较	-778
▁着	-779
▁机制	-780
▁批	-781
▁地位	-782
▁八	-783
▁适	-784
▁应该	-785
▁培	-786
▁认识	-787
▁谈判	-788
方面	-789
▁意义	-790
▁深入	-791
▁航	-792
▁阶	-793
▁连	-794
▁因为	-795
▁美元	-796
▁入	-797
▁出席	-798
▁机关	-799
▁欢迎	-800
▁一九	-801
▁第三	-802
▁们	-803
▁根据	-804
▁贯彻	-805
▁幺	-806
▁各种	-807
▁关键	-808
▁人士	-809
▁防御	-810
▁亚洲	-811
▁心	-812
▁持	-813
▁依法	-814
▁注	-815
▁朱鎔	-816
▁朱鎔基	-817
▁绝	-818
▁直接	-819
▁10	-820
▁作战	-821
▁则	-822
▁里	-823
▁方式	-824
▁都是	-825
▁如何	-826
▁少	-827
▁复	-828
▁签	-829
▁明确	-830
▁却	-831
▁财政	-832
▁资源	-833
▁受到	-834
▁六	-835
▁接受	-836
▁称	-837
▁按照	-838
▁破	-839
▁威	-840
▁部署	-841
▁体制	-842
▁创造	-843
▁效	-844
▁逐	-845
▁对外	-846
▁才能	-847
▁占	-848
▁非常	-849
▁成果	-850
▁犯罪	-851
▁警	-852
▁正确	-853
▁不会	-854
▁态	-855
▁争	-856
▁了解	-857
▁麽	-858
▁间	-859
▁英	-860
▁风	-861
▁传统	-862
▁会谈	-863
▁某	-864
▁李登	-865
▁钱	-866
政府	-867
▁行政	-868
▁首先	-869
▁'	-870
▁李登辉	-871
▁侵	-872
▁区	-873
▁结束	-874
▁面临	-875
▁想	-876
▁切实	-877
▁9	-878
▁经验	-879
▁致	-880
▁改革开放	-881
▁成员	-882
▁另	-883
▁虽	-884
▁胡	-885
▁增强	-886
▁完善	-887
▁太	-888
▁获	-889
▁工程	-890
▁甚	-891
▁共识	-892
▁城市	-893
▁巨大	-894
▁其中	-895
▁二十	-896
▁内容	-897
▁挑战	-898
▁始	-899
▁参与	-900
▁对此	-901
▁质	-902
▁声	-903
▁劳	-904
▁中心	-905
▁符	-906
▁对话	-907
▁外交部	-908
▁优势	-909
▁制定	-910
▁实行	-911
▁过去	-912
▁进程	-913
▁七	-914
▁展	-915
▁能够	-916
▁听	-917
▁带来	-918
▁会晤	-919
▁陈水	-920
▁有效	-921
▁化	-922
▁一直	-923
▁试	-924
▁司	-925
▁澳	-926
▁石	-927
▁专家	-928
▁坚决	-929
▁打击	-930
▁符合	-931
▁业	-932
▁关注	-933
▁具体	-934
▁阶段	-935
▁保证	-936
年来	-937
部分	-938
▁最大	-939
分之	-940
▁十五	-941
▁指导	-942
▁关於	-943
▁常委会	-944
MD	-945
▁你	-946
▁神	-947
腐败	-948
▁超	-949
干部	-950
林顿	-951
素质	-952
▁起来	-953
▁困	-954
▁程	-955
▁双边	-956
▁气	-957
▁配	-958
▁完成	-959
▁状	-960
▁方针	-961
▁美方	-962
▁还是	-963
▁造成	-964
▁步	-965
▁贡	-966
▁训	-967
▁!	-968
▁刘	-969
▁尊	-970
▁练	-971
▁20	-972
▁宗教	-973
▁印度	-974
▁股	-975
▁今后	-976
▁进步	-977
革命	-978
▁快	-979
▁贡献	-980
▁探	-981
▁马克	-982
▁亚太	-983
▁事务	-984
▁做好	-985
▁广泛	-986
▁马克思	-987
▁价	-988
▁召	-989
▁时期	-990
▁一种	-991
▁始终	-992
▁形式	-993
▁介	-994
▁大力	-995
▁成立	-996
▁调查	-997
▁白	-998
▁领导干部	-999
▁她	-1000
▁克林顿	-1001
▁过程	-1002
▁行为	-1003
▁侦	-1004
▁纪	-1005
▁赞	-1006
▁初	-1007
▁准备	-1008
▁市场经济	-1009
▁单位	-1010
▁远	-1011
▁顺	-1012
▁经营	-1013
▁集团	-1014
▁态度	-1015
▁伟	-1016
▁所有	-1017
▁世纪	-1018
▁所谓	-1019
▁涉	-1020
▁各项	-1021
▁官员	-1022
▁独立	-1023
▁公开	-1024
▁密	-1025
▁港	-1026
..	-1027
▁甚至	-1028
▁项目	-1029
▁--	-1030
▁时代	-1031
▁表明	-1032
▁达到	-1033
▁一次	-1034
▁出口	-1035
▁相信	-1036
▁协议	-1037
▁定	-1038
斯坦	-1039
▁人类	-1040
▁真正	-1041
▁应当	-1042
▁综	-1043
▁建议	-1044
▁鼓	-1045
▁居	-1046
▁潜	-1047
▁N	-1048
▁知识	-1049
▁美军	-1050
▁卫	-1051
▁工业	-1052
▁条约	-1053
▁突出	-1054
▁趋	-1055
▁委员长	-1056
▁何	-1057
▁控	-1058
▁健康	-1059
▁奥	-1060
▁院	-1061
▁唐	-1062
▁世贸	-1063
▁产品	-1064
▁召开	-1065
▁查	-1066
▁流	-1067
▁伟大	-1068
▁看到	-1069
▁激	-1070
▁产生	-1071
▁明显	-1072
▁领土	-1073
▁讨	-1074
▁全球化	-1075
▁位	-1076
▁繁	-1077
▁青	-1078
▁经过	-1079
▁代表团	-1080
▁体现	-1081
▁威胁	-1082
▁损	-1083
▁攻	-1084
▁飞机	-1085
▁百分之	-1086
▁关心	-1087
▁加大	-1088
▁再次	-1089
▁跨	-1090
▁执行	-1091
▁NMD	-1092
▁机遇	-1093
▁于	-1094
▁队	-1095
银行	-1096
▁体系	-1097
▁满	-1098
▁基层	-1099
▁给予	-1100
▁差	-1101
▁令	-1102
▁范	-1103
▁原因	-1104
▁承认	-1105
▁方向	-1106
▁比较	-1107
▁主张	-1108
▁训练	-1109
▁一切	-1110
中国家	-1111
▁发展中国家	-1112
▁友谊	-1113
▁报道	-1114
▁容	-1115
▁税	-1116
▁结合	-1117
▁福	-1118
▁离	-1119
▁强烈	-1120
▁此次	-1121
▁革命	-1122
▁德	-1123
▁担	-1124
▁使用	-1125
▁场	-1126
和国	-1127
▁同胞	-1128
▁资金	-1129
▁半	-1130
▁敌	-1131
▁引起	-1132
▁面对	-1133
▁目的	-1134
▁指挥	-1135
▁吴	-1136
矛盾	-1137
▁结果	-1138
▁爱	-1139
▁达成	-1140
▁正常	-1141
▁虽然	-1142
▁质量	-1143
▁人口	-1144
▁介绍	-1145
▁意识	-1146
▁讨论	-1147
▁发言人	-1148
▁身	-1149
▁路	-1150
▁开放	-1151
▁西方	-1152
▁正式	-1153
▁综合	-1154
▁低	-1155
▁物	-1156
▁抗	-1157
▁战斗	-1158
▁素质	-1159
▁黑	-1160
▁网络	-1161
▁马克思主义	-1162
▁核心	-1163
▁·	-1164
▁千	-1165
拉克	-1166
▁力度	-1167
▁约	-1168
▁书记	-1169
▁除	-1170
▁宣传	-1171
▁种	-1172
▁之一	-1173
▁一九九	-1174
▁江主席	-1175
▁侦察	-1176
▁改变	-1177
▁感到	-1178
▁帮	-1179
秩序	-1180
▁分析	-1181
▁设施	-1182
▁秩序	-1183
▁借	-1184
▁边	-1185
▁针	-1186
▁政协	-1187
▁永	-1188
▁邓	-1189
▁以上	-1190
▁公安	-1191
▁近年来	-1192
▁透	-1193
▁土	-1194
▁岛	-1195
▁深化	-1196
▁W	-1197
▁最后	-1198
▁手段	-1199
▁自由	-1200
▁模	-1201
▁2000	-1202
▁死	-1203
▁困难	-1204
▁感谢	-1205
▁往	-1206
▁坚定	-1207
▁恶	-1208
▁因素	-1209
▁富	-1210
▁之后	-1211
▁各个	-1212
▁收入	-1213
▁编	-1214
▁追	-1215
▁劳动	-1216
▁最近	-1217
▁持续	-1218
▁解放军	-1219
▁尊重	-1220
▁中东	-1221
▁进展	-1222
▁逐步	-1223
▁伙	-1224
▁立法	-1225
▁大学	-1226
▁并不	-1227
▁演习	-1228
▁规范	-1229
▁祝	-1230
▁粮	-1231
▁分子	-1232
▁邀	-1233
▁世界上	-1234
▁拥	-1235
▁很大	-1236
▁是否	-1237
▁针对	-1238
▁众	-1239
▁签署	-1240
▁冷	-1241
▁退	-1242
▁三通	-1243
▁破坏	-1244
▁联系	-1245
二十	-1246
▁部分	-1247
▁下午	-1248
▁严格	-1249
▁抵	-1250
▁还有	-1251
TO	-1252
▁现实	-1253
▁飞行	-1254
▁成就	-1255
▁深刻	-1256
▁座	-1257
▁办法	-1258
▁矛盾	-1259
▁确保	-1260
▁然	-1261
▁选择	-1262
▁首脑	-1263
▁WTO	-1264
▁均	-1265
▁陆	-1266
小平	-1267
▁我军	-1268
▁部长	-1269
▁胜	-1270
▁舰	-1271
中央	-1272
国两	-1273
▁普京	-1274
▁一国两	-1275
▁邓小平	-1276
▁派	-1277
媒体	-1278
▁证明	-1279
▁一国两制	-1280
▁繁荣	-1281
▁队伍	-1282
▁压	-1283
▁艰	-1284
▁欧洲	-1285
▁中俄	-1286
▁分别	-1287
▁李洪	-1288
▁否	-1289
▁修改	-1290
▁澳门	-1291
▁李洪志	-1292
▁交换	-1293
▁培养	-1294
▁范围	-1295
▁遭	-1296
▁大使	-1297
▁大量	-1298
▁邀请	-1299
▁党中央	-1300
▁交往	-1301
▁及其	-1302
▁伙伴	-1303
▁停	-1304
▁海军	-1305
▁总书记	-1306
▁号	-1307
▁吸	-1308
▁火	-1309
▁率	-1310
其琛	-1311
▁钱其琛	-1312
▁客	-1313
▁密切	-1314
▁团结	-1315
▁宣布	-1316
▁副总	-1317
▁国防部	-1318
▁个人	-1319
▁控制	-1320
▁集中	-1321
来越	-1322
▁越来越	-1323
▁奋	-1324
▁说明	-1325
▁韩国	-1326
新社	-1327
▁中日	-1328
▁局势	-1329
▁最高	-1330
▁多年	-1331
▁媒体	-1332
▁特色	-1333
▁规划	-1334
▁降	-1335
▁仅	-1336
月十	-1337
▁11	-1338
▁注意	-1339
▁访华	-1340
▁兴	-1341
▁回答	-1342
▁在此	-1343
▁中新社	-1344
▁12	-1345
▁标准	-1346
▁资本	-1347
▁银行	-1348
▁人民群众	-1349
▁光	-1350
▁迅	-1351
▁制造	-1352
▁反映	-1353
▁帮助	-1354
▁月	-1355
▁孙	-1356
▁一贯	-1357
▁冲突	-1358
▁执政	-1359
▁腐败	-1360
▁呼	-1361
▁选举	-1362
▁丰	-1363
▁旅	-1364
锦涛	-1365
▁不得	-1366
▁道路	-1367
▁缺	-1368
系列	-1369
▁一系列	-1370
▁胡锦涛	-1371
▁负责人	-1372
▁昨	-1373
▁万	-1374
▁陈水扁	-1375
▁上午	-1376
▁少数	-1377
▁草	-1378
▁21	-1379
▁大家	-1380
▁欧盟	-1381
▁议会	-1382
▁苏	-1383
▁乌	-1384
▁考虑	-1385
▁顺利	-1386
▁言	-1387
▁外国	-1388
▁抓好	-1389
▁由於	-1390
▁民众	-1391
▁恢	-1392
▁消息	-1393
▁组成	-1394
▁获得	-1395
▁古	-1396
▁施	-1397
▁霸	-1398
▁医	-1399
▁一致	-1400
▁副主席	-1401
▁完整	-1402
▁申	-1403
▁限	-1404
▁平等	-1405
▁掌	-1406
▁权利	-1407
▁适应	-1408
▁构	-1409
▁普遍	-1410
▁突破	-1411
▁撞	-1412
▁象	-1413
▁文明	-1414
▁来自	-1415
▁尤	-1416
▁秘	-1417
一个	-1418
▁恢复	-1419
▁山	-1420
▁案件	-1421
▁法制	-1422
▁高层	-1423
▁而是	-1424
▁需求	-1425
▁如此	-1426
▁生命	-1427
▁别	-1428
▁仍然	-1429
▁发达	-1430
▁多次	-1431
▁承诺	-1432
▁更多	-1433
▁升	-1434
▁留	-1435
▁脱	-1436
▁50	-1437
▁上述	-1438
▁不少	-1439
▁座谈	-1440
▁热烈	-1441
▁最终	-1442
▁国会	-1443
▁发现	-1444
▁民进	-1445
▁粮食	-1446
▁都要	-1447
▁大国	-1448
▁所以	-1449
▁表现	-1450
▁阻	-1451
▁状况	-1452
家璇	-1453
▁探索	-1454
▁空间	-1455
▁高兴	-1456
▁唐家璇	-1457
▁暴	-1458
▁批准	-1459
▁不可能	-1460
▁供	-1461
▁协调	-1462
▁转变	-1463
▁视	-1464
▁危机	-1465
▁自身	-1466
▁然而	-1467
▁趋势	-1468
▁民进党	-1469
▁伊拉克	-1470
▁义	-1471
▁见	-1472
▁错	-1473
▁确定	-1474
舆论	-1475
▁论坛	-1476
▁境	-1477
▁整体	-1478
▁检查	-1479
▁法院	-1480
▁便	-1481
零零	-1482
▁卫星	-1483
▁只要	-1484
▁复杂	-1485
▁官兵	-1486
▁职工	-1487
▁国民经济	-1488
▁沿	-1489
▁节	-1490
▁决策	-1491
▁各地	-1492
▁尽快	-1493
▁必将	-1494
▁党员	-1495
▁更大	-1496
▁禁	-1497
▁缓	-1498
▁对华	-1499
▁整个	-1500
▁走向	-1501
▁智	-1502
▁纲	-1503
▁黄	-1504
▁规模	-1505
▁迅速	-1506
▁首次	-1507
▁主持	-1508
▁有的	-1509
▁贫	-1510
▁内部	-1511
▁舆论	-1512
▁国民党	-1513
▁列	-1514
▁请	-1515
▁侵略	-1516
▁排	-1517
▁强大	-1518
▁相当	-1519
▁课	-1520
▁程度	-1521
▁生产力	-1522
▁谁	-1523
▁前进	-1524
▁县	-1525
▁型	-1526
▁背	-1527
▁投入	-1528
▁巩	-1529
▁求	-1530
▁尽管	-1531
▁必然	-1532
▁一部分	-1533
▁理解	-1534
▁沉	-1535
▁车	-1536
▁主任	-1537
▁建交	-1538
▁来说	-1539
▁温	-1540
▁司法	-1541
▁巩固	-1542
▁必要	-1543
▁方法	-1544
月二十	-1545
▁冷战	-1546
▁消费	-1547
▁看法	-1548
▁善	-1549
▁时候	-1550
▁各界	-1551
▁接触	-1552
▁靠	-1553
▁显示	-1554
▁外长	-1555
▁第四	-1556
▁自治	-1557
▁观念	-1558
▁合理	-1559
▁很多	-1560
▁本报	-1561
▁减少	-1562
▁1999	-1563
▁登	-1564
▁搞好	-1565
▁海峡	-1566
▁副总理	-1567
▁电子	-1568
▁招	-1569
▁鲍	-1570
▁基地	-1571
▁审议	-1572
▁罪	-1573
▁怎	-1574
▁为此	-1575
▁前景	-1576
▁无论	-1577
▁检察	-1578
▁第十	-1579
▁谈到	-1580
▁这样的	-1581
▁旁	-1582
▁前提	-1583
▁只能	-1584
▁允	-1585
▁宪	-1586
▁执法	-1587
▁胜利	-1588
▁兵	-1589
▁图	-1590
▁上台	-1591
▁日益	-1592
▁宏	-1593
▁毛	-1594
▁做法	-1595
▁运用	-1596
国主义	-1597
▁内地	-1598
▁重申	-1599
社会	-1600
▁在内	-1601
▁超过	-1602
▁无法	-1603
▁有了	-1604
▁终	-1605
▁尤其	-1606
▁评价	-1607
▁角	-1608
▁全体	-1609
▁居民	-1610
▁判	-1611
▁出发	-1612
▁涉及	-1613
▁告	-1614
▁即将	-1615
▁允许	-1616
▁反华	-1617
▁周年	-1618
▁采访	-1619
▁将会	-1620
▁日前	-1621
共和国	-1622
▁汇	-1623
▁迎	-1624
▁外资	-1625
▁站	-1626
▁履	-1627
▁广东	-1628
▁此外	-1629
▁特点	-1630
▁由于	-1631
▁行业	-1632
▁企	-1633
▁答	-1634
▁一起	-1635
▁考察	-1636
半岛	-1637
▁快速	-1638
▁哈	-1639
▁话	-1640
▁赵	-1641
000	-1642
▁做出	-1643
▁干涉	-1644
▁河	-1645
▁会上	-1646
▁全军	-1647
▁中华人民	-1648
▁中华人民共和国	-1649
▁式	-1650
▁肯	-1651
▁只是	-1652
▁发射	-1653
▁奋斗	-1654
▁愿意	-1655
▁正是	-1656
▁征	-1657
▁15	-1658
▁导致	-1659
▁改进	-1660
▁透露	-1661
▁短	-1662
▁谋	-1663
▁办公	-1664
▁协商	-1665
▁自然	-1666
▁达赖	-1667
▁遵	-1668
▁安排	-1669
▁相关	-1670
▁中国人民	-1671
▁摆	-1672
▁丰富	-1673
▁做到	-1674
▁对抗	-1675
▁朝鲜半岛	-1676
▁林	-1677
▁眼	-1678
▁差距	-1679
▁级	-1680
▁圆	-1681
▁底	-1682
▁拒	-1683
▁迟	-1684
▁集体	-1685
▁董	-1686
▁避	-1687
▁增进	-1688
▁当然	-1689
▁成绩	-1690
▁拥有	-1691
速度	-1692
▁尚	-1693
▁简	-1694
▁亲切	-1695
▁攻击	-1696
▁霸权	-1697
▁妥	-1698
▁波	-1699
▁源	-1700
▁事情	-1701
▁党委	-1702
▁生态	-1703
▁口	-1704
▁围	-1705
▁格	-1706
▁以色	-1707
▁还要	-1708
▁信心	-1709
▁紧张	-1710
▁左	-1711
就是	-1712
▁不过	-1713
▁主动	-1714
▁合法	-1715
▁非法	-1716
▁对于	-1717
▁小组	-1718
▁掌握	-1719
▁难以	-1720
▁以色列	-1721
▁封	-1722
▁扁	-1723
▁争取	-1724
▁总体	-1725
▁英国	-1726
▁中央军	-1727
▁高技术	-1728
▁先后	-1729
▁王伟	-1730
▁电视	-1731
▁非洲	-1732
▁命	-1733
▁补	-1734
▁铁	-1735
▁同意	-1736
▁实力	-1737
▁或者	-1738
▁空军	-1739
▁乡	-1740
▁例	-1741
▁村	-1742
▁文章	-1743
▁更好	-1744
▁兼	-1745
▁局面	-1746
▁预算	-1747
▁机场	-1748
▁防止	-1749
▁中央军委	-1750
▁次	-1751
▁价值	-1752
▁恐	-1753
▁总结	-1754
▁石油	-1755
▁头	-1756
利亚	-1757
▁事故	-1758
▁全部	-1759
▁肯定	-1760
▁鼓励	-1761
▁关于	-1762
▁履行	-1763
▁予	-1764
▁点	-1765
▁赴	-1766
▁一批	-1767
▁令人	-1768
▁愿望	-1769
▁藏	-1770
▁入世	-1771
▁华盛	-1772
▁土地	-1773
▁法规	-1774
▁亚太地区	-1775
▁毒	-1776
▁爆	-1777
▁当地	-1778
▁文件	-1779
10	-1780
▁务	-1781
▁夫	-1782
▁华盛顿	-1783
▁抓住	-1784
▁推行	-1785
▁朱邦	-1786
▁研制	-1787
▁政治局	-1788
▁女	-1789
▁层	-1790
▁扶	-1791
▁私	-1792
▁罗	-1793
▁一行	-1794
▁实质	-1795
▁损害	-1796
▁秘书	-1797
▁国家主席	-1798
▁值	-1799
▁急	-1800
▁遗	-1801
战争	-1802
朋友	-1803
▁发达国家	-1804
▁刚	-1805
▁吉	-1806
▁纽	-1807
▁营	-1808
▁作风	-1809
▁保险	-1810
▁及时	-1811
▁资产	-1812
▁朱邦造	-1813
▁唯	-1814
▁费	-1815
▁两会	-1816
▁听取	-1817
▁这位	-1818
▁卡	-1819
多数	-1820
▁公正	-1821
▁座谈会	-1822
▁哪	-1823
▁货	-1824
▁当时	-1825
▁有所	-1826
▁归	-1827
▁晚	-1828
▁草案	-1829
▁内政	-1830
▁放弃	-1831
▁效益	-1832
▁伤	-1833
▁诚	-1834
▁日报	-1835
▁不要	-1836
▁工商	-1837
▁金字	-1838
▁花	-1839
▁企图	-1840
▁政党	-1841
▁早日	-1842
▁赞赏	-1843
▁奉	-1844
▁违法	-1845
▁纳	-1846
人员	-1847
▁义务	-1848
▁频	-1849
▁航天	-1850
▁购	-1851
▁信任	-1852
▁新疆	-1853
▁旅游	-1854
改革	-1855
▁价格	-1856
▁仪	-1857
▁件	-1858
▁海外	-1859
▁限制	-1860
▁游	-1861
▁迫	-1862
资源	-1863
▁危害	-1864
▁有人	-1865
▁灾	-1866
产品	-1867
▁奥运	-1868
▁家庭	-1869
▁满意	-1870
▁绝对	-1871
▁移	-1872
▁书	-1873
▁树	-1874
▁从事	-1875
▁吕	-1876
▁喜	-1877
▁红	-1878
制度	-1879
威尔	-1880
▁优秀	-1881
▁机会	-1882
▁步伐	-1883
▁侦察机	-1884
▁救	-1885
▁实际上	-1886
▁师	-1887
▁杨	-1888
会议	-1889
▁业务	-1890
▁理想	-1891
▁高级	-1892
▁新政府	-1893
▁标志	-1894
▁找	-1895
▁特殊	-1896
▁80	-1897
▁一样	-1898
▁压力	-1899
▁有力	-1900
▁配合	-1901
▁鲍威尔	-1902
▁债	-1903
▁岁	-1904
▁军售	-1905
▁动力	-1906
▁练兵	-1907
▁议员	-1908
▁余	-1909
▁寻	-1910
▁软	-1911
▁圆满	-1912
▁每年	-1913
▁走私	-1914
▁近日	-1915
▁有些	-1916
▁社会保	-1917
▁徐	-1918
▁势头	-1919
▁展开	-1920
▁违反	-1921
▁错误	-1922
▁随着	-1923
可能	-1924
▁予以	-1925
▁提案	-1926
▁厦	-1927
▁彻	-1928
议院	-1929
▁以后	-1930
▁北约	-1931
▁各自	-1932
▁福建	-1933
▁规律	-1934
▁进口	-1935
▁避免	-1936
▁睦	-1937
▁属	-1938
▁揭	-1939
▁若	-1940
▁互利	-1941
▁新型	-1942
▁呢	-1943
▁援	-1944
组织	-1945
▁首相	-1946
▁假	-1947
▁刑	-1948
▁区域	-1949
▁协会	-1950
▁基金	-1951
▁左右	-1952
▁方案	-1953
▁举办	-1954
▁共和	-1955
▁商业	-1956
▁把握	-1957
▁观点	-1958
▁问候	-1959
▁份	-1960
▁主义	-1961
▁决不	-1962
▁二零零	-1963
▁享	-1964
▁题	-1965
这里	-1966
▁副部	-1967
▁航空	-1968
▁试验	-1969
▁-	-1970
▁史	-1971
▁途	-1972
▁雷	-1973
▁客观	-1974
▁本质	-1975
▁极大	-1976
▁课题	-1977
▁负担	-1978
▁危险	-1979
▁国外	-1980
▁迈	-1981
▁德国	-1982
▁某些	-1983
▁副部长	-1984
▁自治区	-1985
▁专业	-1986
▁华人	-1987
▁性质	-1988
▁成效	-1989
▁这项	-1990
▁迟浩	-1991
▁助	-1992
▁斯	-1993
▁东盟	-1994
▁五十	-1995
▁分歧	-1996
▁来访	-1997
▁迟浩田	-1998
▁睦邻	-1999
▁纽约	-2000
▁对外开放	-2001
▁盛	-2002
▁遇	-2003
▁决心	-2004
▁启	-2005
▁与会	-2006
▁实事	-2007
▁拖	-2008
▁30	-2009
▁学生	-2010
▁演练	-2011
▁重新	-2012
▁莫	-2013
▁多种	-2014
▁开拓	-2015
▁状态	-2016
▁祝贺	-2017
▁民主党	-2018
▁弹	-2019
▁类	-2020
▁纠	-2021
▁厦门	-2022
▁当今	-2023
▁在这里	-2024
▁社会保障	-2025
水平	-2026
▁当选	-2027
▁武力	-2028
▁治理	-2029
▁职能	-2030
▁亦	-2031
▁一百	-2032
▁出版	-2033
▁批评	-2034
▁经常	-2035
▁2001	-2036
▁度	-2037
▁磋	-2038
▁磋商	-2039
▁1998	-2040
▁坦	-2041
▁同样	-2042
▁待	-2043
▁军方	-2044
▁特区	-2045
▁科研	-2046
▁至今	-2047
▁足	-2048
▁几个	-2049
▁平衡	-2050
▁落后	-2051
▁评论	-2052
▁秘书长	-2053
▁谢	-2054
▁轰	-2055
委员	-2056
武器	-2057
▁规则	-2058
▁其实	-2059
▁大局	-2060
▁纷	-2061
▁据悉	-2062
▁青年	-2063
▁反腐败	-2064
▁右	-2065
▁遭到	-2066
▁泰	-2067
▁陪	-2068
岚清	-2069
民族	-2070
阶级	-2071
▁不足	-2072
▁学者	-2073
▁彻底	-2074
▁阿拉	-2075
▁面向	-2076
▁李岚清	-2077
▁乃	-2078
▁倾	-2079
▁示	-2080
▁顾	-2081
▁全党	-2082
▁好的	-2083
理会	-2084
规模	-2085
▁宪法	-2086
▁A	-2087
▁尼	-2088
▁廉	-2089
▁策	-2090
半年	-2091
▁16	-2092
▁也要	-2093
▁从而	-2094
▁值得	-2095
▁岛内	-2096
▁毛泽	-2097
▁能否	-2098
▁搜	-2099
▁轻	-2100
▁障	-2101
思想	-2102
教育	-2103
▁充满	-2104
▁南北	-2105
▁妥善	-2106
▁引导	-2107
▁承担	-2108
▁朋友	-2109
▁战斗力	-2110
▁毛泽东	-2111
▁程序	-2112
▁立即	-2113
政治	-2114
▁军备	-2115
▁社区	-2116
▁观察	-2117
▁计算	-2118
▁通讯	-2119
▁国务卿	-2120
▁凝	-2121
▁船	-2122
导弹	-2123
▁呼吁	-2124
▁培训	-2125
▁沿海	-2126
▁安理会	-2127
▁霸权主义	-2128
▁公布	-2129
▁强化	-2130
▁权力	-2131
▁致力	-2132
▁公民	-2133
▁初步	-2134
▁抵达	-2135
▁激烈	-2136
▁尤其是	-2137
▁典	-2138
▁阐	-2139
▁使命	-2140
▁出售	-2141
▁加以	-2142
▁教科	-2143
▁自觉	-2144
▁北京市	-2145
▁大规模	-2146
▁子	-2147
▁框	-2148
▁一般	-2149
▁各方	-2150
▁围绕	-2151
▁经历	-2152
▁路线	-2153
▁高科	-2154
▁人民币	-2155
▁在此间	-2156
▁沙	-2157
▁诸	-2158
待会	-2159
文明	-2160
▁前往	-2161
▁纪念	-2162
▁高新	-2163
▁依靠	-2164
▁巴勒	-2165
▁构成	-2166
▁自主	-2167
▁陪同	-2168
▁---	-2169
▁高科技	-2170
▁吗	-2171
▁门	-2172
班子	-2173
▁停止	-2174
▁抓紧	-2175
▁显著	-2176
▁倒	-2177
▁混	-2178
▁下去	-2179
▁外商	-2180
▁各方面	-2181
▁儿	-2182
▁塔	-2183
▁回归	-2184
▁所在	-2185
▁更是	-2186
▁道德	-2187
▁盟	-2188
▁米	-2189
▁遏	-2190
▁严峻	-2191
▁以下	-2192
▁那些	-2193
▁送	-2194
不是	-2195
公司	-2196
▁13	-2197
▁一点	-2198
▁军用	-2199
▁夫人	-2200
▁改造	-2201
▁框架	-2202
▁永远	-2203
▁热情	-2204
▁通信	-2205
▁风险	-2206
▁共和党	-2207
▁农产品	-2208
▁飞行员	-2209
▁博	-2210
▁反应	-2211
▁另外	-2212
▁太空	-2213
▁物质	-2214
▁议长	-2215
▁转达	-2216
▁途径	-2217
▁198	-2218
▁章	-2219
▁专门	-2220
▁交通	-2221
▁就业	-2222
▁担任	-2223
▁模式	-2224
▁职责	-2225
▁财产	-2226
▁长远	-2227
▁柬	-2228
▁痴	-2229
▁赢	-2230
一日	-2231
▁元首	-2232
▁城镇	-2233
▁就要	-2234
▁树立	-2235
▁潜力	-2236
▁紧密	-2237
▁运行	-2238
▁筹	-2239
求是	-2240
▁协作	-2241
▁美中	-2242
▁实事求是	-2243
▁员	-2244
▁延	-2245
▁仪式	-2246
▁先生	-2247
▁昨天	-2248
▁清楚	-2249
▁越南	-2250
▁佛	-2251
▁抢	-2252
▁之前	-2253
▁冲击	-2254
▁法国	-2255
▁裁	-2256
▁速度	-2257
▁障碍	-2258
▁牢	-2259
▁不久	-2260
▁失败	-2261
▁广阔	-2262
▁戈	-2263
▁样	-2264
▁跟	-2265
▁孙玉	-2266
▁防空	-2267
▁照	-2268
▁贵	-2269
▁邻	-2270
▁人事	-2271
▁声明	-2272
▁治安	-2273
▁共和国	-2274
▁旧	-2275
▁艘	-2276
▁主题	-2277
▁健全	-2278
▁新时	-2279
▁气氛	-2280
▁有利于	-2281
▁竞争力	-2282
▁住	-2283
▁渔	-2284
▁军区	-2285
▁意味	-2286
▁谈话	-2287
▁国际上	-2288
▁扎	-2289
▁架	-2290
▁隐	-2291
▁克服	-2292
▁宏观	-2293
▁很好	-2294
▁票	-2295
▁郑	-2296
▁信念	-2297
▁公约	-2298
▁凝聚	-2299
▁古巴	-2300
▁有限	-2301
▁神社	-2302
▁缺乏	-2303
▁设备	-2304
▁振	-2305
▁李瑞	-2306
▁深圳	-2307
▁缓和	-2308
▁孙玉玺	-2309
▁吃	-2310
▁全局	-2311
▁参观	-2312
▁战场	-2313
▁设立	-2314
▁连续	-2315
▁李瑞环	-2316
11	-2317
▁拿	-2318
▁湖	-2319
▁田	-2320
世界	-2321
▁向前	-2322
▁情报	-2323
▁数量	-2324
▁证券	-2325
▁靖	-2326
▁鲜	-2327
▁商品	-2328
▁拒绝	-2329
▁援助	-2330
▁还将	-2331
▁除了	-2332
▁固	-2333
▁操	-2334
▁杜	-2335
▁灵	-2336
▁缩	-2337
潮流	-2338
秀莲	-2339
▁千年	-2340
▁战机	-2341
▁贫困	-2342
▁遏制	-2343
▁教科书	-2344
▁暂	-2345
▁一旦	-2346
▁侵犯	-2347
▁台海	-2348
▁多边	-2349
▁大幅	-2350
▁相对	-2351
▁办公室	-2352
▁高新技术	-2353
▁杀	-2354
▁三十	-2355
▁它们	-2356
▁期待	-2357
▁消除	-2358
▁种种	-2359
▁纲领	-2360
▁吕秀莲	-2361
▁拓	-2362
▁旗	-2363
▁龙	-2364
▁上升	-2365
▁主体	-2366
▁失业	-2367
▁曾经	-2368
▁武装	-2369
▁走出	-2370
▁这里	-2371
▁巴勒斯坦	-2372
20	-2373
▁宝	-2374
▁届	-2375
▁融	-2376
▁附	-2377
▁九五	-2378
▁官方	-2379
▁政权	-2380
▁条例	-2381
▁追求	-2382
▁信息化	-2383
▁工作者	-2384
▁病	-2385
党委	-2386
▁此间	-2387
▁民间	-2388
▁艰苦	-2389
▁各级党委	-2390
▁─	-2391
▁写	-2392
零年	-2393
▁协定	-2394
▁损失	-2395
▁海上	-2396
▁潜艇	-2397
▁紧迫	-2398
▁春	-2399
▁歪	-2400
▁下降	-2401
▁东西	-2402
▁往来	-2403
▁更为	-2404
▁海南	-2405
▁纷纷	-2406
▁近期	-2407
▁崇	-2408
▁概	-2409
▁传媒	-2410
▁各族	-2411
▁吸引	-2412
▁明年	-2413
▁痴迷	-2414
▁研讨	-2415
▁转化	-2416
▁组成部分	-2417
▁储	-2418
▁养	-2419
▁群	-2420
▁出来	-2421
▁发动	-2422
▁品	-2423
▁枪	-2424
标题	-2425
▁发行	-2426
▁演讲	-2427
▁遵守	-2428
▁新时期	-2429
▁拦	-2430
▁野	-2431
▁不利	-2432
▁开幕	-2433
▁来看	-2434
▁练习	-2435
▁勇	-2436
▁18	-2437
▁交易	-2438
▁查处	-2439
▁小标题	-2440
▁傅	-2441
▁毕	-2442
▁界	-2443
▁细	-2444
▁中小	-2445
▁动员	-2446
▁已有	-2447
▁网站	-2448
▁考验	-2449
▁表达	-2450
▁台北	-2451
▁台商	-2452
▁维持	-2453
▁关系到	-2454
▁库	-2455
▁森	-2456
▁不了	-2457
▁不管	-2458
▁你们	-2459
▁大选	-2460
▁理事	-2461
▁自焚	-2462
▁科学技术	-2463
▁阵	-2464
单位	-2465
贷款	-2466
▁为期	-2467
▁决议	-2468
▁各类	-2469
▁唯一	-2470
▁对待	-2471
▁活力	-2472
▁议案	-2473
▁妇	-2474
人士	-2475
▁告诉	-2476
▁多极	-2477
▁炮	-2478
▁讯	-2479
▁分割	-2480
▁华侨	-2481
▁发出	-2482
▁海关	-2483
▁苏联	-2484
▁选拔	-2485
▁197	-2486
▁有一个	-2487
▁核武器	-2488
▁翻	-2489
▁分配	-2490
▁团体	-2491
▁年轻	-2492
▁禁止	-2493
▁历史性	-2494
▁更好地	-2495
▁1997	-2496
▁乱	-2497
▁硬	-2498
主任	-2499
以来	-2500
峰会	-2501
▁十一	-2502
▁工人	-2503
▁常委	-2504
▁教授	-2505
▁整顿	-2506
▁监管	-2507
▁相应	-2508
▁能源	-2509
▁解释	-2510
▁截	-2511
家宝	-2512
能力	-2513
▁一道	-2514
▁制约	-2515
▁国情	-2516
▁引进	-2517
▁提问	-2518
▁放在	-2519
▁设计	-2520
▁阐述	-2521
12	-2522
▁偷	-2523
▁毫	-2524
▁萨	-2525
渠道	-2526
▁一段	-2527
▁之际	-2528
▁即使	-2529
▁确立	-2530
▁竞选	-2531
▁轰炸	-2532
▁运动	-2533
▁含	-2534
▁撤	-2535
▁断	-2536
▁矿	-2537
体制	-2538
▁信仰	-2539
▁右翼	-2540
▁应对	-2541
▁效果	-2542
▁民意	-2543
▁这一	-2544
▁100	-2545
▁温家宝	-2546
▁精神文明	-2547
▁京	-2548
▁叶	-2549
九年	-2550
▁14	-2551
▁一再	-2552
▁乃至	-2553
▁宗旨	-2554
▁检验	-2555
▁相比	-2556
▁职务	-2557
▁副主任	-2558
▁凡	-2559
▁泉	-2560
八日	-2561
利益	-2562
▁40	-2563
▁东亚	-2564
▁大型	-2565
▁思路	-2566
▁显然	-2567
▁有助	-2568
▁似	-2569
发展	-2570
▁乡镇	-2571
▁常务	-2572
▁并且	-2573
▁拦截	-2574
▁背景	-2575
▁字	-2576
▁汽	-2577
▁严肃	-2578
▁几乎	-2579
▁干预	-2580
▁贷款	-2581
▁较大	-2582
▁降低	-2583
▁首都	-2584
▁驻华	-2585
▁先进性	-2586
▁战略性	-2587
▁奠	-2588
▁庆	-2589
▁换	-2590
▁依然	-2591
▁复兴	-2592
▁戈尔	-2593
▁极端	-2594
▁格局	-2595
▁法案	-2596
▁第五	-2597
▁诚意	-2598
同时	-2599
少年	-2600
▁不懈	-2601
▁与此	-2602
▁汇报	-2603
▁爱国	-2604
▁离开	-2605
▁竞赛	-2606
▁资料	-2607
▁遇到	-2608
▁二十一	-2609
▁全世界	-2610
▁青少年	-2611
▁与此同时	-2612
▁乘	-2613
▁怀	-2614
▁蓝	-2615
▁谴	-2616
▁销	-2617
▁平均	-2618
▁本国	-2619
▁现有	-2620
▁大会堂	-2621
▁计算机	-2622
▁偏	-2623
▁削	-2624
▁父	-2625
▁轨	-2626
建设	-2627
▁办事	-2628
▁参拜	-2629
▁后勤	-2630
▁强硬	-2631
▁统计	-2632
▁艰巨	-2633
▁通知	-2634
▁第二十	-2635
▁工作人员	-2636
▁付	-2637
▁呈	-2638
▁骗	-2639
▁上市	-2640
▁知道	-2641
▁言论	-2642
▁货币	-2643
▁房	-2644
▁舞	-2645
▁主管	-2646
▁大事	-2647
▁暴力	-2648
▁正义	-2649
▁申请	-2650
▁谴责	-2651
▁起到	-2652
▁事实上	-2653
▁污	-2654
▁语	-2655
▁为主	-2656
▁发扬	-2657
▁打赢	-2658
▁每个	-2659
▁脱困	-2660
▁党组织	-2661
▁乐	-2662
▁彼	-2663
▁篇	-2664
▁辩	-2665
▁驱	-2666
▁其它	-2667
▁前途	-2668
▁十二	-2669
▁图谋	-2670
▁大大	-2671
▁来到	-2672
▁永久	-2673
▁经合	-2674
▁国际法	-2675
▁体制改革	-2676
▁侨	-2677
▁油	-2678
▁蒙	-2679
八年	-2680
▁境外	-2681
▁审判	-2682
▁当年	-2683
▁时刻	-2684
▁权威	-2685
▁毒品	-2686
▁的话	-2687
▁美好	-2688
▁转移	-2689
▁奥运会	-2690
13	-2691
▁星	-2692
▁载	-2693
▁辉	-2694
了解	-2695
▁加速	-2696
▁外贸	-2697
▁恐怖	-2698
▁空中	-2699
▁赢得	-2700
▁逐渐	-2701
▁据了解	-2702
▁云	-2703
▁不应	-2704
▁变成	-2705
▁司令	-2706
▁学校	-2707
▁迎接	-2708
▁运输	-2709
▁面前	-2710
▁本地区	-2711
▁积极性	-2712
▁工作会议	-2713
广生	-2714
▁之中	-2715
▁怎样	-2716
▁思维	-2717
▁多年来	-2718
▁大业	-2719
▁带动	-2720
▁昨日	-2721
▁暴露	-2722
▁生存	-2723
▁而言	-2724
▁联盟	-2725
▁有效的	-2726
▁石广生	-2727
▁P	-2728
▁纵	-2729
▁虚	-2730
团结	-2731
▁党政	-2732
▁奉行	-2733
▁它的	-2734
▁峰会	-2735
▁感情	-2736
▁教训	-2737
▁由此	-2738
▁确实	-2739
▁绝大	-2740
▁购买	-2741
▁软件	-2742
▁金正	-2743
▁壮	-2744
▁敏	-2745
自治	-2746
▁主导	-2747
▁依据	-2748
▁外汇	-2749
▁如今	-2750
招待会	-2751
▁记者招待会	-2752
▁买	-2753
▁尉	-2754
▁郭	-2755
三十	-2756
公报	-2757
▁不但	-2758
▁军官	-2759
▁奠定	-2760
▁尚未	-2761
▁广州	-2762
▁联邦	-2763
▁角度	-2764
▁金正日	-2765
▁审查	-2766
▁扶贫	-2767
▁新闻发	-2768
▁有可能	-2769
▁害	-2770
▁摩	-2771
▁聚	-2772
谋长	-2773
▁24	-2774
▁不顾	-2775
▁公里	-2776
▁制裁	-2777
▁周边	-2778
▁层次	-2779
▁引发	-2780
▁经费	-2781
▁议题	-2782
....	-2783
16	-2784
索沃	-2785
▁中南	-2786
▁从严	-2787
▁全会	-2788
▁其次	-2789
▁刑事	-2790
▁尉健	-2791
▁纲要	-2792
▁多极化	-2793
▁倡	-2794
▁巡	-2795
联网	-2796
▁九届	-2797
▁将对	-2798
▁广播	-2799
▁恶化	-2800
▁指示	-2801
▁注重	-2802
▁白宫	-2803
▁评估	-2804
▁谋求	-2805
▁那样	-2806
▁[	-2807
▁候	-2808
▁欺	-2809
▁驾	-2810
▁另一	-2811
▁太平	-2812
▁宣言	-2813
▁工会	-2814
▁干扰	-2815
▁数字	-2816
▁说法	-2817
▁这就是	-2818
▁0	-2819
▁叙	-2820
▁牵	-2821
▁线	-2822
▁迷	-2823
计划	-2824
▁务实	-2825
▁无疑	-2826
▁基本法	-2827
▁尉健行	-2828
▁备	-2829
▁返	-2830
▁25	-2831
▁一件	-2832
▁中外	-2833
▁安置	-2834
▁成了	-2835
▁有机	-2836
▁频繁	-2837
▁参议院	-2838
▁建设性	-2839
▁科索沃	-2840
▁另一方面	-2841
▁忍	-2842
▁戴	-2843
▁赖	-2844
▁输	-2845
机关	-2846
▁不再	-2847
▁不满	-2848
▁本身	-2849
▁深远	-2850
▁股市	-2851
▁跨越	-2852
▁防卫	-2853
▁生活水平	-2854
15	-2855
▁估	-2856
▁忧	-2857
▁鉴	-2858
▁一千	-2859
▁优化	-2860
▁功能	-2861
▁成长	-2862
▁税收	-2863
▁重要性	-2864
▁划	-2865
▁校	-2866
▁赶	-2867
万年	-2868
▁半岛	-2869
▁多数	-2870
▁总值	-2871
▁推向	-2872
▁渠道	-2873
▁看来	-2874
▁著名	-2875
.....	-2876
▁......	-2877
▁售	-2878
▁辞	-2879
十年	-2880
▁17	-2881
▁具备	-2882
▁并非	-2883
▁当天	-2884
▁辉煌	-2885
▁铁路	-2886
▁血	-2887
▁误	-2888
▁贪	-2889
▁刚刚	-2890
▁回到	-2891
▁布希	-2892
▁往往	-2893
▁抗议	-2894
▁斯坦	-2895
▁联合公报	-2896
▁护	-2897
▁盾	-2898
▁肩	-2899
▁辽	-2900
▁骨	-2901
三日	-2902
▁动摇	-2903
▁升级	-2904
▁声称	-2905
▁小时	-2906
▁机动	-2907
▁监察	-2908
▁互联网	-2909
▁大多数	-2910
▁忠	-2911
▁量	-2912
五日	-2913
▁位置	-2914
▁协助	-2915
▁否认	-2916
▁多人	-2917
▁治国	-2918
▁预计	-2919
▁全社会	-2920
▁国内外	-2921
▁张万年	-2922
▁句	-2923
▁款	-2924
▁洋	-2925
▁90	-2926
▁人均	-2927
▁减轻	-2928
▁战术	-2929
▁那麽	-2930
▁州	-2931
▁荣	-2932
尼亚	-2933
所以	-2934
管理	-2935
▁专项	-2936
▁党派	-2937
▁回避	-2938
▁应有	-2939
▁很难	-2940
▁清醒	-2941
▁盟国	-2942
▁移民	-2943
▁军国主义	-2944
▁长期以来	-2945
▁戒	-2946
▁菲	-2947
▁读	-2948
▁贾	-2949
克杰	-2950
生产	-2951
▁一体	-2952
▁体育	-2953
▁和谈	-2954
▁妇女	-2955
▁理由	-2956
▁登记	-2957
▁跨国	-2958
▁成克杰	-2959
▁抛	-2960
▁测	-2961
▁绿	-2962
▁不容	-2963
▁加深	-2964
▁后果	-2965
▁应用	-2966
▁思考	-2967
▁战区	-2968
▁效率	-2969
▁汽车	-2970
▁网上	-2971
▁舞台	-2972
▁试点	-2973
▁之所以	-2974
▁绝大多数	-2975
18	-2976
▁厂	-2977
▁厅	-2978
▁惩	-2979
▁暗	-2980
▁珍	-2981
▁闭	-2982
▁震	-2983
安门	-2984
▁中非	-2985
▁举措	-2986
▁关税	-2987
▁军人	-2988
▁办理	-2989
▁又是	-2990
▁国企	-2991
▁巴基	-2992
▁敌对	-2993
▁莫斯	-2994
▁天安门	-2995
▁勤	-2996
▁坐	-2997
▁岗	-2998
▁携	-2999
▁纯	-3000
▁互相	-3001
▁互访	-3002
▁总部	-3003
▁成本	-3004
▁潮流	-3005
▁轨道	-3006
▁院校	-3007
▁雷达	-3008
▁认识到	-3009
▁巴基斯坦	-3010
30	-3011
▁T	-3012
▁射	-3013
▁幸	-3014
▁汉	-3015
▁竟	-3016
▁贺	-3017
市场	-3018
▁借口	-3019
▁历来	-3020
▁失去	-3021
▁打破	-3022
▁最好	-3023
▁现场	-3024
▁采用	-3025
▁预期	-3026
▁领空	-3027
▁婚	-3028
▁宽	-3029
▁浪	-3030
▁炸	-3031
▁穆	-3032
不移	-3033
四日	-3034
联盟	-3035
▁为首	-3036
▁今日	-3037
▁似乎	-3038
▁则是	-3039
▁总参	-3040
▁意志	-3041
▁探讨	-3042
▁满足	-3043
▁第九	-3044
▁纪律	-3045
▁随后	-3046
▁一方面	-3047
▁上半年	-3048
▁研讨会	-3049
17	-3050
28	-3051
▁阴	-3052
▁麻	-3053
▁上下	-3054
▁上来	-3055
▁四川	-3056
▁回顾	-3057
▁国债	-3058
▁担心	-3059
▁极为	-3060
▁海洋	-3061
▁海湾	-3062
▁类似	-3063
▁故	-3064
布会	-3065
材料	-3066
▁以往	-3067
▁别国	-3068
▁彼此	-3069
▁成熟	-3070
▁南联盟	-3071
▁高素质	-3072
▁吨	-3073
▁姜	-3074
▁宋	-3075
▁沟	-3076
▁焦	-3077
▁疑	-3078
▁贸	-3079
▁闹	-3080
六日	-3081
▁准确	-3082
▁因而	-3083
▁宝贵	-3084
▁扩散	-3085
▁日中	-3086
▁祝愿	-3087
▁进出	-3088
▁坚定不移	-3089
25	-3090
▁临	-3091
▁衷	-3092
不到	-3093
形态	-3094
▁会长	-3095
▁使馆	-3096
▁修正	-3097
▁全力	-3098
▁审批	-3099
▁心理	-3100
▁才是	-3101
▁找到	-3102
▁振兴	-3103
▁摆脱	-3104
▁院长	-3105
▁根本上	-3106
▁水资源	-3107
▁埃	-3108
▁残	-3109
▁辛	-3110
▁顽	-3111
▁颁	-3112
二年	-3113
关系	-3114
▁严厉	-3115
▁吸收	-3116
▁四月	-3117
▁学术	-3118
▁寻求	-3119
▁环保	-3120
▁电信	-3121
▁站在	-3122
▁编制	-3123
▁会见时	-3124
▁圣	-3125
▁奖	-3126
▁朗	-3127
▁毁	-3128
▁汪	-3129
▁浙	-3130
▁煤	-3131
▁究	-3132
▁阳	-3133
▁雄	-3134
七日	-3135
▁从来	-3136
▁在座	-3137
▁坚实	-3138
▁敏感	-3139
▁最新	-3140
▁本次	-3141
▁积累	-3142
▁视为	-3143
▁敢	-3144
▁洪	-3145
▁药	-3146
▁陷	-3147
▁医疗	-3148
▁南京	-3149
▁启动	-3150
▁处于	-3151
▁定位	-3152
▁总额	-3153
▁旗帜	-3154
▁税费	-3155
▁重庆	-3156
▁莫斯科	-3157
▁嫌	-3158
▁扭	-3159
启月	-3160
诺夫	-3161
▁东部	-3162
▁出台	-3163
▁国力	-3164
▁城乡	-3165
▁强权	-3166
▁拓展	-3167
▁武警	-3168
▁空袭	-3169
▁行径	-3170
▁衷心	-3171
▁迫切	-3172
▁章启月	-3173
▁免	-3174
▁牌	-3175
▁主流	-3176
▁人数	-3177
▁典型	-3178
▁卫生	-3179
▁反而	-3180
▁容易	-3181
▁局部	-3182
▁早在	-3183
▁浙江	-3184
▁警方	-3185
▁违背	-3186
▁意识形态	-3187
▁资本主义	-3188
▁忽	-3189
声明	-3190
邦国	-3191
▁发布	-3192
▁普通	-3193
▁突然	-3194
▁组建	-3195
▁都会	-3196
▁金大	-3197
▁金额	-3198
▁吴邦国	-3199
▁1996	-3200
▁联合声明	-3201
▁领导班子	-3202
▁新闻发布会	-3203
▁您	-3204
▁愤	-3205
▁阁	-3206
▁隆	-3207
皮书	-3208
结合	-3209
▁东南	-3210
▁全民	-3211
▁工资	-3212
▁投票	-3213
▁沟通	-3214
▁爆炸	-3215
▁特大	-3216
▁退出	-3217
▁亏	-3218
▁僵	-3219
▁会计	-3220
▁依照	-3221
▁后来	-3222
▁安定	-3223
▁指责	-3224
▁更高	-3225
▁死亡	-3226
▁派出	-3227
▁火力	-3228
▁预防	-3229
----	-3230
▁注意到	-3231
▁相结合	-3232
▁金大中	-3233
▁形式主义	-3234
▁赋	-3235
▁零	-3236
收入	-3237
有制	-3238
▁主办	-3239
▁合同	-3240
▁和解	-3241
▁境内	-3242
▁工具	-3243
▁庆祝	-3244
▁既要	-3245
▁比例	-3246
▁纳入	-3247
▁行使	-3248
▁这就	-3249
▁白皮书	-3250
▁而不是	-3251
▁叫	-3252
▁贩	-3253
原则	-3254
建华	-3255
意义	-3256
殖民	-3257
特区	-3258
▁七一	-3259
▁不论	-3260
▁崇高	-3261
▁廉政	-3262
▁开创	-3263
▁拥护	-3264
▁本人	-3265
▁至少	-3266
▁表述	-3267
▁边界	-3268
▁检察院	-3269
21	-3270
▁丁	-3271
▁夏	-3272
▁弱	-3273
▁微	-3274
▁愈	-3275
▁段	-3276
▁献	-3277
▁缔	-3278
大会	-3279
▁公平	-3280
▁只会	-3281
▁否则	-3282
▁撞毁	-3283
▁支出	-3284
▁特征	-3285
▁环节	-3286
▁继承	-3287
▁适当	-3288
▁少数民族	-3289
▁弘	-3290
▁曲	-3291
▁果	-3292
研究	-3293
▁亲自	-3294
▁以前	-3295
▁医院	-3296
▁婚姻	-3297
▁带领	-3298
▁法治	-3299
▁电脑	-3300
▁销售	-3301
▁人民政府	-3302
▁各界人士	-3303
▁宴	-3304
▁逆	-3305
▁中西	-3306
▁人道	-3307
▁冲绳	-3308
▁吴仪	-3309
▁呈现	-3310
▁多少	-3311
▁审计	-3312
▁并未	-3313
▁提升	-3314
▁支援	-3315
▁智慧	-3316
▁海协	-3317
▁身份	-3318
▁不得不	-3319
▁广东省	-3320
▁尖	-3321
之交	-3322
▁估计	-3323
▁台办	-3324
▁善意	-3325
▁建成	-3326
▁现状	-3327
▁签订	-3328
▁肩负	-3329
▁议定	-3330
▁调动	-3331
▁赞成	-3332
▁采购	-3333
▁二十一世纪	-3334
23	-3335
EC	-3336
▁卖	-3337
▁替	-3338
▁覆	-3339
九日	-3340
▁优先	-3341
▁信托	-3342
▁内涵	-3343
▁加剧	-3344
▁反复	-3345
▁取缔	-3346
▁对手	-3347
▁高等	-3348
▁经贸部	-3349
▁议定书	-3350
▁进出口	-3351
▁阿拉伯	-3352
▁一九九九年	-3353
▁士	-3354
▁扫	-3355
▁痛	-3356
▁逃	-3357
▁一家	-3358
▁使得	-3359
▁借鉴	-3360
▁倾向	-3361
▁军费	-3362
▁国事	-3363
▁培育	-3364
▁接待	-3365
▁推广	-3366
▁整治	-3367
▁既是	-3368
▁留下	-3369
▁神圣	-3370
▁赋予	-3371
▁企业家	-3372
▁成员国	-3373
▁战斗机	-3374
▁世纪之交	-3375
▁G	-3376
▁丧	-3377
▁悲	-3378
人心	-3379
加坡	-3380
访问	-3381
▁一方	-3382
▁三峡	-3383
▁享有	-3384
▁债务	-3385
▁出访	-3386
▁名义	-3387
▁在于	-3388
▁广西	-3389
▁待遇	-3390
▁政局	-3391
▁早已	-3392
▁活跃	-3393
▁策略	-3394
▁费用	-3395
▁领袖	-3396
▁可以说	-3397
▁新加坡	-3398
▁董建华	-3399
▁中央政府	-3400
▁国事访问	-3401
▁指导思想	-3402
▁有关方面	-3403
▁异	-3404
▁惊	-3405
保护	-3406
姆斯	-3407
广场	-3408
牺牲	-3409
▁26	-3410
▁三月	-3411
▁之行	-3412
▁取消	-3413
▁富有	-3414
▁态势	-3415
▁未能	-3416
▁职业	-3417
▁访美	-3418
▁这场	-3419
▁道理	-3420
▁遭受	-3421
▁配套	-3422
▁公有制	-3423
▁天安门广场	-3424
▁%	-3425
▁置	-3426
▁艺	-3427
▁觉	-3428
不能	-3429
耶夫	-3430
▁事关	-3431
▁代价	-3432
▁命运	-3433
▁市长	-3434
▁意愿	-3435
▁泰国	-3436
▁牺牲	-3437
▁警告	-3438
▁重组	-3439
▁不久前	-3440
▁贸易额	-3441
▁响	-3442
▁夜	-3443
▁熟	-3444
埔寨	-3445
权益	-3446
▁下岗	-3447
▁严打	-3448
▁中欧	-3449
▁加工	-3450
▁岗位	-3451
▁混乱	-3452
▁陆军	-3453
▁飞弹	-3454
▁太平洋	-3455
▁柬埔寨	-3456
▁合法权益	-3457
27	-3458
▁散	-3459
条件	-3460
PEC	-3461
▁专利	-3462
▁亏损	-3463
▁到来	-3464
▁总是	-3465
▁操作	-3466
▁真理	-3467
▁老挝	-3468
▁舰队	-3469
▁鼓吹	-3470
克斯坦	-3471
▁二零零零年	-3472
14	-3473
▁拜	-3474
▁笔	-3475
▁迄	-3476
▁严正	-3477
▁中亚	-3478
▁九二	-3479
▁伊朗	-3480
▁历程	-3481
▁客人	-3482
▁尊严	-3483
▁尽早	-3484
▁总量	-3485
▁支付	-3486
▁海域	-3487
▁等等	-3488
▁纠正	-3489
▁自我	-3490
▁至关	-3491
▁角色	-3492
▁警惕	-3493
▁首要	-3494
▁APEC	-3495
▁授	-3496
▁累	-3497
不开	-3498
▁优良	-3499
▁偷渡	-3500
▁利润	-3501
▁地球	-3502
▁多样	-3503
▁展示	-3504
▁很快	-3505
▁时机	-3506
▁现行	-3507
▁说是	-3508
▁隆重	-3509
▁创造性	-3510
▁投资者	-3511
▁针对性	-3512
22	-3513
▁孤	-3514
▁曹	-3515
▁释	-3516
拉夫	-3517
▁享受	-3518
▁人物	-3519
▁内外	-3520
▁内需	-3521
▁四十	-3522
▁就此	-3523
▁市民	-3524
▁灾难	-3525
▁简单	-3526
▁迄今	-3527
▁追究	-3528
▁驱逐	-3529
▁鼓舞	-3530
▁爱国主义	-3531
NT	-3532
▁卢	-3533
▁夺	-3534
▁幅	-3535
▁甘	-3536
▁中韩	-3537
▁交谈	-3538
▁傅全	-3539
▁取决	-3540
▁同期	-3541
▁国土	-3542
▁市委	-3543
▁拉美	-3544
▁指标	-3545
▁有着	-3546
▁正如	-3547
▁毫无	-3548
▁表态	-3549
▁辽宁	-3550
▁阁下	-3551
▁总体上	-3552
▁商业银行	-3553
▁F	-3554
▁些	-3555
▁废	-3556
▁狠	-3557
什麽	-3558
尔德	-3559
重要	-3560
▁以此	-3561
▁众多	-3562
▁公报	-3563
▁场所	-3564
▁新党	-3565
▁道歉	-3566
▁研究所	-3567
▁至关重要	-3568
19	-3569
▁C	-3570
▁录	-3571
▁律	-3572
▁抱	-3573
▁拟	-3574
▁脚	-3575
分子	-3576
周知	-3577
未有	-3578
统计	-3579
▁60	-3580
▁众所	-3581
▁例如	-3582
▁半个	-3583
▁就职	-3584
▁教师	-3585
▁数据	-3586
▁究竟	-3587
▁第六	-3588
▁艺术	-3589
▁选民	-3590
▁配置	-3591
▁高校	-3592
▁众议院	-3593
▁众所周知	-3594
▁民族团结	-3595
▁刻	-3596
▁横	-3597
▁滋	-3598
▁版	-3599
▁苦	-3600
▁袭	-3601
▁距	-3602
▁跳	-3603
▁黎	-3604
五十	-3605
瞩目	-3606
NTR	-3607
▁人力	-3608
▁准则	-3609
▁原来	-3610
▁变革	-3611
▁处在	-3612
▁好处	-3613
▁权益	-3614
▁闭幕	-3615
▁中西部	-3616
▁可能性	-3617
▁有力地	-3618
▁1995	-3619
▁冰	-3620
▁墨	-3621
▁忘	-3622
▁恰	-3623
▁惨	-3624
▁捍	-3625
▁23	-3626
▁不到	-3627
▁不合	-3628
▁不够	-3629
▁助理	-3630
▁又要	-3631
▁宴会	-3632
▁无限	-3633
▁港澳	-3634
▁紧急	-3635
▁凝聚力	-3636
▁并不是	-3637
▁成功的	-3638
▁科学院	-3639
▁这一点	-3640
▁PNTR	-3641
▁国家利益	-3642
26	-3643
▁且	-3644
▁帝	-3645
▁桥	-3646
▁洛	-3647
▁荒	-3648
▁邦	-3649
▁优惠	-3650
▁全省	-3651
▁公然	-3652
▁加紧	-3653
▁嫌疑	-3654
▁将来	-3655
▁得以	-3656
▁捍卫	-3657
▁时报	-3658
▁最多	-3659
▁本月	-3660
▁极其	-3661
▁污染	-3662
▁立足	-3663
▁约束	-3664
▁表决	-3665
▁论述	-3666
▁赞同	-3667
▁倍	-3668
▁男	-3669
▁齐	-3670
南省	-3671
服务	-3672
▁上将	-3673
▁六月	-3674
▁到底	-3675
▁可靠	-3676
▁截至	-3677
▁报纸	-3678
▁激励	-3679
▁电话	-3680
▁诸多	-3681
▁走上	-3682
▁适用	-3683
▁顾问	-3684
▁相应的	-3685
▁国务委员	-3686
▁勾	-3687
▁挂	-3688
四十	-3689
生活	-3690
▁七月	-3691
▁不知	-3692
▁中巴	-3693
▁之下	-3694
▁付出	-3695
▁候选	-3696
▁委托	-3697
▁宏伟	-3698
▁政法	-3699
▁正当	-3700
▁比重	-3701
▁舰艇	-3702
▁设置	-3703
▁降落	-3704
▁骨干	-3705
▁修正案	-3706
▁通讯社	-3707
5%	-3708
▁奇	-3709
▁季	-3710
▁席	-3711
▁玩	-3712
▁瓦	-3713
▁陕	-3714
工程	-3715
▁专题	-3716
▁仍在	-3717
▁内阁	-3718
▁在京	-3719
▁更新	-3720
▁示威	-3721
▁见面	-3722
▁认同	-3723
▁通报	-3724
▁长官	-3725
▁间谍	-3726
▁阵地	-3727
▁工业化	-3728
▁电视台	-3729
▁增长速度	-3730
▁刺	-3731
▁幕	-3732
▁颇	-3733
五年	-3734
政区	-3735
▁70	-3736
▁一代	-3737
▁人心	-3738
▁任命	-3739
▁信用	-3740
▁光荣	-3741
▁南斯	-3742
▁受害	-3743
▁实战	-3744
▁才有	-3745
▁机组	-3746
▁毕业	-3747
▁清理	-3748
▁统治	-3749
▁脱离	-3750
▁自动	-3751
▁财务	-3752
▁运作	-3753
行政区	-3754
▁处理好	-3755
▁人道主义	-3756
▁工人阶级	-3757
▁廉政建设	-3758
▁百分之十	-3759
▁志	-3760
▁账	-3761
二日	-3762
路线	-3763
▁乐观	-3764
▁二百	-3765
▁保卫	-3766
▁党内	-3767
▁公共	-3768
▁共有	-3769
▁开支	-3770
▁战法	-3771
▁支柱	-3772
▁政务	-3773
▁既有	-3774
▁步骤	-3775
▁殖民	-3776
▁演说	-3777
▁灵活	-3778
▁科教	-3779
▁高效	-3780
▁为什麽	-3781
▁环境保护	-3782
▁]	-3783
▁宁	-3784
▁寄	-3785
▁披	-3786
信心	-3787
诉讼	-3788
▁八十	-3789
▁前所	-3790
▁坚强	-3791
▁外部	-3792
▁审理	-3793
▁情绪	-3794
▁接近	-3795
▁有益	-3796
▁缩小	-3797
▁远程	-3798
▁遵循	-3799
▁一九八	-3800
▁也就是	-3801
▁候选人	-3802
▁敬	-3803
▁27	-3804
▁不愿	-3805
▁世人	-3806
▁之外	-3807
▁党校	-3808
▁党风	-3809
▁发放	-3810
▁弘扬	-3811
▁当代	-3812
▁江苏	-3813
▁防范	-3814
▁陕西	-3815
▁非正	-3816
▁面积	-3817
▁财政部	-3818
▁前所未有	-3819
▁伪	-3820
学生	-3821
效益	-3822
民党	-3823
海峡	-3824
▁举世	-3825
▁也就	-3826
▁伤害	-3827
▁军火	-3828
▁判断	-3829
▁反弹	-3830
▁呼声	-3831
▁实效	-3832
▁宣称	-3833
▁局长	-3834
▁总的	-3835
▁期望	-3836
▁比如	-3837
▁率先	-3838
▁直辖	-3839
▁精力	-3840
▁资格	-3841
▁陷入	-3842
▁预测	-3843
▁高速	-3844
▁执政党	-3845
▁政治家	-3846
▁责任制	-3847
▁经济效益	-3848
er	-3849
▁旨	-3850
▁杰	-3851
▁渗	-3852
▁音	-3853
大利	-3854
起来	-3855
▁22	-3856
▁争端	-3857
▁人生	-3858
▁俄中	-3859
▁关切	-3860
▁否定	-3861
▁富裕	-3862
▁对方	-3863
▁布局	-3864
▁开辟	-3865
▁感受	-3866
▁水利	-3867
▁焦点	-3868
▁爆发	-3869
▁相继	-3870
▁选票	-3871
▁领会	-3872
▁意大利	-3873
▁台湾地区	-3874
▁台湾海峡	-3875
▁摧	-3876
▁督	-3877
▁食	-3878
产权	-3879
代表	-3880
▁别人	-3881
▁团长	-3882
▁幸福	-3883
▁敌人	-3884
▁施政	-3885
▁日趋	-3886
▁此行	-3887
▁海基	-3888
▁热点	-3889
▁航母	-3890
▁驻军	-3891
▁有能力	-3892
▁每一个	-3893
▁中小企业	-3894
▁休	-3895
▁器	-3896
▁契	-3897
▁庞	-3898
▁恪	-3899
▁户	-3900
层次	-3901
▁一度	-3902
▁上年	-3903
▁依赖	-3904
▁全文	-3905
▁军机	-3906
▁几十	-3907
▁制止	-3908
▁前来	-3909
▁大批	-3910
▁天津	-3911
▁山东	-3912
▁普及	-3913
▁流动	-3914
▁消极	-3915
▁真实	-3916
▁绝不	-3917
▁福建省	-3918
▁/	-3919
▁冒	-3920
▁镇	-3921
尔布	-3922
▁公众	-3923
▁判处	-3924
▁固定	-3925
▁实验	-3926
▁对付	-3927
▁封建	-3928
▁律师	-3929
▁明天	-3930
▁智利	-3931
▁登陆	-3932
▁边境	-3933
▁顽固	-3934
▁不能不	-3935
▁中南海	-3936
▁叙利亚	-3937
▁直辖市	-3938
▁非正式	-3939
▁知识产权	-3940
▁套	-3941
万亿	-3942
▁仍是	-3943
▁传播	-3944
▁僵局	-3945
▁多元	-3946
▁抓获	-3947
▁渗透	-3948
▁港人	-3949
▁结论	-3950
▁营造	-3951
▁董事	-3952
▁转向	-3953
▁下半年	-3954
▁副总统	-3955
▁分裂主义	-3956
▁习	-3957
▁刊	-3958
▁剥	-3959
▁悠	-3960
▁掩	-3961
▁班	-3962
▁算	-3963
务员	-3964
比亚	-3965
▁保留	-3966
▁大中	-3967
▁安徽	-3968
▁忽视	-3969
▁承包	-3970
▁拖延	-3971
▁收到	-3972
▁方便	-3973
▁村民	-3974
▁来源	-3975
▁模拟	-3976
▁歪曲	-3977
▁每天	-3978
▁气候	-3979
▁班子	-3980
▁财富	-3981
▁遗憾	-3982
▁傅全有	-3983
▁提高到	-3984
▁经济体制	-3985
▁守	-3986
▁母	-3987
▁衰	-3988
▁责	-3989
▁险	-3990
▁顶	-3991
不可	-3992
▁一下	-3993
▁东北	-3994
▁制订	-3995
▁十月	-3996
▁印尼	-3997
▁子女	-3998
▁封锁	-3999
▁收费	-4000
▁本土	-4001
▁此前	-4002
▁火箭	-4003
▁父母	-4004
▁自卫	-4005
▁访日	-4006
▁随时	-4007
▁面貌	-4008
▁飞船	-4009
▁高达	-4010
▁为人民	-4011
▁劳动力	-4012
▁大中型	-4013
▁拉姆斯	-4014
▁强权政治	-4015
▁为人民服务	-4016
▁妄	-4017
▁技	-4018
▁掉	-4019
▁杂	-4020
▁甲	-4021
▁盗	-4022
▁穷	-4023
▁署	-4024
▁须	-4025
一次	-4026
必要	-4027
战线	-4028
科学	-4029
阶段	-4030
▁一套	-4031
▁介入	-4032
▁公路	-4033
▁国王	-4034
▁存款	-4035
▁官僚	-4036
▁对立	-4037
▁有权	-4038
▁未经	-4039
▁生物	-4040
▁自行	-4041
▁试图	-4042
▁语言	-4043
▁大使馆	-4044
▁大部分	-4045
▁负责任	-4046
▁统一战线	-4047
▁B	-4048
▁卓	-4049
▁扬	-4050
▁详	-4051
▁钢	-4052
报道	-4053
斯兰	-4054
百万	-4055
▁中朝	-4056
▁出去	-4057
▁动荡	-4058
▁占有	-4059
▁受益	-4060
▁地面	-4061
▁实在	-4062
▁小康	-4063
▁弹道	-4064
▁暂时	-4065
▁最为	-4066
▁牢固	-4067
▁真诚	-4068
▁补充	-4069
▁产业化	-4070
▁大幅度	-4071
▁工商界	-4072
▁据报道	-4073
▁经贸委	-4074
▁帝国主义	-4075
▁一九九八年	-4076
▁丝	-4077
▁久	-4078
▁挫	-4079
▁谨	-4080
▁遥	-4081
▁一向	-4082
▁一如	-4083
▁东山	-4084
▁京都	-4085
▁储备	-4086
▁十六	-4087
▁南非	-4088
▁大胆	-4089
▁学员	-4090
▁强国	-4091
▁扎实	-4092
▁排除	-4093
▁揭露	-4094
▁材料	-4095
▁构想	-4096
▁申办	-4097
▁福州	-4098
▁稳步	-4099
▁精心	-4100
▁紧紧	-4101
▁近来	-4102
▁陆续	-4103
▁高原	-4104
▁鲜明	-4105
▁麻烦	-4106
▁195	-4107
▁1992	-4108
▁侵略战争	-4109
▁总参谋长	-4110
29	-4111
▁亿	-4112
▁欲	-4113
▁蔡	-4114
实实	-4115
▁丧失	-4116
▁养老	-4117
▁创业	-4118
▁命令	-4119
▁坦克	-4120
▁基督	-4121
▁处罚	-4122
▁教学	-4123
▁施行	-4124
▁日内	-4125
▁死刑	-4126
▁河北	-4127
▁深厚	-4128
▁罗干	-4129
▁节水	-4130
▁认清	-4131
▁伊斯兰	-4132
▁嫌疑人	-4133
▁建立起	-4134
▁走出去	-4135
▁凭	-4136
▁欣	-4137
▁薄	-4138
大战	-4139
百计	-4140
▁三军	-4141
▁下来	-4142
▁不变	-4143
▁不惜	-4144
▁不稳	-4145
▁供应	-4146
▁同盟	-4147
▁寻找	-4148
▁应邀	-4149
▁整改	-4150
▁文莱	-4151
▁旨在	-4152
▁明白	-4153
▁李肇	-4154
▁某种	-4155
▁秘密	-4156
▁进攻	-4157
▁邻国	-4158
▁难题	-4159
▁一九七	-4160
▁书记处	-4161
▁1994	-4162
▁南斯拉夫	-4163
▁局部战争	-4164
▁机构改革	-4165
▁I	-4166
▁哥	-4167
▁拨	-4168
▁梦	-4169
▁租	-4170
▁缴	-4171
▁诱	-4172
▁邮	-4173
庆红	-4174
执行	-4175
方位	-4176
▁五月	-4177
▁公认	-4178
▁势必	-4179
▁如下	-4180
▁家属	-4181
▁拉萨	-4182
▁破产	-4183
▁空前	-4184
▁编队	-4185
▁美俄	-4186
▁迈出	-4187
人民币	-4188
▁公安部	-4189
▁日内瓦	-4190
▁曾庆红	-4191
▁本报讯	-4192
▁离不开	-4193
▁1000	-4194
▁塞	-4195
▁扮	-4196
▁挽	-4197
▁败	-4198
内外	-4199
势力	-4200
奋斗	-4201
持续	-4202
达姆	-4203
▁再度	-4204
▁商谈	-4205
▁团伙	-4206
▁性能	-4207
▁挑衅	-4208
▁提交	-4209
▁显得	-4210
▁概念	-4211
▁生机	-4212
▁省委	-4213
▁美日	-4214
▁返回	-4215
▁300	-4216
▁TMD	-4217
▁一体化	-4218
▁可持续	-4219
▁恶势力	-4220
▁有效地	-4221
▁服务业	-4222
▁李肇星	-4223
▁海内外	-4224
▁元人民币	-4225
▁安全生产	-4226
▁可持续发展	-4227
▁松	-4228
▁竭	-4229
▁赤	-4230
电话	-4231
领导	-4232
▁东京	-4233
▁仍有	-4234
▁削减	-4235
▁削弱	-4236
▁哪些	-4237
▁导向	-4238
▁文字	-4239
▁来华	-4240
▁概括	-4241
▁渔业	-4242
▁白俄	-4243
▁管道	-4244
▁裁军	-4245
▁走过	-4246
▁进取	-4247
▁远华	-4248
▁违纪	-4249
▁预警	-4250
自治区	-4251
菲尔德	-4252
▁办公厅	-4253
▁科学家	-4254
▁表现出	-4255
▁白俄罗斯	-4256
▁艰苦奋斗	-4257
▁彭	-4258
▁片	-4259
▁稍	-4260
▁穿	-4261
分点	-4262
法院	-4263
议员	-4264
▁28	-4265
▁倡导	-4266
▁全年	-4267
▁判决	-4268
▁南海	-4269
▁回应	-4270
▁庞大	-4271
▁廉洁	-4272
▁推出	-4273
▁明报	-4274
▁流通	-4275
▁用人	-4276
▁相同	-4277
▁看出	-4278
▁许可	-4279
▁说服	-4280
▁较快	-4281
▁边防	-4282
▁通货	-4283
▁阻挠	-4284
▁阻止	-4285
▁阿尔	-4286
▁附近	-4287
▁院士	-4288
▁全方位	-4289
▁决不能	-4290
▁多方面	-4291
▁拉姆斯菲尔德	-4292
24	-4293
▁察	-4294
▁耕	-4295
八十	-4296
既往	-4297
适应	-4298
▁下台	-4299
▁为何	-4300
▁儿童	-4301
▁千方	-4302
▁各省	-4303
▁常任	-4304
▁总之	-4305
▁悠久	-4306
▁扮演	-4307
▁扶持	-4308
▁抗旱	-4309
▁日方	-4310
▁最低	-4311
▁江西	-4312
▁灾害	-4313
▁电力	-4314
▁确认	-4315
▁罪行	-4316
▁邪说	-4317
▁价值观	-4318
▁单方面	-4319
▁相适应	-4320
▁一如既往	-4321
▁千方百计	-4322
▁国家机关	-4323
▁E	-4324
▁击	-4325
▁哲	-4326
▁滥	-4327
▁蒋	-4328
▁诞	-4329
▁迹	-4330
七年	-4331
主教	-4332
全意	-4333
民主	-4334
调控	-4335
▁一时	-4336
▁不好	-4337
▁不安	-4338
▁他人	-4339
▁伤亡	-4340
▁全心	-4341
▁同比	-4342
▁提前	-4343
▁摧毁	-4344
▁文艺	-4345
▁本来	-4346
▁率领	-4347
▁监视	-4348
▁省长	-4349
▁节目	-4350
▁警察	-4351
▁话题	-4352
▁贪污	-4353
▁身体	-4354
▁近邻	-4355
▁上海市	-4356
▁不合理	-4357
▁基本上	-4358
▁全心全意	-4359
▁宏观调控	-4360
▁生产能力	-4361
▁丑	-4362
▁垅	-4363
▁播	-4364
▁末	-4365
▁煽	-4366
▁触	-4367
▁雪	-4368
不懈	-4369
膨胀	-4370
▁以便	-4371
▁充实	-4372
▁分钟	-4373
▁列入	-4374
▁到位	-4375
▁半年	-4376
▁回升	-4377
▁妥协	-4378
▁学院	-4379
▁密集	-4380
▁模糊	-4381
▁欺骗	-4382
▁湖北	-4383
▁省区	-4384
▁看待	-4385
▁称为	-4386
▁考核	-4387
▁英雄	-4388
▁表演	-4389
▁起草	-4390
▁总统府	-4391
▁海基会	-4392
▁社会化	-4393
▁责任感	-4394
▁调查研究	-4395
▁景	-4396
▁街	-4397
法特	-4398
▁三百	-4399
▁不一	-4400
▁二千	-4401
▁党建	-4402
▁出任	-4403
▁分离	-4404
▁力争	-4405
▁取代	-4406
▁埃及	-4407
▁展览	-4408
▁恪守	-4409
▁新台	-4410
▁狠抓	-4411
▁直升	-4412
▁累计	-4413
▁纪委	-4414
▁负面	-4415
▁足够	-4416
分之一	-4417
▁公务员	-4418
▁日本国	-4419
▁有信心	-4420
▁经济学	-4421
▁能不能	-4422
▁人民法院	-4423
▁阿拉法特	-4424
▁狂	-4425
一代	-4426
一年	-4427
斯特	-4428
治理	-4429
▁互动	-4430
▁互补	-4431
▁从中	-4432
▁俄美	-4433
▁出动	-4434
▁受贿	-4435
▁壮大	-4436
▁展望	-4437
▁平壤	-4438
▁手中	-4439
▁担负	-4440
▁放松	-4441
▁此举	-4442
▁熟悉	-4443
▁社论	-4444
▁覆盖	-4445
▁身上	-4446
▁长达	-4447
▁出发点	-4448
▁第三十	-4449
▁各级领导	-4450
▁综合治理	-4451
▁毛泽东思想	-4452
▁唱	-4453
▁宾	-4454
▁弥	-4455
▁浓	-4456
▁腐	-4457
▁跑	-4458
▁颠	-4459
拿大	-4460
西亚	-4461
▁个别	-4462
▁二战	-4463
▁交涉	-4464
▁俄国	-4465
▁光明	-4466
▁初期	-4467
▁可行	-4468
▁吉林	-4469
▁契机	-4470
▁对策	-4471
▁年度	-4472
▁忘记	-4473
▁战士	-4474
▁战备	-4475
▁打开	-4476
▁机械	-4477
▁条款	-4478
▁正面	-4479
▁涉嫌	-4480
▁的确	-4481
▁监事	-4482
▁精确	-4483
▁袭击	-4484
▁见到	-4485
▁较高	-4486
▁适合	-4487
道导弹	-4488
▁加拿大	-4489
▁实质性	-4490
▁工作组	-4491
▁恐怖主义	-4492
▁管理体制	-4493
▁一九九二年	-4494
▁反弹道导弹	-4495
▁慎	-4496
▁易	-4497
共处	-4498
基地	-4499
西哥	-4500
▁一边	-4501
▁仅仅	-4502
▁信号	-4503
▁出路	-4504
▁前夕	-4505
▁各位	-4506
▁地下	-4507
▁得逞	-4508
▁我方	-4509
▁战役	-4510
▁扩张	-4511
▁拉动	-4512
▁持久	-4513
▁相反	-4514
▁私营	-4515
▁策划	-4516
▁股份	-4517
▁觉得	-4518
▁贵国	-4519
▁重复	-4520
▁阶级	-4521
▁项怀	-4522
▁各地区	-4523
▁是不是	-4524
▁有机会	-4525
▁根本性	-4526
▁理事国	-4527
▁1993	-4528
▁和平共处	-4529
▁官僚主义	-4530
▁挖	-4531
▁歌	-4532
▁赫	-4533
特别	-4534
▁却是	-4535
▁否决	-4536
▁在野	-4537
▁大有	-4538
▁大楼	-4539
▁天然	-4540
▁已达	-4541
▁志愿	-4542
▁报导	-4543
▁日子	-4544
▁游戏	-4545
▁禁毒	-4546
▁系列	-4547
▁药品	-4548
▁诞生	-4549
▁贯穿	-4550
▁防务	-4551
▁东南亚	-4552
▁基督教	-4553
▁奥尔布	-4554
▁项怀诚	-4555
▁黑社会	-4556
特别行政区	-4557
.6	-4558
▁亮	-4559
▁园	-4560
▁畅	-4561
▁萧	-4562
出来	-4563
蓬勃	-4564
需要	-4565
▁29	-4566
▁不平	-4567
▁利率	-4568
▁困境	-4569
▁塔吉	-4570
▁差异	-4571
▁战时	-4572
▁报刊	-4573
▁指明	-4574
▁收支	-4575
▁替代	-4576
▁纠纷	-4577
▁股票	-4578
▁落到	-4579
▁详细	-4580
▁距离	-4581
▁迹像	-4582
百分点	-4583
▁直升机	-4584
▁社会主义制度	-4585
▁坏	-4586
▁屡	-4587
▁拼	-4588
▁烟	-4589
▁犹	-4590
▁色	-4591
▁饭	-4592
歧视	-4593
流长	-4594
赖特	-4595
▁一大	-4596
▁不良	-4597
▁以为	-4598
▁促使	-4599
▁军控	-4600
▁刺激	-4601
▁协同	-4602
▁原有	-4603
▁声音	-4604
▁孤立	-4605
▁定期	-4606
▁带头	-4607
▁提到	-4608
▁无人	-4609
▁歪理	-4610
▁汇率	-4611
▁源远	-4612
▁研发	-4613
▁经受	-4614
▁胡长	-4615
▁金钱	-4616
▁防护	-4617
▁500	-4618
▁增长率	-4619
▁天主教	-4620
▁董事长	-4621
▁源远流长	-4622
▁社会制度	-4623
▁社会生活	-4624
▁跨国公司	-4625
▁奥尔布赖特	-4626
▁凌	-4627
▁庄	-4628
▁悬	-4629
▁植	-4630
▁礼	-4631
▁端	-4632
▁纺	-4633
▁艾	-4634
▁谎	-4635
九十	-4636
律宾	-4637
拉圭	-4638
春云	-4639
自主	-4640
▁一片	-4641
▁不受	-4642
▁主观	-4643
▁争议	-4644
▁任用	-4645
▁佛教	-4646
▁光辉	-4647
▁勾结	-4648
▁北方	-4649
▁反响	-4650
▁哲学	-4651
▁回国	-4652
▁大法	-4653
▁好转	-4654
▁学会	-4655
▁实处	-4656
▁常规	-4657
▁建筑	-4658
▁战线	-4659
▁战胜	-4660
▁然后	-4661
▁百姓	-4662
▁统战	-4663
▁统筹	-4664
▁若干	-4665
▁言行	-4666
▁贫富	-4667
▁退耕	-4668
▁防治	-4669
▁题为	-4670
▁公安局	-4671
▁墨西哥	-4672
▁姜春云	-4673
▁胡长清	-4674
▁菲律宾	-4675
▁驱逐舰	-4676
31	-4677
▁敦	-4678
▁梁	-4679
▁浮	-4680
▁烈	-4681
多亿	-4682
实际	-4683
局面	-4684
生育	-4685
▁一级	-4686
▁上空	-4687
▁之路	-4688
▁五年	-4689
▁依托	-4690
▁凡是	-4691
▁创建	-4692
▁办好	-4693
▁双重	-4694
▁外界	-4695
▁怀疑	-4696
▁恐怕	-4697
▁意外	-4698
▁杂志	-4699
▁民营	-4700
▁炮兵	-4701
▁物资	-4702
▁短期	-4703
▁装甲	-4704
▁越是	-4705
▁阻碍	-4706
▁颁布	-4707
▁乌拉圭	-4708
▁各民族	-4709
▁新局面	-4710
▁跨世纪	-4711
▁五年计划	-4712
▁人力资源	-4713
▁共产党员	-4714
▁计划生育	-4715
▁咨	-4716
▁康	-4717
▁捕	-4718
▁楼	-4719
▁涌	-4720
▁熊	-4721
▁碰	-4722
▁蓄	-4723
▁践	-4724
▁铺	-4725
不久	-4726
改造	-4727
▁上任	-4728
▁不敢	-4729
▁业绩	-4730
▁中将	-4731
▁书面	-4732
▁作业	-4733
▁侦查	-4734
▁化解	-4735
▁口号	-4736
▁多个	-4737
▁年均	-4738
▁情势	-4739
▁披露	-4740
▁提请	-4741
▁於是	-4742
▁有过	-4743
▁认定	-4744
▁调研	-4745
▁进而	-4746
▁那里	-4747
▁世界观	-4748
▁企业界	-4749
▁前不久	-4750
▁据统计	-4751
▁独立自主	-4752
▁姆	-4753
▁握	-4754
▁耶	-4755
▁与其	-4756
▁东方	-4757
▁五中	-4758
▁使之	-4759
▁修订	-4760
▁关岛	-4761
▁军民	-4762
▁发起	-4763
▁哈萨	-4764
▁地域	-4765
▁所得	-4766
▁排放	-4767
▁源头	-4768
▁澳大	-4769
▁私人	-4770
▁立委	-4771
▁表面	-4772
▁顺应	-4773
▁一大批	-4774
▁解决好	-4775
▁澳大利亚	-4776
▁伦	-4777
▁嘉	-4778
▁妈	-4779
▁棉	-4780
▁泄	-4781
▁瑞	-4782
▁蔓	-4783
▁询	-4784
▁述	-4785
▁锻	-4786
孩子	-4787
▁优质	-4788
▁倡议	-4789
▁参谋	-4790
▁场合	-4791
▁头脑	-4792
▁妄图	-4793
▁安宁	-4794
▁恶劣	-4795
▁支撑	-4796
▁日美	-4797
▁煽动	-4798
▁缓解	-4799
▁耕地	-4800
▁致使	-4801
▁艰难	-4802
▁蔓延	-4803
▁过渡	-4804
▁难度	-4805
▁旅游业	-4806
▁地方政府	-4807
▁对外贸易	-4808
▁行政管理	-4809
.4	-4810
▁兰	-4811
▁姿	-4812
▁慰	-4813
▁托	-4814
▁扣	-4815
▁猖	-4816
▁皇	-4817
▁盲	-4818
▁肆	-4819
▁肖	-4820
▁酒	-4821
▁钦	-4822
党派	-4823
总统	-4824
纪委	-4825
▁上级	-4826
▁不在	-4827
▁两手	-4828
▁个体	-4829
▁举动	-4830
▁举报	-4831
▁南方	-4832
▁地理	-4833
▁宣扬	-4834
▁急用	-4835
▁控股	-4836
▁政委	-4837
▁晚上	-4838
▁繁重	-4839
▁纺织	-4840
▁设想	-4841
▁近年	-4842
▁退税	-4843
▁透过	-4844
▁遗留	-4845
产阶级	-4846
▁与会者	-4847
▁中纪委	-4848
▁参谋长	-4849
▁组织部	-4850
个百分点	-4851
月二十日	-4852
▁事业单位	-4853
-3	-4854
in	-4855
▁>	-4856
▁兄	-4857
▁劣	-4858
▁抽	-4859
▁济	-4860
▁磨	-4861
▁荷	-4862
▁谭	-4863
▁36	-4864
▁专机	-4865
▁中间	-4866
▁人为	-4867
▁会场	-4868
▁供给	-4869
▁党性	-4870
▁全市	-4871
▁军舰	-4872
▁功夫	-4873
▁南亚	-4874
▁变得	-4875
▁品种	-4876
▁增多	-4877
▁安南	-4878
▁宪章	-4879
▁建党	-4880
▁抵制	-4881
▁曲折	-4882
▁此事	-4883
▁民国	-4884
▁注入	-4885
▁清华	-4886
▁申奥	-4887
▁社团	-4888
▁第七	-4889
▁纪检	-4890
▁终於	-4891
▁而已	-4892
▁表彰	-4893
▁解除	-4894
▁超级	-4895
▁造福	-4896
▁阻挡	-4897
▁驾驶	-4898
▁国际化	-4899
▁市场化	-4900
▁新经济	-4901
▁不得人心	-4902
▁基层组织	-4903
▁外交关系	-4904
DP	-4905
▁弄	-4906
▁循	-4907
▁氛	-4908
▁涵	-4909
▁银	-4910
六十	-4911
情况	-4912
▁一手	-4913
▁一面	-4914
▁之上	-4915
▁二月	-4916
▁从未	-4917
▁倒退	-4918
▁关闭	-4919
▁博士	-4920
▁基因	-4921
▁大门	-4922
▁孩子	-4923
▁扎扎	-4924
▁搜救	-4925
▁斯洛	-4926
▁有一	-4927
▁机密	-4928
▁李铁	-4929
▁理念	-4930
▁知名	-4931
▁示范	-4932
▁诉讼	-4933
▁起点	-4934
▁连战	-4935
▁194	-4936
▁多元化	-4937
▁宗教界	-4938
▁指挥员	-4939
▁实际情况	-4940
▁扎扎实实	-4941
▁佩	-4942
▁侧	-4943
▁拍	-4944
▁淡	-4945
▁灭	-4946
▁笑	-4947
▁聘	-4948
▁诺	-4949
▁逼	-4950
克兰	-4951
力量	-4952
▁两个	-4953
▁严惩	-4954
▁人次	-4955
▁周围	-4956
▁姿态	-4957
▁幅度	-4958
▁平稳	-4959
▁心中	-4960
▁攻坚	-4961
▁检疫	-4962
▁民心	-4963
▁民警	-4964
▁法官	-4965
▁深深	-4966
▁独特	-4967
▁要素	-4968
▁计委	-4969
▁议程	-4970
▁质疑	-4971
▁那种	-4972
▁频频	-4973
▁开幕式	-4974
▁无限期	-4975
▁正常化	-4976
▁足够的	-4977
▁坚持不懈	-4978
▁<	-4979
▁剩	-4980
▁厚	-4981
▁摸	-4982
▁欠	-4983
▁稽	-4984
▁粗	-4985
▁赔	-4986
▁跌	-4987
▁递	-4988
倾销	-4989
卫星	-4990
合作	-4991
永图	-4992
科院	-4993
系统	-4994
▁三千	-4995
▁中旬	-4996
▁前后	-4997
▁前沿	-4998
▁占领	-4999
▁同一	-5000
▁咨询	-5001
▁哪里	-5002
▁增收	-5003
▁大势	-5004
▁抛出	-5005
▁提倡	-5006
▁改组	-5007
▁政客	-5008
▁敦促	-5009
▁早就	-5010
▁有意	-5011
▁根源	-5012
▁模范	-5013
▁此后	-5014
▁特约	-5015
▁珍惜	-5016
▁直到	-5017
▁看看	-5018
▁知情	-5019
▁签字	-5020
▁职权	-5021
▁联络	-5022
▁蓬勃	-5023
▁赞扬	-5024
▁预料	-5025
▁GDP	-5026
▁不稳定	-5027
▁反倾销	-5028
▁另一个	-5029
▁思想上	-5030
▁萨达姆	-5031
▁龙永图	-5032
▁共产主义	-5033
▁知识分子	-5034
▁懂	-5035
▁木	-5036
▁秋	-5037
▁舟	-5038
▁骄	-5039
之不	-5040
之地	-5041
六年	-5042
工业	-5043
▁为止	-5044
▁产量	-5045
▁佛州	-5046
▁信徒	-5047
▁内在	-5048
▁内蒙	-5049
▁军委	-5050
▁到处	-5051
▁十三	-5052
▁复苏	-5053
▁大队	-5054
▁引人	-5055
▁愤慨	-5056
▁搜寻	-5057
▁收购	-5058
▁正视	-5059
▁紧缩	-5060
▁自杀	-5061
▁计票	-5062
▁谎言	-5063
▁转折	-5064
▁载人	-5065
▁近代	-5066
▁远远	-5067
▁透明	-5068
▁那时	-5069
▁锻炼	-5070
▁震惊	-5071
项原则	-5072
▁影响力	-5073
▁招待会	-5074
▁有必要	-5075
▁监事会	-5076
▁紧迫感	-5077
▁自民党	-5078
▁赢得了	-5079
▁宏观经济	-5080
.3	-5081
▁丹	-5082
▁插	-5083
▁枚	-5084
▁洗	-5085
▁漏	-5086
▁潘	-5087
▁灌	-5088
▁隔	-5089
▁鱼	-5090
成效	-5091
▁也许	-5092
▁代初	-5093
▁减税	-5094
▁分化	-5095
▁动用	-5096
▁区别	-5097
▁可见	-5098
▁士兵	-5099
▁季度	-5100
▁年底	-5101
▁应急	-5102
▁想法	-5103
▁担忧	-5104
▁授权	-5105
▁此时	-5106
▁氛围	-5107
▁第八	-5108
▁观看	-5109
▁记录	-5110
▁讲座	-5111
▁询问	-5112
▁财经	-5113
▁践踏	-5114
▁迷信	-5115
▁长足	-5116
▁间接	-5117
▁首位	-5118
▁196	-5119
▁十一月	-5120
▁理事会	-5121
▁访问团	-5122
▁这一切	-5123
五项原则	-5124
▁经济学家	-5125
▁和平共处五项原则	-5126
.8	-5127
▁坎	-5128
▁旱	-5129
▁畜	-5130
▁索	-5131
▁词	-5132
互利	-5133
可见	-5134
布什	-5135
▁35	-5136
▁EP	-5137
▁争夺	-5138
▁五千	-5139
▁保守	-5140
▁儿子	-5141
▁兵力	-5142
▁加上	-5143
▁十四	-5144
▁单一	-5145
▁地质	-5146
▁当事	-5147
▁慎重	-5148
▁李文	-5149
▁杨洁	-5150
▁核电	-5151
▁法人	-5152
▁特首	-5153
▁用于	-5154
▁用水	-5155
▁疑虑	-5156
▁着眼	-5157
▁缔约	-5158
▁贵州	-5159
▁跟踪	-5160
▁转业	-5161
▁内蒙古	-5162
▁志愿军	-5163
▁感受到	-5164
▁轰炸机	-5165
▁集团军	-5166
▁平等互利	-5167
▁百分之七	-5168
.5	-5169
▁兑	-5170
▁圈	-5171
▁滞	-5172
▁饱	-5173
三年	-5174
下来	-5175
大国	-5176
孤行	-5177
工作	-5178
百亿	-5179
贝尔	-5180
▁一意	-5181
▁上网	-5182
▁习惯	-5183
▁争论	-5184
▁产物	-5185
▁以外	-5186
▁儿女	-5187
▁唐飞	-5188
▁外来	-5189
▁失踪	-5190
▁届时	-5191
▁带有	-5192
▁忧虑	-5193
▁总局	-5194
▁成都	-5195
▁拿出	-5196
▁气焰	-5197
▁沉重	-5198
▁法庭	-5199
▁潜在	-5200
▁看望	-5201
▁税务	-5202
▁获取	-5203
▁衰退	-5204
▁让步	-5205
▁迎来	-5206
▁运载	-5207
▁里程	-5208
▁乌克兰	-5209
▁再一次	-5210
▁婚姻法	-5211
▁李铁映	-5212
▁一意孤行	-5213
--------	-5214
▁勘	-5215
▁晋	-5216
▁梅	-5217
▁漫	-5218
▁珠	-5219
▁祸	-5220
▁罚	-5221
▁鲁	-5222
玉明	-5223
百姓	-5224
相关	-5225
▁一半	-5226
▁专访	-5227
▁中级	-5228
▁互不	-5229
▁体会	-5230
▁信赖	-5231
▁关怀	-5232
▁听到	-5233
▁多党	-5234
▁失误	-5235
▁射程	-5236
▁平时	-5237
▁年来	-5238
▁手续	-5239
▁掌声	-5240
▁本届	-5241
▁毕竟	-5242
▁生死	-5243
▁答应	-5244
▁群体	-5245
▁节日	-5246
▁融资	-5247
▁负有	-5248
▁跨入	-5249
▁陈云	-5250
▁首席	-5251
▁互补性	-5252
▁司令部	-5253
▁多样化	-5254
▁奥委会	-5255
▁巴拉克	-5256
▁新一代	-5257
▁新闻界	-5258
▁有一些	-5259
▁生命力	-5260
▁自动化	-5261
▁2008	-5262
▁历史潮流	-5263
▁系统工程	-5264
▁高等教育	-5265
.2	-5266
an	-5267
▁室	-5268
▁己	-5269
▁抬	-5270
▁档	-5271
军队	-5272
地亚	-5273
▁不大	-5274
▁不难	-5275
▁丝毫	-5276
▁九月	-5277
▁他国	-5278
▁住房	-5279
▁副省	-5280
▁劳教	-5281
▁合格	-5282
▁处分	-5283
▁威慑	-5284
▁巡航	-5285
▁扩展	-5286
▁改为	-5287
▁政界	-5288
▁机器	-5289
▁桥梁	-5290
▁深受	-5291
▁王忠	-5292
▁用户	-5293
▁电台	-5294
▁罪恶	-5295
▁老一	-5296
▁被迫	-5297
▁规章	-5298
▁证据	-5299
▁贾庆	-5300
▁起飞	-5301
▁转机	-5302
▁较为	-5303
▁辩证	-5304
▁黑人	-5305
▁参议员	-5306
▁所有制	-5307
▁有条件	-5308
▁车玉明	-5309
▁陆委会	-5310
▁人民军队	-5311
▁贯彻执行	-5312
▁冯	-5313
▁孟	-5314
▁崭	-5315
▁廿	-5316
▁愉	-5317
▁掀	-5318
▁泛	-5319
▁淘	-5320
▁订	-5321
▁验	-5322
惯例	-5323
方米	-5324
裁军	-5325
长廷	-5326
▁34	-5327
▁不怕	-5328
▁人人	-5329
▁俄方	-5330
▁先锋	-5331
▁党组	-5332
▁切身	-5333
▁和睦	-5334
▁富强	-5335
▁就任	-5336
▁得出	-5337
▁心态	-5338
▁推翻	-5339
▁无视	-5340
▁春节	-5341
▁最佳	-5342
▁毫不	-5343
▁汉城	-5344
▁煤矿	-5345
▁相处	-5346
▁蓝军	-5347
▁论证	-5348
▁调控	-5349
▁谨慎	-5350
▁赔偿	-5351
▁赖昌	-5352
▁邻邦	-5353
▁金门	-5354
▁标志着	-5355
▁核裁军	-5356
▁研究员	-5357
▁老一辈	-5358
▁老百姓	-5359
▁谢长廷	-5360
▁塔吉克斯坦	-5361
▁百分之二十	-5362
▁惟	-5363
▁拘	-5364
▁挥	-5365
▁捐	-5366
▁柯	-5367
▁烧	-5368
▁疾	-5369
▁罢	-5370
▁贿	-5371
▁辆	-5372
▁逻	-5373
▁魏	-5374
▁鹰	-5375
到底	-5376
同存	-5377
注目	-5378
耳其	-5379
▁临时	-5380
▁事态	-5381
▁仍将	-5382
▁从此	-5383
▁例行	-5384
▁兄弟	-5385
▁充当	-5386
▁决战	-5387
▁同情	-5388
▁天下	-5389
▁巨额	-5390
▁布莱	-5391
▁平民	-5392
▁强制	-5393
▁当中	-5394
▁慰问	-5395
▁手法	-5396
▁接收	-5397
▁效应	-5398
▁无可	-5399
▁既然	-5400
▁朝野	-5401
▁来讲	-5402
▁痛苦	-5403
▁营业	-5404
▁贩毒	-5405
▁辞职	-5406
▁逻辑	-5407
▁钱彤	-5408
▁驻美	-5409
同存异	-5410
▁三月十	-5411
▁土耳其	-5412
▁成功地	-5413
▁第四十	-5414
▁评论员	-5415
▁走私案	-5416
代表大会	-5417
▁义务教育	-5418
▁乡镇企业	-5419
▁求同存异	-5420
▁哈萨克斯坦	-5421
.7	-5422
▁午	-5423
▁妻	-5424
▁宇	-5425
▁崛	-5426
▁彩	-5427
▁扰	-5428
▁渡	-5429
▁辜	-5430
▁额	-5431
制宜	-5432
就业	-5433
支持	-5434
根廷	-5435
点五	-5436
▁下场	-5437
▁事项	-5438
▁任期	-5439
▁会面	-5440
▁兴趣	-5441
▁可是	-5442
▁增幅	-5443
▁大约	-5444
▁夺取	-5445
▁学科	-5446
▁展现	-5447
▁崛起	-5448
▁心情	-5449
▁忠实	-5450
▁挽救	-5451
▁据称	-5452
▁攻关	-5453
▁文学	-5454
▁新任	-5455
▁新西	-5456
▁最早	-5457
▁杀人	-5458
▁清晰	-5459
▁生动	-5460
▁病毒	-5461
▁直航	-5462
▁省市	-5463
▁省级	-5464
▁督促	-5465
▁趋向	-5466
▁通道	-5467
▁邦交	-5468
▁驾驭	-5469
▁不支持	-5470
▁再就业	-5471
▁呈现出	-5472
▁意味着	-5473
▁自由化	-5474
▁赖昌星	-5475
▁阿根廷	-5476
▁半个世纪	-5477
▁劝	-5478
▁望	-5479
▁耗	-5480
▁袁	-5481
▁钟	-5482
区域	-5483
▁38	-5484
▁优越	-5485
▁作品	-5486
▁吸取	-5487
▁商机	-5488
▁地点	-5489
▁大肆	-5490
▁女士	-5491
▁属于	-5492
▁平台	-5493
▁广场	-5494
▁愉快	-5495
▁意图	-5496
▁感觉	-5497
▁扭转	-5498
▁拓宽	-5499
▁握手	-5500
▁携带	-5501
▁构筑	-5502
▁歧视	-5503
▁毁灭	-5504
▁游说	-5505
▁猖獗	-5506
▁王光	-5507
▁现任	-5508
▁电影	-5509
▁真的	-5510
▁种族	-5511
▁练功	-5512
▁缺少	-5513
▁考试	-5514
▁自律	-5515
▁计画	-5516
▁超越	-5517
▁转换	-5518
▁较好	-5519
▁钦佩	-5520
▁闹事	-5521
▁十五大	-5522
▁国际公	-5523
▁天然气	-5524
▁得不到	-5525
▁王忠禹	-5526
▁立法院	-5527
▁贾庆林	-5528
▁那就是	-5529
▁阿尔及	-5530
▁世界大战	-5531
▁无产阶级	-5532
▁香港特区	-5533
▁S	-5534
▁p	-5535
▁剧	-5536
▁卸	-5537
▁嘴	-5538
▁弊	-5539
▁拆	-5540
▁渐	-5541
▁盈	-5542
▁缅	-5543
▁蛇	-5544
▁逾	-5545
有力	-5546
母舰	-5547
运动	-5548
龙江	-5549
▁下滑	-5550
▁不如	-5551
▁业已	-5552
▁两地	-5553
▁之处	-5554
▁于是	-5555
▁人防	-5556
▁修建	-5557
▁八月	-5558
▁动态	-5559
▁反动	-5560
▁坚信	-5561
▁大多	-5562
▁容忍	-5563
▁小学	-5564
▁尖锐	-5565
▁延续	-5566
▁引向	-5567
▁当作	-5568
▁总数	-5569
▁执意	-5570
▁指定	-5571
▁挫折	-5572
▁振奋	-5573
▁接到	-5574
▁携手	-5575
▁淘汰	-5576
▁深表	-5577
▁盟友	-5578
▁盲目	-5579
▁眼光	-5580
▁福利	-5581
▁背后	-5582
▁良性	-5583
▁补贴	-5584
▁足以	-5585
▁风暴	-5586
▁高於	-5587
政治部	-5588
▁不断地	-5589
▁布莱尔	-5590
▁民主化	-5591
▁老朋友	-5592
▁部长级	-5593
▁阶段性	-5594
▁黑龙江	-5595
▁总政治部	-5596
▁航空母舰	-5597
▁乔	-5598
▁奔	-5599
▁奴	-5600
▁屠	-5601
▁序	-5602
▁疏	-5603
▁硕	-5604
不上	-5605
不过	-5606
关根	-5607
发达	-5608
可以	-5609
商务	-5610
徒刑	-5611
没有	-5612
班牙	-5613
经验	-5614
限度	-5615
▁作家	-5616
▁作者	-5617
▁分工	-5618
▁分开	-5619
▁前列	-5620
▁单独	-5621
▁同学	-5622
▁名单	-5623
▁征收	-5624
▁总裁	-5625
▁总领	-5626
▁推迟	-5627
▁政坛	-5628
▁有序	-5629
▁有时	-5630
▁河南	-5631
▁法定	-5632
▁热爱	-5633
▁短缺	-5634
▁红军	-5635
▁细致	-5636
▁终于	-5637
▁绿化	-5638
▁美化	-5639
▁聚集	-5640
▁自从	-5641
▁荣誉	-5642
▁薄弱	-5643
▁迅猛	-5644
▁造就	-5645
▁阿扁	-5646
▁隐患	-5647
▁集会	-5648
▁飞跃	-5649
斯特罗	-5650
▁丁关根	-5651
▁七月十	-5652
▁九十年	-5653
▁发展史	-5654
▁四川省	-5655
▁强有力	-5656
▁海协会	-5657
▁西班牙	-5658
区域自治	-5659
▁最大限度	-5660
▁电子商务	-5661
▁民族区域自治	-5662
en	-5663
on	-5664
▁仔	-5665
▁吹	-5666
▁搬	-5667
▁歼	-5668
▁灿	-5669
▁猛	-5670
▁露	-5671
▁颗	-5672
介绍	-5673
作为	-5674
公里	-5675
内瑞	-5676
基础	-5677
宣部	-5678
市长	-5679
▁不行	-5680
▁两者	-5681
▁二零	-5682
▁任职	-5683
▁便利	-5684
▁典范	-5685
▁分散	-5686
▁分队	-5687
▁因地	-5688
▁外事	-5689
▁好事	-5690
▁对峙	-5691
▁废除	-5692
▁建国	-5693
▁心里	-5694
▁愤怒	-5695
▁承受	-5696
▁提名	-5697
▁支队	-5698
▁收受	-5699
▁无数	-5700
▁款待	-5701
▁短短	-5702
▁自豪	-5703
▁致以	-5704
▁藏族	-5705
▁证实	-5706
▁读者	-5707
▁阶层	-5708
▁附加	-5709
内瑞拉	-5710
▁不平衡	-5711
▁前总统	-5712
▁当事人	-5713
▁据介绍	-5714
▁航空兵	-5715
▁中东地区	-5716
▁因地制宜	-5717
▁国际公约	-5718
▁基本原则	-5719
▁委内瑞拉	-5720
▁技术改造	-5721
▁资产阶级	-5722
-2	-5723
.9	-5724
▁喇	-5725
▁摇	-5726
▁撰	-5727
▁牛	-5728
▁窃	-5729
▁耐	-5730
▁贴	-5731
不住	-5732
之急	-5733
产业	-5734
兵种	-5735
富汗	-5736
权利	-5737
标准	-5738
祖国	-5739
▁7%	-5740
▁严密	-5741
▁中文	-5742
▁事物	-5743
▁公益	-5744
▁别的	-5745
▁副局	-5746
▁办案	-5747
▁可喜	-5748
▁合资	-5749
▁含义	-5750
▁大地	-5751
▁崭新	-5752
▁强劲	-5753
▁当务	-5754
▁悲剧	-5755
▁战后	-5756
▁打下	-5757
▁拜登	-5758
▁服从	-5759
▁浪费	-5760
▁现役	-5761
▁盗版	-5762
▁福祉	-5763
▁突击	-5764
▁管制	-5765
▁致辞	-5766
▁西北	-5767
▁货物	-5768
▁车辆	-5769
▁转让	-5770
▁配备	-5771
▁野战	-5772
▁钢铁	-5773
▁长江	-5774
▁难道	-5775
▁领先	-5776
▁饭店	-5777
▁一个人	-5778
▁军兵种	-5779
▁多层次	-5780
▁有没有	-5781
▁里程碑	-5782
▁阿富汗	-5783
▁举世瞩目	-5784
▁回归祖国	-5785
▁巡航导弹	-5786
▁引人注目	-5787
▁当务之急	-5788
▁总结经验	-5789
▁抨	-5790
▁挤	-5791
▁殷	-5792
▁汤	-5793
▁渊	-5794
▁渴	-5795
▁籍	-5796
▁罕	-5797
▁赌	-5798
之士	-5799
买提	-5800
培炎	-5801
德里	-5802
特网	-5803
用心	-5804
聪明	-5805
通社	-5806
▁一番	-5807
▁上层	-5808
▁中午	-5809
▁事宜	-5810
▁份额	-5811
▁传达	-5812
▁八一	-5813
▁共享	-5814
▁列为	-5815
▁印刷	-5816
▁危及	-5817
▁同属	-5818
▁基石	-5819
▁多大	-5820
▁大臣	-5821
▁奉献	-5822
▁学说	-5823
▁巴西	-5824
▁年代	-5825
▁延长	-5826
▁惩处	-5827
▁惩治	-5828
▁拉开	-5829
▁提醒	-5830
▁撤销	-5831
▁有识	-5832
▁李长	-5833
▁派遣	-5834
▁浪潮	-5835
▁深切	-5836
▁深感	-5837
▁灵魂	-5838
▁爱好	-5839
▁由衷	-5840
▁破获	-5841
▁种植	-5842
▁竟然	-5843
▁融入	-5844
▁视察	-5845
▁诸如	-5846
▁退休	-5847
▁释放	-5848
▁重任	-5849
▁阴谋	-5850
▁马英	-5851
▁下一步	-5852
▁不仅仅	-5853
▁中宣部	-5854
▁副省长	-5855
▁因特网	-5856
▁很可能	-5857
▁曾培炎	-5858
▁消费者	-5859
▁社会上	-5860
▁辽宁省	-5861
▁还可以	-5862
▁高层次	-5863
▁卡斯特罗	-5864
▁国防部长	-5865
▁基本路线	-5866
▁基础教育	-5867
▁政治权利	-5868
▁有识之士	-5869
▁民族主义	-5870
▁私营企业	-5871
▁计划经济	-5872
▁一九九七年	-5873
▁人民代表大会	-5874
▁社会主义建设	-5875
▁亩	-5876
▁娱	-5877
▁怕	-5878
▁昆	-5879
▁束	-5880
▁梵	-5881
▁滚	-5882
▁燃	-5883
▁芬	-5884
▁衡	-5885
▁踏	-5886
▁辅	-5887
▁霍	-5888
▁麦	-5889
不容	-5890
为止	-5891
会长	-5892
其言	-5893
嚣张	-5894
污染	-5895
清楚	-5896
▁86	-5897
▁七十	-5898
▁中介	-5899
▁为之	-5900
▁云南	-5901
▁五角	-5902
▁交给	-5903
▁仔细	-5904
▁全新	-5905
▁公斤	-5906
▁分布	-5907
▁别有	-5908
▁可谓	-5909
▁含量	-5910
▁善于	-5911
▁喇嘛	-5912
▁娱乐	-5913
▁年初	-5914
▁应付	-5915
▁抨击	-5916
▁明智	-5917
▁棉花	-5918
▁演变	-5919
▁牢牢	-5920
▁特定	-5921
▁率团	-5922
▁生效	-5923
▁相似	-5924
▁瞩目	-5925
▁科恩	-5926
▁类型	-5927
▁致电	-5928
▁荒谬	-5929
▁被告	-5930
▁西安	-5931
▁解体	-5932
▁请问	-5933
▁迈向	-5934
▁阴影	-5935
▁预见	-5936
▁骗取	-5937
▁高举	-5938
委员会	-5939
▁150	-5940
▁不应该	-5941
▁密集型	-5942
▁新技术	-5943
▁爱国者	-5944
▁转化为	-5945
▁别有用心	-5946
▁沿海地区	-5947
▁由此可见	-5948
▁解放军报	-5949
▁亟	-5950
▁净	-5951
▁凯	-5952
▁府	-5953
▁恩	-5954
▁挪	-5955
▁搭	-5956
▁攀	-5957
▁沃	-5958
▁洲	-5959
▁衣	-5960
▁遍	-5961
▁镜	-5962
▁陶	-5963
其行	-5964
完全	-5965
小时	-5966
泊尔	-5967
牧业	-5968
经理	-5969
道涵	-5970
▁45	-5971
▁不幸	-5972
▁也好	-5973
▁产权	-5974
▁人选	-5975
▁会员	-5976
▁作法	-5977
▁到达	-5978
▁化学	-5979
▁号召	-5980
▁合营	-5981
▁吉尔	-5982
▁外空	-5983
▁大连	-5984
▁学历	-5985
▁应是	-5986
▁归侨	-5987
▁恰恰	-5988
▁战犯	-5989
▁打算	-5990
▁扭亏	-5991
▁抵御	-5992
▁捕捞	-5993
▁放开	-5994
▁整合	-5995
▁有待	-5996
▁枪支	-5997
▁步入	-5998
▁民用	-5999
▁治疗	-6000
▁滋生	-6001
▁煤炭	-6002
▁用心	-6003
▁监控	-6004
▁真相	-6005
▁罪犯	-6006
▁膨胀	-6007
▁过剩	-6008
▁通用	-6009
▁长治	-6010
▁集成	-6011
▁顺差	-6012
▁高峰	-6013
▁高雄	-6014
▁中通社	-6015
▁分析家	-6016
▁制造业	-6017
▁增加到	-6018
▁外交官	-6019
▁尼泊尔	-6020
▁总经理	-6021
▁汪道涵	-6022
▁海南省	-6023
▁致力于	-6024
▁观其行	-6025
▁规范的	-6026
▁1972	-6027
▁2005	-6028
▁3000	-6029
▁外资企业	-6030
▁财政收入	-6031
▁超级大国	-6032
▁阿尔及利亚	-6033
▁丛	-6034
▁佳	-6035
▁弗	-6036
▁愚	-6037
▁抚	-6038
▁擦	-6039
▁昭	-6040
▁画	-6041
▁舱	-6042
▁跃	-6043
▁邹	-6044
▁郎	-6045
▁闯	-6046
▁陵	-6047
全会	-6048
所趋	-6049
援朝	-6050
永波	-6051
退休	-6052
per	-6053
▁一月	-6054
▁下旬	-6055
▁促成	-6056
▁修炼	-6057
▁储蓄	-6058
▁入侵	-6059
▁全区	-6060
▁六十	-6061
▁冷静	-6062
▁刘云	-6063
▁剥夺	-6064
▁动作	-6065
▁动向	-6066
▁动武	-6067
▁医药	-6068
▁单边	-6069
▁增值	-6070
▁外经	-6071
▁大厦	-6072
▁大案	-6073
▁将军	-6074
▁技能	-6075
▁抗美	-6076
▁晚宴	-6077
▁极力	-6078
▁深度	-6079
▁游行	-6080
▁湖南	-6081
▁特稿	-6082
▁监测	-6083
▁社评	-6084
▁警示	-6085
▁诚挚	-6086
▁调节	-6087
▁账户	-6088
▁通常	-6089
▁龙头	-6090
之不易	-6091
期徒刑	-6092
▁六月十	-6093
▁副会长	-6094
▁取决于	-6095
▁司令员	-6096
▁听其言	-6097
▁永久性	-6098
▁留学生	-6099
▁离退休	-6100
▁大势所趋	-6101
▁抗美援朝	-6102
▁来之不易	-6103
▁伴	-6104
▁堪	-6105
▁庭	-6106
▁榜	-6107
▁沦	-6108
▁谷	-6109
▁赛	-6110
▁迁	-6111
▁邱	-6112
▁闽	-6113
▁革	-6114
▁驶	-6115
初级	-6116
匹克	-6117
千万	-6118
四年	-6119
州市	-6120
当然	-6121
▁55	-6122
▁三中	-6123
▁下榻	-6124
▁不时	-6125
▁亿万	-6126
▁创作	-6127
▁刻意	-6128
▁十七	-6129
▁卓有	-6130
▁反省	-6131
▁嚣张	-6132
▁坦诚	-6133
▁奥林	-6134
▁女儿	-6135
▁导航	-6136
▁尤为	-6137
▁山西	-6138
▁抢劫	-6139
▁指引	-6140
▁放心	-6141
▁本地	-6142
▁杀伤	-6143
▁架构	-6144
▁清除	-6145
▁王国	-6146
▁现金	-6147
▁甘肃	-6148
▁精简	-6149
▁衡量	-6150
▁调解	-6151
▁财力	-6152
▁贿赂	-6153
▁赖斯	-6154
▁违规	-6155
▁迫使	-6156
▁难得	-6157
▁预定	-6158
▁马上	-6159
▁高于	-6160
▁修改为	-6161
▁养老金	-6162
▁决不会	-6163
▁外经贸	-6164
▁如果说	-6165
▁实验室	-6166
▁海南岛	-6167
▁管理局	-6168
▁自卫队	-6169
▁规范化	-6170
▁还需要	-6171
初级阶段	-6172
▁1991	-6173
▁卓有成效	-6174
▁广大群众	-6175
▁社会主义初级阶段	-6176
▁丢	-6177
▁井	-6178
▁埋	-6179
▁寺	-6180
▁忙	-6181
▁描	-6182
▁摄	-6183
▁稿	-6184
▁篪	-6185
▁脆	-6186
▁葡	-6187
▁遂	-6188
▁韦	-6189
▁默	-6190
久安	-6191
之路	-6192
作所	-6193
城市	-6194
资产	-6195
▁5%	-6196
▁一律	-6197
▁不高	-6198
▁东扩	-6199
▁丰硕	-6200
▁之内	-6201
▁传教	-6202
▁军种	-6203
▁农户	-6204
▁出生	-6205
▁后者	-6206
▁哥伦	-6207
▁困扰	-6208
▁国安	-6209
▁地缘	-6210
▁太多	-6211
▁宣判	-6212
▁居住	-6213
▁查办	-6214
▁欧亚	-6215
▁流域	-6216
▁灿烂	-6217
▁理性	-6218
▁理所	-6219
▁真是	-6220
▁离婚	-6221
▁简称	-6222
▁罕见	-6223
▁脆弱	-6224
▁转型	-6225
▁较多	-6226
▁遗产	-6227
▁那个	-6228
▁重建	-6229
▁食品	-6230
作所为	-6231
▁主动权	-6232
▁副市长	-6233
▁十月十	-6234
▁受害者	-6235
▁只不过	-6236
▁报道说	-6237
▁李长春	-6238
▁行政院	-6239
▁三中全会	-6240
▁二十世纪	-6241
▁奥林匹克	-6242
▁所作所为	-6243
▁民主政治	-6244
▁资本市场	-6245
▁迄今为止	-6246
▁长治久安	-6247
▁M	-6248
▁\	-6249
▁催	-6250
▁凸	-6251
▁妨	-6252
▁姚	-6253
▁幻	-6254
▁患	-6255
▁沪	-6256
▁牟	-6257
▁窗	-6258
▁识	-6259
▁逮	-6260
▁闻	-6261
▁阮	-6262
▁页	-6263
了话	-6264
华仁	-6265
木齐	-6266
点二	-6267
相龙	-6268
维奇	-6269
而不	-6270
西斯	-6271
训练	-6272
▁31	-6273
▁上岗	-6274
▁下跌	-6275
▁专案	-6276
▁之本	-6277
▁乌鲁	-6278
▁作案	-6279
▁克罗	-6280
▁兵种	-6281
▁军工	-6282
▁双向	-6283
▁合影	-6284
▁商务	-6285
▁回忆	-6286
▁国军	-6287
▁图片	-6288
▁开端	-6289
▁引入	-6290
▁很高	-6291
▁心愿	-6292
▁批判	-6293
▁拒不	-6294
▁探测	-6295
▁接见	-6296
▁救援	-6297
▁施加	-6298
▁无意	-6299
▁星期	-6300
▁期限	-6301
▁来临	-6302
▁果断	-6303
▁核武	-6304
▁民事	-6305
▁治本	-6306
▁滥用	-6307
▁空域	-6308
▁纵容	-6309
▁缺水	-6310
▁而来	-6311
▁联席	-6312
▁著作	-6313
▁蓝图	-6314
▁要想	-6315
▁误解	-6316
▁谈及	-6317
▁这类	-6318
▁连日	-6319
▁逐年	-6320
▁隐蔽	-6321
▁不过是	-6322
▁副局长	-6323
▁实质上	-6324
▁少数人	-6325
▁尽可能	-6326
▁戴相龙	-6327
▁河北省	-6328
▁现阶段	-6329
▁盛华仁	-6330
▁经常性	-6331
▁讲了话	-6332
▁乌鲁木齐	-6333
▁克罗地亚	-6334
▁军事训练	-6335
▁历史意义	-6336
▁哥伦比亚	-6337
.0	-6338
▁啊	-6339
▁姓	-6340
▁尝	-6341
▁抑	-6342
▁撑	-6343
▁擅	-6344
▁敲	-6345
▁疲	-6346
▁盼	-6347
▁码	-6348
▁般	-6349
▁铲	-6350
▁闪	-6351
▁饮	-6352
▁馆	-6353
不起	-6354
原理	-6355
塔尔	-6356
尚别	-6357
蒂冈	-6358
试验	-6359
青年	-6360
▁一万	-6361
▁一块	-6362
▁上诉	-6363
▁专程	-6364
▁为重	-6365
▁今晚	-6366
▁代替	-6367
▁代理	-6368
▁伊始	-6369
▁侵害	-6370
▁保密	-6371
▁党纪	-6372
▁入境	-6373
▁公告	-6374
▁前年	-6375
▁包含	-6376
▁南部	-6377
▁变动	-6378
▁同年	-6379
▁同步	-6380
▁增大	-6381
▁大小	-6382
▁宾主	-6383
▁对比	-6384
▁工委	-6385
▁巴尔	-6386
▁广告	-6387
▁开局	-6388
▁征求	-6389
▁所属	-6390
▁所需	-6391
▁扰乱	-6392
▁掀起	-6393
▁接轨	-6394
▁教主	-6395
▁既定	-6396
▁普查	-6397
▁有线	-6398
▁期盼	-6399
▁杰出	-6400
▁检讨	-6401
▁森林	-6402
▁注册	-6403
▁注定	-6404
▁灾区	-6405
▁王永	-6406
▁筹备	-6407
▁简要	-6408
▁署名	-6409
▁自古	-6410
▁视野	-6411
▁认知	-6412
▁议事	-6413
▁近海	-6414
▁防汛	-6415
▁一九五	-6416
▁了解到	-6417
▁二十四	-6418
▁云南省	-6419
▁同志们	-6420
▁在野党	-6421
▁必要性	-6422
▁总领事	-6423
▁新台阶	-6424
▁杜尚别	-6425
▁核试验	-6426
▁梵蒂冈	-6427
▁马英九	-6428
▁基本原理	-6429
▁小康社会	-6430
▁物质文明	-6431
▁现实意义	-6432
▁理所当然	-6433
▁知识经济	-6434
▁香港特别行政区	-6435
at	-6436
▁匈	-6437
▁喊	-6438
▁屈	-6439
▁念	-6440
▁折	-6441
▁粉	-6442
▁素	-6443
▁际	-6444
二百	-6445
任务	-6446
佩克	-6447
准备	-6448
尔斯	-6449
库曼	-6450
方式	-6451
番话	-6452
调查	-6453
部队	-6454
▁上月	-6455
▁不准	-6456
▁交代	-6457
▁人群	-6458
▁假冒	-6459
▁先行	-6460
▁克制	-6461
▁兴旺	-6462
▁养殖	-6463
▁准入	-6464
▁务必	-6465
▁助长	-6466
▁单纯	-6467
▁受托	-6468
▁口头	-6469
▁台胞	-6470
▁大都	-6471
▁失望	-6472
▁如同	-6473
▁妈祖	-6474
▁差别	-6475
▁干警	-6476
▁年会	-6477
▁并无	-6478
▁异常	-6479
▁推荐	-6480
▁提拔	-6481
▁数额	-6482
▁新兴	-6483
▁暂行	-6484
▁最初	-6485
▁本部	-6486
▁正规	-6487
▁流失	-6488
▁港口	-6489
▁珍视	-6490
▁纪录	-6491
▁网吧	-6492
▁职位	-6493
▁色彩	-6494
▁荷兰	-6495
▁行事	-6496
▁说话	-6497
▁赵启	-6498
▁车臣	-6499
▁较量	-6500
▁辩论	-6501
▁迈进	-6502
▁逆转	-6503
▁铲除	-6504
▁颁发	-6505
▁预备	-6506
▁风云	-6507
▁农业部	-6508
▁制度化	-6509
▁办事处	-6510
▁土库曼	-6511
▁有助于	-6512
▁欧佩克	-6513
▁清楚地	-6514
▁研究会	-6515
▁观察家	-6516
▁这番话	-6517
▁也就是说	-6518
▁科学研究	-6519
月二十八日	-6520
ed	-6521
▁伯	-6522
▁凶	-6523
▁尸	-6524
▁岂	-6525
▁幌	-6526
▁戏	-6527
▁捞	-6528
▁昂	-6529
▁棋	-6530
▁滑	-6531
▁秦	-6532
▁脸	-6533
▁迪	-6534
决心	-6535
利用	-6536
勃勃	-6537
成是	-6538
监会	-6539
行为	-6540
▁8%	-6541
▁一流	-6542
▁一阵	-6543
▁专用	-6544
▁世代	-6545
▁中断	-6546
▁事先	-6547
▁侨眷	-6548
▁兴起	-6549
▁农奴	-6550
▁冰岛	-6551
▁切尼	-6552
▁勇气	-6553
▁历届	-6554
▁原本	-6555
▁合力	-6556
▁合并	-6557
▁和美	-6558
▁商定	-6559
▁国庆	-6560
▁土壤	-6561
▁奖励	-6562
▁安居	-6563
▁挑起	-6564
▁搞得	-6565
▁时俱	-6566
▁榜样	-6567
▁每次	-6568
▁测试	-6569
▁深思	-6570
▁滞后	-6571
▁激起	-6572
▁火炮	-6573
▁片面	-6574
▁物价	-6575
▁特派	-6576
▁特种	-6577
▁王毅	-6578
▁盛会	-6579
▁笔者	-6580
▁综述	-6581
▁美丽	-6582
▁装置	-6583
▁西欧	-6584
▁谈起	-6585
▁起码	-6586
▁起诉	-6587
▁逮捕	-6588
▁马其	-6589
▁全球性	-6590
▁四月十	-6591
▁城镇化	-6592
▁宣传部	-6593
▁市政府	-6594
▁时间表	-6595
▁显示出	-6596
▁有计划	-6597
▁本世纪	-6598
▁江西省	-6599
▁深层次	-6600
▁研究院	-6601
▁考虑到	-6602
▁技术人员	-6603
▁社会科学	-6604
▁联席会议	-6605
月二十一日	-6606
▁二零零一年	-6607
-0	-6608
▁伸	-6609
▁俱	-6610
▁卷	-6611
▁尾	-6612
▁徒	-6613
▁洽	-6614
▁篡	-6615
▁茶	-6616
▁谱	-6617
▁静	-6618
▁驳	-6619
一十	-6620
各地	-6621
壁垒	-6622
多万	-6623
所欲	-6624
撒冷	-6625
潜艇	-6626
轿车	-6627
集团	-6628
▁43	-6629
▁一一	-6630
▁之举	-6631
▁伪装	-6632
▁何况	-6633
▁何种	-6634
▁借此	-6635
▁停留	-6636
▁入党	-6637
▁几次	-6638
▁制导	-6639
▁劳工	-6640
▁县级	-6641
▁发明	-6642
▁受伤	-6643
▁周密	-6644
▁哪个	-6645
▁地步	-6646
▁境界	-6647
▁她们	-6648
▁年龄	-6649
▁开设	-6650
▁心声	-6651
▁扬言	-6652
▁抢救	-6653
▁提法	-6654
▁揭示	-6655
▁效能	-6656
▁教材	-6657
▁教条	-6658
▁标本	-6659
▁武汉	-6660
▁残害	-6661
▁气体	-6662
▁温室	-6663
▁滋事	-6664
▁演出	-6665
▁烈士	-6666
▁照顾	-6667
▁用好	-6668
▁登上	-6669
▁直至	-6670
▁篡改	-6671
▁纽带	-6672
▁缩短	-6673
▁美洲	-6674
▁而又	-6675
▁耶路	-6676
▁股东	-6677
▁虚拟	-6678
▁赤字	-6679
▁路子	-6680
▁述评	-6681
▁遇难	-6682
▁遭遇	-6683
▁零售	-6684
▁面目	-6685
▁首长	-6686
▁马列	-6687
▁骄傲	-6688
▁高潮	-6689
万诺夫	-6690
▁人生观	-6691
▁各单位	-6692
▁所得税	-6693
▁教育法	-6694
▁省区市	-6695
▁突破性	-6696
▁第五十	-6697
▁联合会	-6698
▁证监会	-6699
▁赵启正	-6700
▁进攻性	-6701
▁马其顿	-6702
▁5000	-6703
▁企业管理	-6704
▁全国各地	-6705
▁固定资产	-6706
▁耶路撒冷	-6707
▁一九九六年	-6708
▁百分之三十	-6709
▁人民代表大会制度	-6710
th	-6711
▁仗	-6712
▁仿	-6713
▁割	-6714
▁姑	-6715
▁屏	-6716
▁抉	-6717
▁搁	-6718
▁耿	-6719
▁胆	-6720
▁谅	-6721
▁雨	-6722
点八	-6723
▁中期	-6724
▁产值	-6725
▁传输	-6726
▁低迷	-6727
▁供求	-6728
▁修宪	-6729
▁借助	-6730
▁刊登	-6731
▁创立	-6732
▁加重	-6733
▁勇于	-6734
▁双赢	-6735
▁取向	-6736
▁变为	-6737
▁口岸	-6738
▁启示	-6739
▁喜欢	-6740
▁国歌	-6741
▁备受	-6742
▁太阳	-6743
▁奇怪	-6744
▁妨碍	-6745
▁实弹	-6746
▁审定	-6747
▁容许	-6748
▁射击	-6749
▁将就	-6750
▁将达	-6751
▁少年	-6752
▁巴方	-6753
▁幌子	-6754
▁并存	-6755
▁弥补	-6756
▁形态	-6757
▁忠诚	-6758
▁抉择	-6759
▁抗拒	-6760
▁提议	-6761
▁搜索	-6762
▁操纵	-6763
▁散布	-6764
▁方略	-6765
▁无辜	-6766
▁此类	-6767
▁民航	-6768
▁没收	-6769
▁海洛	-6770
▁渴望	-6771
▁照片	-6772
▁百万	-6773
▁码头	-6774
▁竭力	-6775
▁红色	-6776
▁组长	-6777
▁终身	-6778
▁致富	-6779
▁英勇	-6780
▁蔡英	-6781
▁行程	-6782
▁西哈	-6783
▁请求	-6784
▁陆地	-6785
▁难免	-6786
▁难点	-6787
▁霸道	-6788
▁颠覆	-6789
▁高涨	-6790
▁二月十	-6791
▁保护人	-6792
▁决定性	-6793
▁愉快地	-6794
▁教育部	-6795
▁江苏省	-6796
▁涉及到	-6797
▁调查组	-6798
▁责任人	-6799
▁连日来	-6800
▁1990	-6801
▁三分之一	-6802
▁主任委员	-6803
▁代表大会	-6804
▁经济特区	-6805
▁仓	-6806
▁塑	-6807
▁择	-6808
▁汕	-6809
▁潮	-6810
▁番	-6811
▁肉	-6812
▁胸	-6813
▁贬	-6814
不会	-6815
不渝	-6816
努克	-6817
地产	-6818
增长	-6819
威特	-6820
学校	-6821
干达	-6822
年代	-6823
影响	-6824
支部	-6825
斯基	-6826
普查	-6827
杉矶	-6828
点三	-6829
确定	-6830
行业	-6831
辛格	-6832
雷斯	-6833
▁53	-6834
▁一味	-6835
▁一线	-6836
▁不多	-6837
▁不必	-6838
▁丑恶	-6839
▁也曾	-6840
▁五百	-6841
▁何时	-6842
▁便是	-6843
▁内战	-6844
▁凌晨	-6845
▁出于	-6846
▁制品	-6847
▁办学	-6848
▁商会	-6849
▁地震	-6850
▁坦率	-6851
▁大好	-6852
▁头目	-6853
▁妻子	-6854
▁宇宙	-6855
▁宣示	-6856
▁家园	-6857
▁少将	-6858
▁巴黎	-6859
▁循环	-6860
▁恶性	-6861
▁情景	-6862
▁打好	-6863
▁按时	-6864
▁政绩	-6865
▁无私	-6866
▁本领	-6867
▁梦想	-6868
▁欧美	-6869
▁水下	-6870
▁沦为	-6871
▁法学	-6872
▁海口	-6873
▁涌现	-6874
▁激光	-6875
▁激动	-6876
▁独资	-6877
▁矿产	-6878
▁稳妥	-6879
▁美朝	-6880
▁葡萄	-6881
▁蓄意	-6882
▁被动	-6883
▁讯息	-6884
▁设在	-6885
▁谅解	-6886
▁走进	-6887
▁递交	-6888
▁阻力	-6889
▁阿米	-6890
▁随即	-6891
▁风气	-6892
▁鲍尔	-6893
物主义	-6894
▁不知道	-6895
▁不确定	-6896
▁乌干达	-6897
▁党支部	-6898
▁司法部	-6899
▁基金会	-6900
▁复杂性	-6901
▁房地产	-6902
▁有影响	-6903
▁洛杉矶	-6904
▁省政府	-6905
▁科威特	-6906
▁蔡英文	-6907
▁透明度	-6908
▁高标准	-6909
▁1978	-6910
▁人口普查	-6911
▁经济基础	-6912
▁蓬勃发展	-6913
▁西哈努克	-6914
▁西藏自治区	-6915
.1	-6916
▁D	-6917
▁垂	-6918
▁堵	-6919
▁川	-6920
▁抹	-6921
▁曝	-6922
▁湄	-6923
▁瓶	-6924
▁疯	-6925
▁皆	-6926
▁秀	-6927
▁腾	-6928
▁赚	-6929
▁赠	-6930
家庄	-6931
工会	-6932
戴河	-6933
文章	-6934
火箭	-6935
电路	-6936
福兹	-6937
▁不止	-6938
▁中程	-6939
▁伴随	-6940
▁债权	-6941
▁北部	-6942
▁卸任	-6943
▁原子	-6944
▁参政	-6945
▁反腐	-6946
▁变数	-6947
▁吉斯	-6948
▁周期	-6949
▁子孙	-6950
▁寄予	-6951
▁思潮	-6952
▁总队	-6953
▁情形	-6954
▁情节	-6955
▁成分	-6956
▁打得	-6957
▁拉大	-6958
▁指控	-6959
▁挪用	-6960
▁据说	-6961
▁放宽	-6962
▁日常	-6963
▁日新	-6964
▁曝光	-6965
▁有望	-6966
▁朱琳	-6967
▁母亲	-6968
▁渔船	-6969
▁父亲	-6970
▁篇章	-6971
▁老龄	-6972
▁聪明	-6973
▁肖扬	-6974
▁行贿	-6975
▁走下	-6976
▁运转	-6977
▁重返	-6978
▁雄厚	-6979
▁鲜花	-6980
▁使命感	-6981
▁北戴河	-6982
▁发动机	-6983
▁大企业	-6984
▁大学生	-6985
▁失业率	-6986
▁工商联	-6987
▁应该说	-6988
▁总工会	-6989
▁李文和	-6990
▁海洛因	-6991
▁石家庄	-6992
▁经济界	-6993
▁讲政治	-6994
▁高水平	-6995
▁2010	-6996
▁不仅仅是	-6997
▁中心任务	-6998
▁企业集团	-6999
▁运载火箭	-7000
90	-7001
▁̈	-7002
▁偶	-7003
▁吧	-7004
▁坠	-7005
▁夸	-7006
▁姐	-7007
▁宜	-7008
▁巧	-7009
▁惠	-7010
▁扑	-7011
▁旺	-7012
▁杭	-7013
▁止	-7014
▁汲	-7015
▁津	-7016
▁澄	-7017
▁盘	-7018
▁绕	-7019
▁苗	-7020
▁谬	-7021
▁雅	-7022
▁魂	-7023
乐业	-7024
以待	-7025
倡廉	-7026
兹别	-7027
月异	-7028
鞍钢	-7029
▁33	-7030
▁48	-7031
▁一伙	-7032
▁上周	-7033
▁不想	-7034
▁不明	-7035
▁中英	-7036
▁主人	-7037
▁主力	-7038
▁主线	-7039
▁党纲	-7040
▁兵器	-7041
▁兼并	-7042
▁军力	-7043
▁减免	-7044
▁出色	-7045
▁分为	-7046
▁升空	-7047
▁反击	-7048
▁台联	-7049
▁四百	-7050
▁国产	-7051
▁国旗	-7052
▁大厅	-7053
▁奋发	-7054
▁宣告	-7055
▁尼克	-7056
▁屠杀	-7057
▁平方	-7058
▁开通	-7059
▁归根	-7060
▁得益	-7061
▁总会	-7062
▁意思	-7063
▁扫雷	-7064
▁抛弃	-7065
▁报复	-7066
▁抬头	-7067
▁擅自	-7068
▁救灾	-7069
▁敢于	-7070
▁数千	-7071
▁无赖	-7072
▁春天	-7073
▁暗示	-7074
▁水土	-7075
▁汲取	-7076
▁波动	-7077
▁混淆	-7078
▁温饱	-7079
▁牵制	-7080
▁盛情	-7081
▁省份	-7082
▁石化	-7083
▁称赞	-7084
▁签证	-7085
▁精彩	-7086
▁编写	-7087
▁能量	-7088
▁警报	-7089
▁论断	-7090
▁谢尔	-7091
▁谱写	-7092
▁起步	-7093
▁轿车	-7094
▁辛勤	-7095
▁过境	-7096
▁过硬	-7097
▁邪恶	-7098
▁郑重	-7099
▁马祖	-7100
兹别克	-7101
▁400	-7102
▁一个个	-7103
▁上一个	-7104
▁上升到	-7105
▁下决心	-7106
▁会不会	-7107
▁共同点	-7108
▁大城市	-7109
▁巴尔干	-7110
▁影响到	-7111
▁打得赢	-7112
▁指挥部	-7113
▁普遍性	-7114
▁有意义	-7115
▁杰福兹	-7116
▁消费品	-7117
▁第一年	-7118
▁自觉性	-7119
▁乌兹别克	-7120
▁反腐倡廉	-7121
▁安居乐业	-7122
▁密切相关	-7123
▁日新月异	-7124
▁民意调查	-7125
▁集成电路	-7126
▁一九九三年	-7127
▁百分之四十	-7128
▁仇	-7129
▁剖	-7130
▁勉	-7131
▁叛	-7132
▁宙	-7133
▁息	-7134
▁殊	-7135
▁症	-7136
▁祭	-7137
▁肇	-7138
▁脑	-7139
▁醒	-7140
▁钻	-7141
五百	-7142
人口	-7143
以为	-7144
保密	-7145
储备	-7146
利钦	-7147
句话	-7148
建筑	-7149
弹头	-7150
格达	-7151
组部	-7152
足轻	-7153
选平	-7154
铭清	-7155
▁2%	-7156
▁一成	-7157
▁一日	-7158
▁上涨	-7159
▁不放	-7160
▁不正	-7161
▁与否	-7162
▁两千	-7163
▁中德	-7164
▁之旅	-7165
▁互惠	-7166
▁会同	-7167
▁传销	-7168
▁占据	-7169
▁卢卡	-7170
▁卫士	-7171
▁历经	-7172
▁参访	-7173
▁台阶	-7174
▁同行	-7175
▁向来	-7176
▁夫妇	-7177
▁实实	-7178
▁家电	-7179
▁层面	-7180
▁巴中	-7181
▁常常	-7182
▁干事	-7183
▁批示	-7184
▁投身	-7185
▁据不	-7186
▁排斥	-7187
▁揭开	-7188
▁收益	-7189
▁敌方	-7190
▁敬意	-7191
▁李明	-7192
▁校长	-7193
▁样式	-7194
▁格外	-7195
▁检阅	-7196
▁比率	-7197
▁油价	-7198
▁消失	-7199
▁源泉	-7200
▁激发	-7201
▁王兆	-7202
▁留念	-7203
▁目光	-7204
▁目睹	-7205
▁着力	-7206
▁移动	-7207
▁管辖	-7208
▁约定	-7209
▁纯属	-7210
▁编造	-7211
▁股权	-7212
▁船舶	-7213
▁节约	-7214
▁获悉	-7215
▁设有	-7216
▁走势	-7217
▁过重	-7218
▁进军	-7219
▁闹剧	-7220
▁险恶	-7221
▁革新	-7222
▁黄菊	-7223
足轻重	-7224
▁600	-7225
▁九月十	-7226
▁今年初	-7227
▁八十年	-7228
▁厦门市	-7229
▁叶利钦	-7230
▁叶选平	-7231
▁各民主	-7232
▁吉林省	-7233
▁吸引力	-7234
▁大公司	-7235
▁居委会	-7236
▁巴格达	-7237
▁张铭清	-7238
▁新台币	-7239
▁新西兰	-7240
▁检查组	-7241
▁河南省	-7242
▁浙江省	-7243
▁特派员	-7244
▁第九届	-7245
▁记者会	-7246
完全统计	-7247
▁党政机关	-7248
▁国际贸易	-7249
▁外汇储备	-7250
▁安全保密	-7251
▁平方公里	-7252
▁开发利用	-7253
▁生活方式	-7254
▁马列主义	-7255
▁各民主党派	-7256
▁据不完全统计	-7257
40	-7258
es	-7259
▁@	-7260
▁伍	-7261
▁函	-7262
▁刀	-7263
▁尴	-7264
▁帕	-7265
▁帷	-7266
▁捷	-7267
▁泥	-7268
▁炒	-7269
▁焕	-7270
▁舒	-7271
▁遣	-7272
不通	-7273
二零	-7274
在在	-7275
塔米	-7276
日程	-7277
检查	-7278
椿霖	-7279
申科	-7280
蒂奇	-7281
辐射	-7282
逐舰	-7283
▁37	-7284
▁不法	-7285
▁不甘	-7286
▁不禁	-7287
▁不等	-7288
▁专属	-7289
▁之势	-7290
▁九十	-7291
▁事后	-7292
▁互助	-7293
▁传来	-7294
▁倾斜	-7295
▁偏见	-7296
▁典礼	-7297
▁几年	-7298
▁压倒	-7299
▁原油	-7300
▁吃饭	-7301
▁后劲	-7302
▁向上	-7303
▁在场	-7304
▁宽松	-7305
▁尝试	-7306
▁尴尬	-7307
▁席位	-7308
▁常驻	-7309
▁庄严	-7310
▁建军	-7311
▁成败	-7312
▁我党	-7313
▁战舰	-7314
▁搁置	-7315
▁摩擦	-7316
▁日期	-7317
▁是非	-7318
▁查获	-7319
▁民政	-7320
▁水库	-7321
▁澄清	-7322
▁王克	-7323
▁瑞典	-7324
▁用来	-7325
▁电讯	-7326
▁称霸	-7327
▁约旦	-7328
▁级别	-7329
▁终止	-7330
▁罗马	-7331
▁考量	-7332
▁联大	-7333
▁苏丹	-7334
▁蒙古	-7335
▁行列	-7336
▁观众	-7337
▁试射	-7338
▁资讯	-7339
▁赫尔	-7340
▁较强	-7341
▁过多	-7342
▁进驻	-7343
▁连队	-7344
▁追随	-7345
▁适时	-7346
▁部委	-7347
▁陈德	-7348
▁陵水	-7349
▁随同	-7350
伯利亚	-7351
经济区	-7352
驱逐舰	-7353
▁50%	-7354
▁中科院	-7355
▁中组部	-7356
▁何椿霖	-7357
▁哈塔米	-7358
▁安徽省	-7359
▁强调说	-7360
▁报告会	-7361
▁王兆国	-7362
▁畜牧业	-7363
▁立方米	-7364
▁第十八	-7365
▁自主权	-7366
▁举足轻重	-7367
▁卢卡申科	-7368
▁始终不渝	-7369
▁实实在在	-7370
▁议事日程	-7371
月二十七日	-7372
月二十六日	-7373
▁专属经济区	-7374
▁二零零八年	-7375
▁导弹驱逐舰	-7376
60	-7377
▁偿	-7378
▁尹	-7379
▁昌	-7380
▁柴	-7381
▁淮	-7382
▁球	-7383
▁略	-7384
▁续	-7385
▁锐	-7386
▁阅	-7387
七十	-7388
不同	-7389
之有	-7390
光楷	-7391
厚铧	-7392
惠国	-7393
战员	-7394
理赫	-7395
▁54	-7396
▁为人	-7397
▁产区	-7398
▁亲人	-7399
▁人文	-7400
▁但却	-7401
▁候补	-7402
▁停滞	-7403
▁入手	-7404
▁兴奋	-7405
▁其后	-7406
▁刑法	-7407
▁列强	-7408
▁化工	-7409
▁千万	-7410
▁午餐	-7411
▁压缩	-7412
▁参院	-7413
▁商量	-7414
▁园区	-7415
▁国人	-7416
▁坎代	-7417
▁处置	-7418
▁备案	-7419
▁奇迹	-7420
▁宙斯	-7421
▁实体	-7422
▁实惠	-7423
▁平息	-7424
▁当初	-7425
▁录用	-7426
▁总产	-7427
▁总装	-7428
▁情谊	-7429
▁想要	-7430
▁或许	-7431
▁掩盖	-7432
▁政要	-7433
▁显现	-7434
▁智能	-7435
▁服役	-7436
▁校园	-7437
▁民兵	-7438
▁求实	-7439
▁洽谈	-7440
▁漏洞	-7441
▁热潮	-7442
▁牢记	-7443
▁特使	-7444
▁界定	-7445
▁盛大	-7446
▁看好	-7447
▁私利	-7448
▁租赁	-7449
▁穆巴	-7450
▁立案	-7451
▁等待	-7452
▁管好	-7453
▁绿色	-7454
▁缔造	-7455
▁编辑	-7456
▁老人	-7457
▁老师	-7458
▁老年	-7459
▁耐心	-7460
▁英文	-7461
▁荣幸	-7462
▁落脚	-7463
▁藏独	-7464
▁读书	-7465
▁谋取	-7466
▁赶到	-7467
▁起伏	-7468
▁越共	-7469
▁转为	-7470
▁邮报	-7471
▁邻居	-7472
▁里面	-7473
▁阳光	-7474
▁高中	-7475
▁黄金	-7476
▁80%	-7477
▁东北亚	-7478
▁何厚铧	-7479
▁先锋队	-7480
▁基辛格	-7481
▁大发展	-7482
▁指战员	-7483
▁普理赫	-7484
▁机械化	-7485
▁法西斯	-7486
▁湖北省	-7487
▁熊光楷	-7488
▁群众性	-7489
▁谈不上	-7490
▁重庆市	-7491
▁陈云林	-7492
▁面前的	-7493
▁1985	-7494
▁有期徒刑	-7495
▁穆巴拉克	-7496
▁空军基地	-7497
▁统一思想	-7498
▁违法行为	-7499
▁删	-7500
▁剑	-7501
▁吓	-7502
▁宫	-7503
▁慢	-7504
▁暖	-7505
▁益	-7506
▁瞄	-7507
▁矛	-7508
▁舍	-7509
▁豪	-7510
▁酝	-7511
▁靳	-7512
之以	-7513
件事	-7514
侨胞	-7515
共睹	-7516
国琴	-7517
实事	-7518
帕伊	-7519
开来	-7520
来愈	-7521
模范	-7522
科夫	-7523
而出	-7524
萨德	-7525
言人	-7526
防部	-7527
阳市	-7528
青团	-7529
▁不只	-7530
▁不太	-7531
▁不对	-7532
▁不见	-7533
▁主政	-7534
▁乡村	-7535
▁低估	-7536
▁余地	-7537
▁入主	-7538
▁兴衰	-7539
▁前者	-7540
▁力气	-7541
▁十大	-7542
▁南丹	-7543
▁参演	-7544
▁发电	-7545
▁可怕	-7546
▁可言	-7547
▁周刊	-7548
▁器材	-7549
▁固然	-7550
▁均衡	-7551
▁增发	-7552
▁处境	-7553
▁大战	-7554
▁如期	-7555
▁家人	-7556
▁对本	-7557
▁工厂	-7558
▁布赫	-7559
▁帷幕	-7560
▁干旱	-7561
▁张俊	-7562
▁弹药	-7563
▁德治	-7564
▁懂得	-7565
▁手软	-7566
▁指南	-7567
▁接连	-7568
▁插手	-7569
▁搜集	-7570
▁故意	-7571
▁教会	-7572
▁施压	-7573
▁时事	-7574
▁有目	-7575
▁污水	-7576
▁泛滥	-7577
▁波兰	-7578
▁洲际	-7579
▁消灭	-7580
▁漫长	-7581
▁炸弹	-7582
▁监狱	-7583
▁硕士	-7584
▁确有	-7585
▁秋天	-7586
▁答案	-7587
▁粗暴	-7588
▁继往	-7589
▁缴获	-7590
▁肇事	-7591
▁自愿	-7592
▁要紧	-7593
▁话说	-7594
▁课目	-7595
▁贫穷	-7596
▁走在	-7597
▁边缘	-7598
▁那场	-7599
▁酝酿	-7600
▁里根	-7601
▁阐明	-7602
▁院所	-7603
三十日	-7604
▁优越性	-7605
▁共青团	-7606
▁办实事	-7607
▁劳动者	-7608
▁反映出	-7609
▁建设好	-7610
▁愈来愈	-7611
▁意识到	-7612
▁斯洛伐	-7613
▁最后的	-7614
▁机器人	-7615
▁毫无疑	-7616
▁法制化	-7617
▁理论上	-7618
▁第十二	-7619
▁这件事	-7620
▁阮国琴	-7621
唯物主义	-7622
▁1500	-7623
▁上层建筑	-7624
▁伊万诺夫	-7625
▁候补委员	-7626
▁劳动模范	-7627
▁有目共睹	-7628
▁武装力量	-7629
▁海外侨胞	-7630
▁继往开来	-7631
▁美国防部	-7632
▁一九九五年	-7633
▁百分之九十	-7634
50	-7635
▁+	-7636
▁U	-7637
▁乙	-7638
▁块	-7639
▁宿	-7640
▁捣	-7641
▁摘	-7642
▁敞	-7643
▁曼	-7644
▁板	-7645
▁柏	-7646
▁栏	-7647
▁湾	-7648
▁澎	-7649
▁皮	-7650
▁缉	-7651
▁缘	-7652
▁诉	-7653
▁诗	-7654
▁贝	-7655
▁趁	-7656
▁郝	-7657
▁钉	-7658
▁顿	-7659
伪劣	-7660
兴趣	-7661
基层	-7662
多次	-7663
必须	-7664
所向	-7665
投资	-7666
折不	-7667
杼滨	-7668
罗德	-7669
要求	-7670
金龙	-7671
▁58	-7672
▁一举	-7673
▁一生	-7674
▁三成	-7675
▁下大	-7676
▁下落	-7677
▁不分	-7678
▁东欧	-7679
▁主委	-7680
▁亲密	-7681
▁亲属	-7682
▁仍未	-7683
▁以至	-7684
▁保安	-7685
▁信誉	-7686
▁债券	-7687
▁关联	-7688
▁创办	-7689
▁制作	-7690
▁剩余	-7691
▁加油	-7692
▁劣势	-7693
▁可望	-7694
▁呼唤	-7695
▁和谐	-7696
▁响应	-7697
▁善良	-7698
▁四千	-7699
▁回头	-7700
▁回报	-7701
▁坐视	-7702
▁声势	-7703
▁大众	-7704
▁妇联	-7705
▁学风	-7706
▁实干	-7707
▁对照	-7708
▁尼日	-7709
▁山水	-7710
▁年内	-7711
▁延伸	-7712
▁当家	-7713
▁当日	-7714
▁形容	-7715
▁打出	-7716
▁抗日	-7717
▁指数	-7718
▁撰写	-7719
▁支配	-7720
▁放慢	-7721
▁政企	-7722
▁救助	-7723
▁教徒	-7724
▁斯特	-7725
▁星球	-7726
▁有害	-7727
▁沙特	-7728
▁沙龙	-7729
▁流亡	-7730
▁流血	-7731
▁清算	-7732
▁理顺	-7733
▁甲级	-7734
▁疯狂	-7735
▁盈利	-7736
▁相近	-7737
▁稳健	-7738
▁窗口	-7739
▁立体	-7740
▁结局	-7741
▁缓慢	-7742
▁罚款	-7743
▁肆意	-7744
▁自称	-7745
▁街道	-7746
▁补助	-7747
▁西南	-7748
▁解读	-7749
▁论文	-7750
▁走到	-7751
▁遥远	-7752
▁重心	-7753
▁随意	-7754
▁青海	-7755
之有效	-7756
杰帕伊	-7757
▁主动性	-7758
▁增长点	-7759
▁大家庭	-7760
▁将达到	-7761
▁感兴趣	-7762
▁数字化	-7763
▁施罗德	-7764
▁无党派	-7765
▁核潜艇	-7766
▁王光亚	-7767
▁立法会	-7768
▁股份制	-7769
▁说服力	-7770
▁还必须	-7771
▁韩杼滨	-7772
▁伊斯兰教	-7773
▁假冒伪劣	-7774
▁斯洛伐克	-7775
▁毫无疑问	-7776
▁联合政府	-7777
▁行之有效	-7778
▁通货膨胀	-7779
▁金融市场	-7780
▁阿米蒂奇	-7781
▁二零零五年	-7782
▁澳门特别行政区	-7783
▁X	-7784
▁堂	-7785
▁廖	-7786
▁拔	-7787
▁拳	-7788
▁曙	-7789
▁桑	-7790
▁洞	-7791
▁浩	-7792
▁狭	-7793
▁盖	-7794
▁瞬	-7795
▁硝	-7796
▁祥	-7797
▁笼	-7798
▁纸	-7799
▁艇	-7800
▁蕴	-7801
上去	-7802
利时	-7803
合资	-7804
垃圾	-7805
堕落	-7806
如此	-7807
如超	-7808
总值	-7809
情愿	-7810
收费	-7811
明伟	-7812
灾害	-7813
相成	-7814
相连	-7815
统会	-7816
耳他	-7817
英凡	-7818
远哲	-7819
.5%	-7820
▁三代	-7821
▁下令	-7822
▁不成	-7823
▁不错	-7824
▁东海	-7825
▁之大	-7826
▁亟待	-7827
▁信贷	-7828
▁其间	-7829
▁军政	-7830
▁军界	-7831
▁出国	-7832
▁列席	-7833
▁前期	-7834
▁剖析	-7835
▁变更	-7836
▁变质	-7837
▁台资	-7838
▁合成	-7839
▁员工	-7840
▁境地	-7841
▁多名	-7842
▁多项	-7843
▁大为	-7844
▁宁夏	-7845
▁实地	-7846
▁对内	-7847
▁尽力	-7848
▁开除	-7849
▁引渡	-7850
▁张宏	-7851
▁得知	-7852
▁所长	-7853
▁护照	-7854
▁挖掘	-7855
▁授予	-7856
▁提起	-7857
▁撤军	-7858
▁收获	-7859
▁敞开	-7860
▁新春	-7861
▁旗号	-7862
▁无从	-7863
▁无所	-7864
▁无权	-7865
▁无比	-7866
▁日元	-7867
▁曙光	-7868
▁更迭	-7869
▁来了	-7870
▁林业	-7871
▁水面	-7872
▁牵引	-7873
▁相辅	-7874
▁筹集	-7875
▁翻天	-7876
▁耿飚	-7877
▁腐朽	-7878
▁至此	-7879
▁藏语	-7880
▁裁减	-7881
▁要害	-7882
▁许嘉	-7883
▁贩卖	-7884
▁过时	-7885
▁适度	-7886
▁选项	-7887
▁陆战	-7888
▁难民	-7889
▁飞越	-7890
▁黄河	-7891
▁黑客	-7892
方面面	-7893
败之地	-7894
▁30%	-7895
▁专案组	-7896
▁两手抓	-7897
▁乱收费	-7898
▁传教士	-7899
▁劳动党	-7900
▁发挥好	-7901
▁周明伟	-7902
▁国统会	-7903
▁多样性	-7904
▁曾多次	-7905
▁权威性	-7906
▁李远哲	-7907
▁比利时	-7908
▁毕业生	-7909
▁王英凡	-7910
▁第十一	-7911
▁第十三	-7912
▁第十六	-7913
▁被告人	-7914
▁说到底	-7915
▁陈德良	-7916
▁靳如超	-7917
▁预备役	-7918
▁马耳他	-7919
生产总值	-7920
▁1979	-7921
▁中外合资	-7922
▁人心所向	-7923
▁国际惯例	-7924
▁多党合作	-7925
▁山水相连	-7926
▁方方面面	-7927
▁瓦杰帕伊	-7928
▁相辅相成	-7929
▁第三产业	-7930
▁群众路线	-7931
▁联系实际	-7932
▁自然灾害	-7933
月二十三日	-7934
月二十五日	-7935
▁国民生产总值	-7936
80	-7937
SS	-7938
▁R	-7939
▁亡	-7940
▁奏	-7941
▁岸	-7942
▁弟	-7943
▁悄	-7944
▁押	-7945
▁挺	-7946
▁毋	-7947
▁疫	-7948
▁箱	-7949
▁译	-7950
▁躲	-7951
▁锁	-7952
一致	-7953
交道	-7954
元首	-7955
功夫	-7956
四亿	-7957
塞拜	-7958
待遇	-7959
忘录	-7960
树备	-7961
活动	-7962
纪周	-7963
覆地	-7964
规定	-7965
长期	-7966
院校	-7967
▁1%	-7968
▁39	-7969
▁46	-7970
▁一刻	-7971
▁中学	-7972
▁交替	-7973
▁亲眼	-7974
▁会后	-7975
▁兑换	-7976
▁六百	-7977
▁农牧	-7978
▁几代	-7979
▁分类	-7980
▁前面	-7981
▁十万	-7982
▁同等	-7983
▁名誉	-7984
▁吸纳	-7985
▁告诫	-7986
▁外债	-7987
▁大概	-7988
▁夫妻	-7989
▁将领	-7990
▁工艺	-7991
▁希腊	-7992
▁开采	-7993
▁强加	-7994
▁强迫	-7995
▁忧患	-7996
▁急剧	-7997
▁总编	-7998
▁总署	-7999
▁惩罚	-8000
▁感染	-8001
▁或是	-8002
▁戴维	-8003
▁抑制	-8004
▁拉赫	-8005
▁推销	-8006
▁改制	-8007
▁数百	-8008
▁新年	-8009
▁昨晚	-8010
▁核实	-8011
▁欣慰	-8012
▁河内	-8013
▁治军	-8014
▁流转	-8015
▁济南	-8016
▁温和	-8017
▁炮制	-8018
▁献身	-8019
▁生育	-8020
▁申诉	-8021
▁畅通	-8022
▁留学	-8023
▁短暂	-8024
▁祥和	-8025
▁筹码	-8026
▁维修	-8027
▁罪名	-8028
▁联网	-8029
▁自强	-8030
▁至于	-8031
▁舰船	-8032
▁行长	-8033
▁西化	-8034
▁负债	-8035
▁贬值	-8036
▁跳伞	-8037
▁轻松	-8038
▁通行	-8039
▁邦联	-8040
▁集结	-8041
▁风雨	-8042
不容辞	-8043
塞拜疆	-8044
宁主义	-8045
折不扣	-8046
▁10%	-8047
▁20%	-8048
▁70%	-8049
▁中长期	-8050
▁亲切的	-8051
▁代表性	-8052
▁侵略者	-8053
▁全民族	-8054
▁利比亚	-8055
▁可行性	-8056
▁唐树备	-8057
▁国际间	-8058
▁备忘录	-8059
▁打交道	-8060
▁打电话	-8061
▁有效性	-8062
▁朋友们	-8063
▁李纪周	-8064
▁没有人	-8065
▁管理法	-8066
▁紧迫性	-8067
▁经营者	-8068
▁落脚点	-8069
▁过去了	-8070
▁那样的	-8071
▁阿萨德	-8072
▁不折不扣	-8073
▁义不容辞	-8074
▁保险公司	-8075
▁共产党人	-8076
▁国家元首	-8077
▁星球大战	-8078
▁殖民主义	-8079
▁深入基层	-8080
▁翻天覆地	-8081
▁部长会议	-8082
▁阿塞拜疆	-8083
▁│	-8084
▁侯	-8085
▁厉	-8086
▁填	-8087
▁庇	-8088
▁料	-8089
▁浦	-8090
▁灯	-8091
▁玉	-8092
▁遮	-8093
▁铸	-8094
一体	-8095
中制	-8096
之风	-8097
些年	-8098
刚川	-8099
可行	-8100
多彩	-8101
大使	-8102
旋律	-8103
永怀	-8104
点七	-8105
环境	-8106
班人	-8107
维亚	-8108
道德	-8109
道而	-8110
▁42	-8111
▁47	-8112
▁一心	-8113
▁三角	-8114
▁不公	-8115
▁亲身	-8116
▁从不	-8117
▁何在	-8118
▁余额	-8119
▁例子	-8120
▁克里	-8121
▁全天	-8122
▁公款	-8123
▁军营	-8124
▁凭借	-8125
▁出面	-8126
▁勇敢	-8127
▁华府	-8128
▁参考	-8129
▁变相	-8130
▁司长	-8131
▁四成	-8132
▁垃圾	-8133
▁壁垒	-8134
▁处处	-8135
▁多出	-8136
▁大计	-8137
▁姑息	-8138
▁安危	-8139
▁寺庙	-8140
▁居然	-8141
▁州长	-8142
▁开庭	-8143
▁强度	-8144
▁强行	-8145
▁归还	-8146
▁总后	-8147
▁想象	-8148
▁招标	-8149
▁持有	-8150
▁指针	-8151
▁揭批	-8152
▁政经	-8153
▁斯里	-8154
▁新鲜	-8155
▁施工	-8156
▁智力	-8157
▁更具	-8158
▁杜马	-8159
▁某部	-8160
▁水域	-8161
▁洪水	-8162
▁深情	-8163
▁物品	-8164
▁物理	-8165
▁犹太	-8166
▁电磁	-8167
▁男子	-8168
▁相撞	-8169
▁着重	-8170
▁神秘	-8171
▁空降	-8172
▁等到	-8173
▁线索	-8174
▁罢免	-8175
▁良知	-8176
▁融合	-8177
▁补给	-8178
▁议论	-8179
▁足额	-8180
▁较低	-8181
▁过高	-8182
▁那就	-8183
▁门口	-8184
▁问及	-8185
▁隐形	-8186
▁音乐	-8187
▁风貌	-8188
▁验收	-8189
▁黑体	-8190
权大使	-8191
集中制	-8192
▁90%	-8193
▁一次次	-8194
▁主办权	-8195
▁会员国	-8196
▁低收入	-8197
▁十二月	-8198
▁卡塔尔	-8199
▁原则上	-8200
▁希拉克	-8201
▁年轻人	-8202
▁於永波	-8203
▁曹刚川	-8204
▁本单位	-8205
▁本质上	-8206
▁核电站	-8207
▁许可证	-8208
▁许嘉璐	-8209
▁诺贝尔	-8210
▁近些年	-8211
▁郭永怀	-8212
▁1989	-8213
▁不正之风	-8214
▁切实可行	-8215
▁自古以来	-8216
月二十四日	-8217
▁新闻发言人	-8218
▁民主集中制	-8219
BF	-8220
ec	-8221
or	-8222
▁冻	-8223
▁惯	-8224
▁捏	-8225
▁斡	-8226
▁昔	-8227
▁暨	-8228
▁歉	-8229
▁玛	-8230
▁诈	-8231
不及	-8232
不来	-8233
中叶	-8234
中山	-8235
命全	-8236
塞尔	-8237
天下	-8238
建徽	-8239
成年	-8240
敬琏	-8241
瓦那	-8242
篇章	-8243
过程	-8244
道远	-8245
部级	-8246
问题	-8247
面目	-8248
高点	-8249
ent	-8250
▁3%	-8251
▁下达	-8252
▁不信	-8253
▁东道	-8254
▁中古	-8255
▁中法	-8256
▁中等	-8257
▁之多	-8258
▁乘坐	-8259
▁以免	-8260
▁任重	-8261
▁修复	-8262
▁党籍	-8263
▁公园	-8264
▁列车	-8265
▁利息	-8266
▁动议	-8267
▁包围	-8268
▁南宁	-8269
▁召集	-8270
▁司马	-8271
▁后续	-8272
▁命中	-8273
▁地图	-8274
▁大气	-8275
▁实用	-8276
▁宣讲	-8277
▁害人	-8278
▁宾馆	-8279
▁小麦	-8280
▁尸体	-8281
▁层层	-8282
▁崇尚	-8283
▁广度	-8284
▁弊端	-8285
▁影视	-8286
▁投向	-8287
▁抱有	-8288
▁拖欠	-8289
▁指令	-8290
▁敌视	-8291
▁整理	-8292
▁无偿	-8293
▁未必	-8294
▁机电	-8295
▁核准	-8296
▁比赛	-8297
▁民调	-8298
▁永葆	-8299
▁波折	-8300
▁淡化	-8301
▁激化	-8302
▁火车	-8303
▁热衷	-8304
▁特有	-8305
▁玩弄	-8306
▁珠海	-8307
▁直属	-8308
▁眼前	-8309
▁硝烟	-8310
▁碰撞	-8311
▁缅甸	-8312
▁缔结	-8313
▁编撰	-8314
▁聘请	-8315
▁航线	-8316
▁苦难	-8317
▁被捕	-8318
▁警衔	-8319
▁认可	-8320
▁论调	-8321
▁质的	-8322
▁贵宾	-8323
▁赴日	-8324
▁足球	-8325
▁轻易	-8326
▁辐射	-8327
▁辛格	-8328
▁远东	-8329
▁迷惑	-8330
▁通航	-8331
▁配额	-8332
▁重重	-8333
▁随之	-8334
▁集资	-8335
▁预祝	-8336
▁风波	-8337
▁齐全	-8338
巴耶夫	-8339
▁863	-8340
▁专业化	-8341
▁亲民党	-8342
▁人事部	-8343
▁全国性	-8344
▁全过程	-8345
▁制高点	-8346
▁吴敬琏	-8347
▁哈瓦那	-8348
▁城市化	-8349
▁尼克松	-8350
▁戴维营	-8351
▁新篇章	-8352
▁曾建徽	-8353
▁未成年	-8354
▁核弹头	-8355
▁特命全	-8356
▁生命线	-8357
▁社科院	-8358
▁第十四	-8359
▁经受住	-8360
▁胡鞍钢	-8361
▁长期性	-8362
▁陕西省	-8363
▁革命家	-8364
列宁主义	-8365
▁一百五十	-8366
▁任重道远	-8367
▁党委书记	-8368
▁兴旺发达	-8369
▁矿产资源	-8370
▁一九七九年	-8371
▁特命全权大使	-8372
▁马克思列宁主义	-8373
▁O	-8374
▁傲	-8375
▁寒	-8376
▁屋	-8377
▁拭	-8378
▁掠	-8379
▁撒	-8380
▁桶	-8381
▁泡	-8382
▁滩	-8383
▁牧	-8384
▁瘫	-8385
▁箭	-8386
▁耳	-8387
▁蛊	-8388
▁逝	-8389
▁餐	-8390
两院	-8391
互补	-8392
六百	-8393
劲松	-8394
十一	-8395
多样	-8396
度势	-8397
点九	-8398
诗佳	-8399
.2%	-8400
▁三国	-8401
▁三点	-8402
▁上旬	-8403
▁不下	-8404
▁不肯	-8405
▁中部	-8406
▁人工	-8407
▁人身	-8408
▁供水	-8409
▁倾听	-8410
▁共计	-8411
▁其余	-8412
▁农田	-8413
▁分流	-8414
▁分组	-8415
▁剥削	-8416
▁动机	-8417
▁十几	-8418
▁参战	-8419
▁同日	-8420
▁名字	-8421
▁名牌	-8422
▁响起	-8423
▁商界	-8424
▁围堵	-8425
▁地形	-8426
▁场面	-8427
▁外务	-8428
▁外相	-8429
▁多达	-8430
▁夜间	-8431
▁审时	-8432
▁家乡	-8433
▁家里	-8434
▁对口	-8435
▁封闭	-8436
▁将把	-8437
▁小型	-8438
▁尽量	-8439
▁布鲁	-8440
▁幕僚	-8441
▁弹头	-8442
▁当场	-8443
▁征管	-8444
▁必由	-8445
▁战车	-8446
▁打假	-8447
▁把关	-8448
▁拭目	-8449
▁撑腰	-8450
▁收取	-8451
▁文献	-8452
▁普法	-8453
▁构建	-8454
▁栏目	-8455
▁殷切	-8456
▁水电	-8457
▁浓厚	-8458
▁浮动	-8459
▁涵盖	-8460
▁满怀	-8461
▁物力	-8462
▁用意	-8463
▁界限	-8464
▁硬件	-8465
▁称号	-8466
▁算是	-8467
▁纯洁	-8468
▁缴纳	-8469
▁船只	-8470
▁裁定	-8471
▁诈骗	-8472
▁谬论	-8473
▁负起	-8474
▁赴美	-8475
▁踏上	-8476
▁转到	-8477
▁输送	-8478
▁迎合	-8479
▁道教	-8480
▁酒店	-8481
▁40%	-8482
▁800	-8483
▁不必要	-8484
▁主旋律	-8485
▁山东省	-8486
▁总公司	-8487
▁无条件	-8488
▁最惠国	-8489
▁李明江	-8490
▁李诗佳	-8491
▁王永庆	-8492
▁研究室	-8493
▁突破口	-8494
▁纲领性	-8495
▁结构性	-8496
▁评论说	-8497
▁邀请来	-8498
▁防卫厅	-8499
▁领导者	-8500
▁1984	-8501
▁优势互补	-8502
▁刑事责任	-8503
▁审时度势	-8504
▁必由之路	-8505
▁拭目以待	-8506
▁百分之八	-8507
▁知名人士	-8508
▁自然资源	-8509
▁长远利益	-8510
▁集体主义	-8511
▁最惠国待遇	-8512
▁百分之八十	-8513
▁V	-8514
▁冬	-8515
▁夹	-8516
▁奶	-8517
▁尺	-8518
▁悉	-8519
▁腹	-8520
▁臭	-8521
▁踊	-8522
▁辖	-8523
▁铜	-8524
▁飘	-8525
▁饕	-8526
三道	-8527
不够	-8528
五亿	-8529
伯雄	-8530
作主	-8531
作物	-8532
军区	-8533
吾尔	-8534
复杂	-8535
如一	-8536
宾馆	-8537
局势	-8538
才厚	-8539
时代	-8540
木尔	-8541
而易	-8542
要案	-8543
警察	-8544
鲁丽	-8545
▁32	-8546
▁41	-8547
▁44	-8548
▁49	-8549
▁52	-8550
▁下属	-8551
▁不失	-8552
▁中止	-8553
▁主教	-8554
▁之争	-8555
▁事迹	-8556
▁亚美	-8557
▁亲手	-8558
▁从业	-8559
▁仪仗	-8560
▁传递	-8561
▁传闻	-8562
▁侧重	-8563
▁便于	-8564
▁信教	-8565
▁假如	-8566
▁充足	-8567
▁六千	-8568
▁六四	-8569
▁兴建	-8570
▁其一	-8571
▁农场	-8572
▁减负	-8573
▁出入	-8574
▁出境	-8575
▁刘江	-8576
▁利害	-8577
▁剩下	-8578
▁动物	-8579
▁劳务	-8580
▁华夏	-8581
▁即便	-8582
▁卷入	-8583
▁参选	-8584
▁受理	-8585
▁听证	-8586
▁商人	-8587
▁商贸	-8588
▁在即	-8589
▁增速	-8590
▁士气	-8591
▁大洋	-8592
▁大洲	-8593
▁威力	-8594
▁幕后	-8595
▁平安	-8596
▁广交	-8597
▁庇护	-8598
▁开启	-8599
▁强盛	-8600
▁急需	-8601
▁惯例	-8602
▁意在	-8603
▁感慨	-8604
▁战友	-8605
▁执勤	-8606
▁抗衡	-8607
▁拼搏	-8608
▁收回	-8609
▁於中	-8610
▁无效	-8611
▁无线	-8612
▁有点	-8613
▁服装	-8614
▁来信	-8615
▁杭州	-8616
▁查询	-8617
▁样子	-8618
▁植树	-8619
▁武官	-8620
▁沙漠	-8621
▁法宝	-8622
▁海岸	-8623
▁炸药	-8624
▁电网	-8625
▁盼望	-8626
▁看作	-8627
▁真心	-8628
▁科协	-8629
▁税率	-8630
▁章程	-8631
▁等于	-8632
▁精品	-8633
▁精髓	-8634
▁美苏	-8635
▁胜负	-8636
▁脱颖	-8637
▁芬兰	-8638
▁范畴	-8639
▁营销	-8640
▁蛇头	-8641
▁蛊惑	-8642
▁补偿	-8643
▁记忆	-8644
▁误导	-8645
▁资深	-8646
▁踊跃	-8647
▁达标	-8648
▁达瓦	-8649
▁进度	-8650
▁连任	-8651
▁送给	-8652
▁野心	-8653
▁钱财	-8654
▁错综	-8655
▁长久	-8656
▁门槛	-8657
▁阵营	-8658
▁顽强	-8659
▁领事	-8660
▁领取	-8661
▁颠倒	-8662
▁飞速	-8663
▁首批	-8664
▁马尔	-8665
▁鲜血	-8666
三道四	-8667
文尼亚	-8668
道而驰	-8669
▁一九四	-8670
▁一月十	-8671
▁下功夫	-8672
▁不一定	-8673
▁东西方	-8674
▁中国人	-8675
▁何鲁丽	-8676
▁原来的	-8677
▁多媒体	-8678
▁大团结	-8679
▁徐才厚	-8680
▁把握好	-8681
▁本部门	-8682
▁检察长	-8683
▁第一线	-8684
▁行不通	-8685
▁要紧紧	-8686
▁说成是	-8687
▁还不能	-8688
▁郭金龙	-8689
▁铁木尔	-8690
▁面对面	-8691
民主主义	-8692
▁亚美尼亚	-8693
▁四月一日	-8694
▁国际局势	-8695
▁大型企业	-8696
▁大案要案	-8697
▁尽管如此	-8698
▁当家作主	-8699
▁有所作为	-8700
▁民主党派	-8701
▁科技人员	-8702
▁第二十二	-8703
▁背道而驰	-8704
▁脱颖而出	-8705
▁说三道四	-8706
▁达瓦买提	-8707
▁错综复杂	-8708
▁高等学校	-8709
月二十二日	-8710
▁斯洛文尼亚	-8711
▁无党派人士	-8712
▁特别行政区	-8713
----------------	-8714
al	-8715
▁俞	-8716
▁吊	-8717
▁哀	-8718
▁噶	-8719
▁堆	-8720
▁墓	-8721
▁幼	-8722
▁挟	-8723
▁搏	-8724
▁族	-8725
▁汗	-8726
▁炎	-8727
▁衔	-8728
▁速	-8729
▁鸿	-8730
不得	-8731
加上	-8732
动力	-8733
垄断	-8734
大陆	-8735
大非	-8736
常化	-8737
文昌	-8738
方针	-8739
晓明	-8740
更生	-8741
物馆	-8742
航空	-8743
英雄	-8744
行逆	-8745
谋部	-8746
质量	-8747
面积	-8748
17)	-8749
▁65	-8750
▁AB	-8751
▁一同	-8752
▁上次	-8753
▁不愧	-8754
▁不畏	-8755
▁不让	-8756
▁不讲	-8757
▁丹麦	-8758
▁事端	-8759
▁交叉	-8760
▁亮点	-8761
▁从新	-8762
▁伪造	-8763
▁保健	-8764
▁偶然	-8765
▁免去	-8766
▁兰州	-8767
▁关乎	-8768
▁其二	-8769
▁列举	-8770
▁勉励	-8771
▁十八	-8772
▁升温	-8773
▁华北	-8774
▁印巴	-8775
▁历时	-8776
▁历次	-8777
▁反潜	-8778
▁只好	-8779
▁吸毒	-8780
▁品质	-8781
▁善后	-8782
▁增添	-8783
▁声誉	-8784
▁多位	-8785
▁大是	-8786
▁孙杰	-8787
▁定居	-8788
▁害怕	-8789
▁家长	-8790
▁将要	-8791
▁尖端	-8792
▁师生	-8793
▁平静	-8794
▁并举	-8795
▁序幕	-8796
▁开工	-8797
▁很少	-8798
▁必定	-8799
▁忽略	-8800
▁总长	-8801
▁惊人	-8802
▁想像	-8803
▁扫除	-8804
▁改弦	-8805
▁斡旋	-8806
▁断然	-8807
▁新高	-8808
▁方的	-8809
▁无不	-8810
▁无关	-8811
▁日程	-8812
▁昆明	-8813
▁暂停	-8814
▁束缚	-8815
▁查明	-8816
▁横行	-8817
▁正好	-8818
▁求得	-8819
▁流入	-8820
▁深信	-8821
▁深渊	-8822
▁渔民	-8823
▁病人	-8824
▁盗窃	-8825
▁相距	-8826
▁眼睛	-8827
▁瞄准	-8828
▁矛头	-8829
▁穆沙	-8830
▁粉碎	-8831
▁紧接	-8832
▁结盟	-8833
▁网友	-8834
▁耗资	-8835
▁联手	-8836
▁背离	-8837
▁自信	-8838
▁自力	-8839
▁落选	-8840
▁要走	-8841
▁见解	-8842
▁观光	-8843
▁触犯	-8844
▁警戒	-8845
▁讲求	-8846
▁贝尔	-8847
▁贾春	-8848
▁辩护	-8849
▁逝世	-8850
▁长征	-8851
▁马来	-8852
▁高地	-8853
▁高瞻	-8854
正常化	-8855
空导弹	-8856
莫诺夫	-8857
行逆施	-8858
▁不需要	-8859
▁中青年	-8860
▁主席团	-8861
▁仪仗队	-8862
▁保险金	-8863
▁停留在	-8864
▁关键性	-8865
▁再加上	-8866
▁博物馆	-8867
▁危害性	-8868
▁受益人	-8869
▁台北市	-8870
▁地方性	-8871
▁小布什	-8872
▁教科文	-8873
▁暴露出	-8874
▁正规化	-8875
▁深圳市	-8876
▁湖南省	-8877
▁研究生	-8878
▁第十五	-8879
▁观察员	-8880
▁还不够	-8881
▁高质量	-8882
▁(17)	-8883
▁2002	-8884
▁4000	-8885
▁丰富多彩	-8886
▁倒行逆施	-8887
▁大是大非	-8888
▁安定团结	-8889
▁封建主义	-8890
▁归根到底	-8891
▁总参谋部	-8892
▁有关单位	-8893
▁生产关系	-8894
▁百分之五	-8895
▁规章制度	-8896
▁高等院校	-8897
▁黑龙江省	-8898
▁拉赫莫诺夫	-8899
▁新民主主义	-8900
▁邦交正常化	-8901
ag	-8902
▁串	-8903
▁卜	-8904
▁卿	-8905
▁喷	-8906
▁域	-8907
▁寿	-8908
▁扼	-8909
▁摊	-8910
▁柳	-8911
▁浇	-8912
▁渎	-8913
▁狡	-8914
▁绑	-8915
▁缀	-8916
▁育	-8917
▁茫	-8918
▁莱	-8919
▁谣	-8920
▁颜	-8921
一切	-8922
不断	-8923
之为	-8924
人类	-8925
亿多	-8926
以轻	-8927
儿童	-8928
再厉	-8929
北调	-8930
同志	-8931
国强	-8932
国策	-8933
学智	-8934
尼斯	-8935
巴嫩	-8936
希德	-8937
开发	-8938
文化	-8939
斯克	-8940
昌盛	-8941
流失	-8942
猛进	-8943
祖康	-8944
米尔	-8945
纪云	-8946
罗里	-8947
联部	-8948
讳言	-8949
远瞩	-8950
铁山	-8951
飞机	-8952
-16	-8953
▁75	-8954
▁一带	-8955
▁一连	-8956
▁万国	-8957
▁上报	-8958
▁不予	-8959
▁不力	-8960
▁不去	-8961
▁不当	-8962
▁两极	-8963
▁严禁	-8964
▁主战	-8965
▁互为	-8966
▁人家	-8967
▁付诸	-8968
▁以利	-8969
▁传出	-8970
▁伦敦	-8971
▁低下	-8972
▁依存	-8973
▁侵权	-8974
▁倒是	-8975
▁停火	-8976
▁先例	-8977
▁党史	-8978
▁党团	-8979
▁公职	-8980
▁再也	-8981
▁再接	-8982
▁军校	-8983
▁出租	-8984
▁划分	-8985
▁创下	-8986
▁到会	-8987
▁刻苦	-8988
▁勤政	-8989
▁包装	-8990
▁北海	-8991
▁升格	-8992
▁华裔	-8993
▁南水	-8994
▁反感	-8995
▁古老	-8996
▁史实	-8997
▁后盾	-8998
▁唯有	-8999
▁嘴脸	-9000
▁圣人	-9001
▁垄断	-9002
▁大卫	-9003
▁大致	-9004
▁好评	-9005
▁守法	-9006
▁安装	-9007
▁定价	-9008
▁审核	-9009
▁家族	-9010
▁对称	-9011
▁将於	-9012
▁带入	-9013
▁引述	-9014
▁弱势	-9015
▁强弱	-9016
▁影片	-9017
▁徐德	-9018
▁恐惧	-9019
▁恶意	-9020
▁悲惨	-9021
▁成行	-9022
▁打掉	-9023
▁拉拢	-9024
▁挂钩	-9025
▁推卸	-9026
▁攻势	-9027
▁敌意	-9028
▁新生	-9029
▁无理	-9030
▁昔日	-9031
▁更深	-9032
▁杀害	-9033
▁李平	-9034
▁水源	-9035
▁汕头	-9036
▁派人	-9037
▁流传	-9038
▁海面	-9039
▁涵义	-9040
▁深重	-9041
▁热门	-9042
▁焕发	-9043
▁班禅	-9044
▁理智	-9045
▁田弘	-9046
▁留给	-9047
▁症结	-9048
▁瘫痪	-9049
▁直言	-9050
▁相连	-9051
▁看清	-9052
▁着手	-9053
▁社长	-9054
▁离境	-9055
▁空白	-9056
▁窃取	-9057
▁纳扎	-9058
▁纵深	-9059
▁细节	-9060
▁经商	-9061
▁联想	-9062
▁背叛	-9063
▁航运	-9064
▁花钱	-9065
▁要点	-9066
▁警钟	-9067
▁财税	-9068
▁软弱	-9069
▁辽阔	-9070
▁过分	-9071
▁过度	-9072
▁过来	-9073
▁途中	-9074
▁造谣	-9075
▁部份	-9076
▁阿斯	-9077
▁陆基	-9078
▁陆海	-9079
▁限度	-9080
▁随行	-9081
▁饱受	-9082
▁驻地	-9083
▁高低	-9084
▁高尚	-9085
▁高炮	-9086
以轻心	-9087
百四十	-9088
罗里达	-9089
▁120	-9090
▁不管是	-9091
▁中小学	-9092
▁中联部	-9093
▁二零一	-9094
▁傅铁山	-9095
▁全人类	-9096
▁八月十	-9097
▁农民工	-9098
▁分不开	-9099
▁总的来	-9100
▁排放量	-9101
▁施加压	-9102
▁沙祖康	-9103
▁洪学智	-9104
▁田纪云	-9105
▁稳定性	-9106
▁综合性	-9107
▁老同志	-9108
▁贾春旺	-9109
▁黎巴嫩	-9110
▁佛罗里达	-9111
▁再接再厉	-9112
▁刑事诉讼	-9113
▁南水北调	-9114
▁基本国策	-9115
▁布鲁塞尔	-9116
▁掉以轻心	-9117
▁水土流失	-9118
▁第一书记	-9119
▁繁荣昌盛	-9120
▁结合实际	-9121
▁高瞻远瞩	-9122
om	-9123
st	-9124
▁冠	-9125
▁冶	-9126
▁堡	-9127
▁够	-9128
▁慕	-9129
▁枝	-9130
▁沧	-9131
▁浅	-9132
▁蒸	-9133
▁陛	-9134
▁鬼	-9135
不出	-9136
光大	-9137
公路	-9138
内部	-9139
备部	-9140
恩来	-9141
正华	-9142
趋势	-9143
金石	-9144
鲁阿	-9145
.7%	-9146
.9%	-9147
the	-9148
▁63	-9149
▁77	-9150
▁一派	-9151
▁不住	-9152
▁不服	-9153
▁东风	-9154
▁中土	-9155
▁之流	-9156
▁之道	-9157
▁事发	-9158
▁交待	-9159
▁人间	-9160
▁余年	-9161
▁保存	-9162
▁健儿	-9163
▁元旦	-9164
▁减速	-9165
▁出笼	-9166
▁前任	-9167
▁化为	-9168
▁十九	-9169
▁反思	-9170
▁另据	-9171
▁同事	-9172
▁回家	-9173
▁回来	-9174
▁堪称	-9175
▁大西	-9176
▁夸大	-9177
▁奉劝	-9178
▁奋进	-9179
▁将士	-9180
▁巨变	-9181
▁幻想	-9182
▁底线	-9183
▁建制	-9184
▁建造	-9185
▁开阔	-9186
▁张君	-9187
▁弱点	-9188
▁怀有	-9189
▁总司	-9190
▁息息	-9191
▁悉尼	-9192
▁情感	-9193
▁想到	-9194
▁愚昧	-9195
▁手术	-9196
▁找出	-9197
▁护卫	-9198
▁招致	-9199
▁拜会	-9200
▁拨款	-9201
▁挽回	-9202
▁描绘	-9203
▁摄影	-9204
▁改版	-9205
▁改装	-9206
▁故障	-9207
▁救生	-9208
▁散发	-9209
▁文书	-9210
▁无奈	-9211
▁日军	-9212
▁日渐	-9213
▁时隔	-9214
▁有理	-9215
▁有色	-9216
▁李炳	-9217
▁档案	-9218
▁歉意	-9219
▁步兵	-9220
▁毒害	-9221
▁民党	-9222
▁永不	-9223
▁流行	-9224
▁消耗	-9225
▁涉外	-9226
▁清查	-9227
▁渎职	-9228
▁游客	-9229
▁炎黄	-9230
▁牵动	-9231
▁犹如	-9232
▁瑞士	-9233
▁移交	-9234
▁税款	-9235
▁穷国	-9236
▁空气	-9237
▁筹资	-9238
▁精辟	-9239
▁红外	-9240
▁纪德	-9241
▁纵横	-9242
▁计生	-9243
▁评议	-9244
▁试行	-9245
▁诱惑	-9246
▁说到	-9247
▁调度	-9248
▁贺信	-9249
▁贺电	-9250
▁超出	-9251
▁趋于	-9252
▁跑到	-9253
▁身边	-9254
▁辅导	-9255
▁辜负	-9256
▁这时	-9257
▁迟迟	-9258
▁迫害	-9259
▁采纳	-9260
▁鉴定	-9261
▁长城	-9262
▁队员	-9263
▁防线	-9264
▁陛下	-9265
▁隐藏	-9266
▁雷锋	-9267
▁霸主	-9268
▁青岛	-9269
▁青藏	-9270
▁非但	-9271
▁预示	-9272
▁预言	-9273
▁颇为	-9274
▁首届	-9275
殖民地	-9276
▁110	-9277
▁不只是	-9278
▁了不起	-9279
▁众议员	-9280
▁作准备	-9281
▁保护好	-9282
▁军火商	-9283
▁十五日	-9284
▁十四日	-9285
▁卡西亚	-9286
▁周恩来	-9287
▁国有股	-9288
▁多渠道	-9289
▁大市场	-9290
▁大趋势	-9291
▁天津市	-9292
▁客观上	-9293
▁张宏喜	-9294
▁徐德金	-9295
▁总编辑	-9296
▁接班人	-9297
▁柯林顿	-9298
▁水污染	-9299
▁特殊性	-9300
▁田弘茂	-9301
▁省部级	-9302
▁称之为	-9303
▁纪念币	-9304
▁纪念日	-9305
▁警告说	-9306
▁试金石	-9307
▁谢尔盖	-9308
▁贺劲松	-9309
▁陆海空	-9310
▁领导层	-9311
内部矛盾	-9312
▁一千二百	-9313
▁人民警察	-9314
▁信息系统	-9315
▁军事基地	-9316
▁半殖民地	-9317
▁发扬光大	-9318
▁总装备部	-9319
▁技术水平	-9320
▁施加压力	-9321
▁马来西亚	-9322
▁高速公路	-9323
月二十九日	-9324
▁卡西亚诺夫	-9325
▁联合国大会	-9326
▁人民内部矛盾	-9327
45	-9328
▁丈	-9329
▁兜	-9330
▁刮	-9331
▁喀	-9332
▁喝	-9333
▁弃	-9334
▁怪	-9335
▁戚	-9336
▁挡	-9337
▁添	-9338
▁燕	-9339
▁猜	-9340
▁菜	-9341
▁郊	-9342
▁铀	-9343
▁链	-9344
▁隶	-9345
▁魔	-9346
▁鸣	-9347
困难	-9348
在希	-9349
实力	-9350
少民	-9351
形式	-9352
德拉	-9353
忌惮	-9354
戈斯	-9355
是非	-9356
林斯	-9357
格斯	-9358
洋溢	-9359
犯罪	-9360
目标	-9361
谈判	-9362
资料	-9363
阿拉	-9364
雅图	-9365
风雨	-9366
.8%	-9367
▁56	-9368
▁68	-9369
▁78	-9370
▁85	-9371
▁9%	-9372
▁下发	-9373
▁之久	-9374
▁之情	-9375
▁九九	-9376
▁五四	-9377
▁以致	-9378
▁住宅	-9379
▁侨胞	-9380
▁偿还	-9381
▁光彩	-9382
▁公道	-9383
▁共商	-9384
▁关头	-9385
▁兵团	-9386
▁兼任	-9387
▁减弱	-9388
▁前天	-9389
▁力图	-9390
▁加之	-9391
▁匈牙	-9392
▁医学	-9393
▁医生	-9394
▁原理	-9395
▁受灾	-9396
▁告别	-9397
▁周光	-9398
▁呼应	-9399
▁四方	-9400
▁回访	-9401
▁地处	-9402
▁大义	-9403
▁天国	-9404
▁天空	-9405
▁奴隶	-9406
▁如实	-9407
▁学位	-9408
▁尊敬	-9409
▁尹鸿	-9410
▁岁月	-9411
▁巡逻	-9412
▁度过	-9413
▁心灵	-9414
▁心血	-9415
▁忧心	-9416
▁打仗	-9417
▁承办	-9418
▁护法	-9419
▁拘留	-9420
▁据此	-9421
▁撤出	-9422
▁收缴	-9423
▁敏锐	-9424
▁敬献	-9425
▁未有	-9426
▁本周	-9427
▁权限	-9428
▁李系	-9429
▁某个	-9430
▁标榜	-9431
▁核查	-9432
▁根深	-9433
▁欧元	-9434
▁正值	-9435
▁此刻	-9436
▁步步	-9437
▁毒瘤	-9438
▁水产	-9439
▁没能	-9440
▁浦东	-9441
▁海拔	-9442
▁消化	-9443
▁演示	-9444
▁灌输	-9445
▁火灾	-9446
▁照搬	-9447
▁爱护	-9448
▁献计	-9449
▁王乐	-9450
▁疑问	-9451
▁眼下	-9452
▁石原	-9453
▁税制	-9454
▁空话	-9455
▁突发	-9456
▁端正	-9457
▁简直	-9458
▁纵观	-9459
▁组团	-9460
▁缺口	-9461
▁缺陷	-9462
▁网民	-9463
▁而后	-9464
▁脱钩	-9465
▁自重	-9466
▁致函	-9467
▁致死	-9468
▁落得	-9469
▁藏文	-9470
▁虚假	-9471
▁认证	-9472
▁论点	-9473
▁资助	-9474
▁身为	-9475
▁载体	-9476
▁还能	-9477
▁远见	-9478
▁野蛮	-9479
▁陈健	-9480
▁隶属	-9481
▁青联	-9482
▁韩朝	-9483
▁顿时	-9484
▁骨肉	-9485
▁鸿沟	-9486
尼西亚	-9487
工作者	-9488
执行官	-9489
▁113	-9490
▁193	-9491
▁一九六	-9492
▁五二零	-9493
▁促进会	-9494
▁保护伞	-9495
▁出版社	-9496
▁划时代	-9497
▁十二亿	-9498
▁印度洋	-9499
▁增值税	-9500
▁委托人	-9501
▁开发区	-9502
▁总人口	-9503
▁总目标	-9504
▁拉戈斯	-9505
▁有实力	-9506
▁服务于	-9507
▁李少民	-9508
▁李炳才	-9509
▁检察官	-9510
▁灵活性	-9511
▁王在希	-9512
▁相互间	-9513
▁科学性	-9514
▁科技大	-9515
▁站不住	-9516
▁组织法	-9517
▁网络化	-9518
▁葡萄牙	-9519
▁蒋正华	-9520
▁装甲车	-9521
▁西雅图	-9522
▁黑体字	-9523
▁1982	-9524
▁克服困难	-9525
▁刑事犯罪	-9526
▁和平谈判	-9527
▁息息相关	-9528
▁热情洋溢	-9529
▁第二十一	-9530
▁自力更生	-9531
▁先进工作者	-9532
▁印度尼西亚	-9533
▁百分之六十	-9534
▁首席执行官	-9535
▁社会主义社会	-9536
II	-9537
▁仁	-9538
▁佐	-9539
▁倘	-9540
▁哨	-9541
▁唾	-9542
▁垮	-9543
▁墙	-9544
▁挣	-9545
▁枯	-9546
▁氏	-9547
▁澜	-9548
▁畏	-9549
▁笠	-9550
▁粤	-9551
▁糟	-9552
▁绵	-9553
▁缁	-9554
▁舷	-9555
▁芯	-9556
▁虎	-9557
▁蝗	-9558
▁誓	-9559
▁讽	-9560
▁赃	-9561
▁酷	-9562
▁阎	-9563
▁魅	-9564
▁龚	-9565
万余	-9566
三百	-9567
不安	-9568
不息	-9569
人意	-9570
冶坪	-9571
各样	-9572
地道	-9573
大叔	-9574
家华	-9575
批评	-9576
斌华	-9577
时机	-9578
校长	-9579
沪祥	-9580
洛哥	-9581
浦路	-9582
点一	-9583
热情	-9584
纳尔	-9585
而走	-9586
至立	-9587
见血	-9588
言之	-9589
风气	-9590
.6%	-9591
▁一八	-9592
▁一厢	-9593
▁一针	-9594
▁下个	-9595
▁下周	-9596
▁不及	-9597
▁不尽	-9598
▁不已	-9599
▁临近	-9600
▁二者	-9601
▁人性	-9602
▁从政	-9603
▁会费	-9604
▁伤员	-9605
▁作好	-9606
▁信守	-9607
▁修养	-9608
▁值班	-9609
▁做起	-9610
▁全程	-9611
▁共建	-9612
▁再创	-9613
▁冻结	-9614
▁几位	-9615
▁击落	-9616
▁分管	-9617
▁刚才	-9618
▁到头	-9619
▁前人	-9620
▁力求	-9621
▁包袱	-9622
▁博尔	-9623
▁卡特	-9624
▁县委	-9625
▁参众	-9626
▁取信	-9627
▁叫嚣	-9628
▁同心	-9629
▁同类	-9630
▁后备	-9631
▁后期	-9632
▁后面	-9633
▁听说	-9634
▁品牌	-9635
▁商场	-9636
▁围攻	-9637
▁国库	-9638
▁地带	-9639
▁埋头	-9640
▁堕落	-9641
▁外地	-9642
▁大海	-9643
▁大纲	-9644
▁天气	-9645
▁完备	-9646
▁定论	-9647
▁审视	-9648
▁宣读	-9649
▁家中	-9650
▁山姆	-9651
▁崇拜	-9652
▁师父	-9653
▁建言	-9654
▁开会	-9655
▁弟子	-9656
▁张志	-9657
▁归属	-9658
▁当政	-9659
▁德拉	-9660
▁必需	-9661
▁成才	-9662
▁战火	-9663
▁截止	-9664
▁手机	-9665
▁手里	-9666
▁抢占	-9667
▁抢险	-9668
▁抵京	-9669
▁摸索	-9670
▁收集	-9671
▁攻克	-9672
▁放眼	-9673
▁效力	-9674
▁於此	-9675
▁无力	-9676
▁无非	-9677
▁旺盛	-9678
▁昌都	-9679
▁昭示	-9680
▁有无	-9681
▁本色	-9682
▁李荣	-9683
▁来宾	-9684
▁来往	-9685
▁柏林	-9686
▁查清	-9687
▁检测	-9688
▁欢庆	-9689
▁正气	-9690
▁残忍	-9691
▁残酷	-9692
▁汽油	-9693
▁泡沫	-9694
▁洋溢	-9695
▁消防	-9696
▁湄洲	-9697
▁热线	-9698
▁燃料	-9699
▁王后	-9700
▁申报	-9701
▁科目	-9702
▁稳固	-9703
▁穆斯	-9704
▁突飞	-9705
▁端倪	-9706
▁精英	-9707
▁纳税	-9708
▁结婚	-9709
▁罗豪	-9710
▁胸怀	-9711
▁脚踏	-9712
▁脱贫	-9713
▁臭名	-9714
▁花费	-9715
▁街头	-9716
▁警觉	-9717
▁讽刺	-9718
▁课堂	-9719
▁财团	-9720
▁走访	-9721
▁跟上	-9722
▁连年	-9723
▁迫降	-9724
▁选出	-9725
▁道义	-9726
▁那天	-9727
▁配偶	-9728
▁重演	-9729
▁鉴于	-9730
▁闯入	-9731
▁陈果	-9732
▁降到	-9733
▁领馆	-9734
▁频道	-9735
▁鼓动	-9736
地道道	-9737
巴诺夫	-9738
浦路斯	-9739
航空兵	-9740
▁160	-9741
▁60%	-9742
▁一句话	-9743
▁东西部	-9744
▁佩雷斯	-9745
▁使用权	-9746
▁冯沪祥	-9747
▁副校长	-9748
▁原子弹	-9749
▁周光召	-9750
▁培训班	-9751
▁外国人	-9752
▁尹鸿祝	-9753
▁彼此的	-9754
▁指挥所	-9755
▁按规定	-9756
▁摩洛哥	-9757
▁数据库	-9758
▁方法论	-9759
▁毁灭性	-9760
▁牺牲品	-9761
▁王冶坪	-9762
▁看不到	-9763
▁科学化	-9764
▁站起来	-9765
▁统计局	-9766
▁训练场	-9767
▁该计划	-9768
▁运动员	-9769
▁邹家华	-9770
▁陆战队	-9771
▁陈斌华	-9772
▁陈至立	-9773
▁一厢情愿	-9774
▁一百四十	-9775
▁一针见血	-9776
▁不失时机	-9777
▁人民战争	-9778
▁保护主义	-9779
▁参众两院	-9780
▁地地道道	-9781
▁塞浦路斯	-9782
▁少年儿童	-9783
▁山姆大叔	-9784
▁德拉鲁阿	-9785
▁穆沙拉夫	-9786
▁突飞猛进	-9787
▁职业道德	-9788
▁远程导弹	-9789
▁一九七二年	-9790
▁一九九四年	-9791
▁佛罗里达州	-9792
▁海军航空兵	-9793
▁百分之七十	-9794
▁百分之五十	-9795
:0	-9796
it	-9797
▁伎	-9798
▁奢	-9799
▁崩	-9800
▁怒	-9801
▁拯	-9802
▁撕	-9803
▁桌	-9804
▁殉	-9805
▁汛	-9806
▁漂	-9807
▁畔	-9808
▁盐	-9809
▁睡	-9810
▁磁	-9811
▁祈	-9812
▁窝	-9813
▁薛	-9814
▁虐	-9815
▁谘	-9816
▁辨	-9817
▁鳌	-9818
一番	-9819
上加	-9820
不明	-9821
与共	-9822
亚湾	-9823
以赴	-9824
佐夫	-9825
作用	-9826
六亿	-9827
口声	-9828
名制	-9829
回事	-9830
在于	-9831
在必	-9832
处分	-9833
大强	-9834
子孙	-9835
实地	-9836
小撮	-9837
尼特	-9838
建国	-9839
总理	-9840
把手	-9841
政协	-9842
教训	-9843
方设	-9844
楚瑜	-9845
环节	-9846
而喻	-9847
萨斯	-9848
贝基	-9849
财富	-9850
▁99	-9851
▁一路	-9852
▁丈夫	-9853
▁不堪	-9854
▁不言	-9855
▁丝绸	-9856
▁两点	-9857
▁中意	-9858
▁中立	-9859
▁主角	-9860
▁乘势	-9861
▁九日	-9862
▁二成	-9863
▁亮相	-9864
▁人格	-9865
▁人马	-9866
▁代号	-9867
▁任免	-9868
▁任内	-9869
▁低于	-9870
▁使节	-9871
▁光盘	-9872
▁克雷	-9873
▁兑现	-9874
▁党外	-9875
▁再三	-9876
▁军乐	-9877
▁冶金	-9878
▁几千	-9879
▁几百	-9880
▁凯利	-9881
▁刘京	-9882
▁刘华	-9883
▁刘思	-9884
▁制假	-9885
▁加州	-9886
▁务求	-9887
▁勤劳	-9888
▁包庇	-9889
▁区分	-9890
▁卖给	-9891
▁博览	-9892
▁即可	-9893
▁厂务	-9894
▁厂商	-9895
▁厚望	-9896
▁吴官	-9897
▁周文	-9898
▁命名	-9899
▁喜庆	-9900
▁在外	-9901
▁基德	-9902
▁大政	-9903
▁女性	-9904
▁好象	-9905
▁子弹	-9906
▁完毕	-9907
▁小国	-9908
▁已就	-9909
▁常识	-9910
▁开办	-9911
▁弹性	-9912
▁归宿	-9913
▁录象	-9914
▁征程	-9915
▁想起	-9916
▁戒备	-9917
▁战败	-9918
▁房屋	-9919
▁房间	-9920
▁抢修	-9921
▁抵抗	-9922
▁拒腐	-9923
▁招聘	-9924
▁拿到	-9925
▁探亲	-9926
▁提及	-9927
▁摆上	-9928
▁摩尔	-9929
▁摩托	-9930
▁无异	-9931
▁时而	-9932
▁景气	-9933
▁李亚	-9934
▁李家	-9935
▁杜绝	-9936
▁枪杀	-9937
▁查找	-9938
▁欢乐	-9939
▁欢呼	-9940
▁武拒	-9941
▁歪风	-9942
▁毋庸	-9943
▁民生	-9944
▁水扁	-9945
▁注视	-9946
▁淮河	-9947
▁深层	-9948
▁深知	-9949
▁澎湖	-9950
▁灌溉	-9951
▁犯下	-9952
▁瓶颈	-9953
▁生前	-9954
▁田中	-9955
▁男女	-9956
▁留在	-9957
▁破除	-9958
▁种子	-9959
▁稍有	-9960
▁立党	-9961
▁精度	-9962
▁纯一	-9963
▁组合	-9964
▁编者	-9965
▁职守	-9966
▁联组	-9967
▁聚焦	-9968
▁肆无	-9969
▁腾飞	-9970
▁自居	-9971
▁获准	-9972
▁蒙骗	-9973
▁裁决	-9974
▁要不	-9975
▁讲学	-9976
▁设法	-9977
▁谋略	-9978
▁谣言	-9979
▁败坏	-9980
▁贺冲	-9981
▁超前	-9982
▁路涛	-9983
▁辞退	-9984
▁近似	-9985
▁进香	-9986
▁远离	-9987
▁连接	-9988
▁遣返	-9989
▁重型	-9990
▁门前	-9991
▁间断	-9992
▁难怪	-9993
▁韩中	-9994
▁顾及	-9995
▁题目	-9996
▁骗汇	-9997
▁高空	-9998
▁黑手	-9999
口声声	-10000
在必行	-10001
所欲言	-10002
方设法	-10003
群关系	-10004
2000	-10005
▁700	-10006
▁一小撮	-10007
▁一把手	-10008
▁一时间	-10009
▁不一样	-10010
▁不信任	-10011
▁二十二	-10012
▁二十五	-10013
▁企业法	-10014
▁做工作	-10015
▁公开信	-10016
▁到头来	-10017
▁匈牙利	-10018
▁大亚湾	-10019
▁姆贝基	-10020
▁宋楚瑜	-10021
▁实名制	-10022
▁就在于	-10023
▁平方米	-10024
▁护卫舰	-10025
▁新材料	-10026
▁殖民地	-10027
▁没有了	-10028
▁纪念碑	-10029
▁组织上	-10030
▁组织者	-10031
▁经营性	-10032
▁翻一番	-10033
▁艰巨性	-10034
▁设计师	-10035
▁负增长	-10036
列巴诺夫	-10037
▁1950	-10038
▁1980	-10039
▁1986	-10040
▁下落不明	-10041
▁不言而喻	-10042
▁人民政协	-10043
▁全力以赴	-10044
▁势在必行	-10045
▁口口声声	-10046
▁吸取教训	-10047
▁四分之一	-10048
▁必要条件	-10049
▁想方设法	-10050
▁教条主义	-10051
▁生产资料	-10052
▁畅所欲言	-10053
▁百分之三	-10054
▁组织形式	-10055
▁经济制度	-10056
▁联系群众	-10057
▁肆无忌惮	-10058
▁脚踏实地	-10059
▁计算机网	-10060
▁骨干分子	-10061
44	-10062
56	-10063
ar	-10064
to	-10065
▁H	-10066
▁u	-10067
▁伏	-10068
▁倚	-10069
▁兆	-10070
▁央	-10071
▁孕	-10072
▁崔	-10073
▁幽	-10074
▁徇	-10075
▁拐	-10076
▁晴	-10077
▁枣	-10078
▁梯	-10079
▁殿	-10080
▁渲	-10081
▁狼	-10082
▁秒	-10083
▁绘	-10084
▁脉	-10085
▁芝	-10086
▁蛮	-10087
▁袋	-10088
▁辱	-10089
▁逗	-10090
▁邵	-10091
▁铤	-10092
▁陌	-10093
▁饲	-10094
一百	-10095
不多	-10096
不讳	-10097
亚衍	-10098
全国	-10099
制裁	-10100
勤部	-10101
变幻	-10102
基亚	-10103
年度	-10104
彼伏	-10105
效率	-10106
斗争	-10107
无前	-10108
旭东	-10109
昭著	-10110
权谋	-10111
相对	-10112
置疑	-10113
补短	-10114
镕基	-10115
鸦片	-10116
.3%	-10117
age	-10118
ing	-10119
▁57	-10120
▁69	-10121
▁96	-10122
▁一亿	-10123
▁一类	-10124
▁上游	-10125
▁不无	-10126
▁不相	-10127
▁不致	-10128
▁专栏	-10129
▁买卖	-10130
▁五万	-10131
▁仅有	-10132
▁代末	-10133
▁伎俩	-10134
▁会前	-10135
▁伟业	-10136
▁位于	-10137
▁低空	-10138
▁低调	-10139
▁何处	-10140
▁侦破	-10141
▁侧面	-10142
▁侵占	-10143
▁先是	-10144
▁兼顾	-10145
▁写下	-10146
▁冲破	-10147
▁减产	-10148
▁出击	-10149
▁出资	-10150
▁分部	-10151
▁利于	-10152
▁剧变	-10153
▁动乱	-10154
▁包容	-10155
▁北大	-10156
▁南昌	-10157
▁南美	-10158
▁压迫	-10159
▁友协	-10160
▁反之	-10161
▁反面	-10162
▁古代	-10163
▁只见	-10164
▁可耻	-10165
▁右倾	-10166
▁各行	-10167
▁名为	-10168
▁商讨	-10169
▁四个	-10170
▁四点	-10171
▁回旋	-10172
▁回首	-10173
▁壮丽	-10174
▁复合	-10175
▁外军	-10176
▁外迁	-10177
▁大体	-10178
▁天天	-10179
▁妈妈	-10180
▁姓名	-10181
▁宋健	-10182
▁实业	-10183
▁审慎	-10184
▁寄托	-10185
▁富民	-10186
▁对应	-10187
▁导演	-10188
▁小区	-10189
▁布拉	-10190
▁延安	-10191
▁开来	-10192
▁张国	-10193
▁当成	-10194
▁当晚	-10195
▁很小	-10196
▁徒劳	-10197
▁必胜	-10198
▁恰当	-10199
▁惟一	-10200
▁感动	-10201
▁感触	-10202
▁抗击	-10203
▁抗洪	-10204
▁报酬	-10205
▁担当	-10206
▁拉脱	-10207
▁招魂	-10208
▁指向	-10209
▁捏造	-10210
▁接任	-10211
▁掩饰	-10212
▁播出	-10213
▁播放	-10214
▁收复	-10215
▁放到	-10216
▁敌机	-10217
▁文部	-10218
▁文革	-10219
▁无形	-10220
▁旱灾	-10221
▁晋升	-10222
▁更换	-10223
▁曾於	-10224
▁本岛	-10225
▁本职	-10226
▁核威	-10227
▁根基	-10228
▁案发	-10229
▁模型	-10230
▁欺凌	-10231
▁此起	-10232
▁求是	-10233
▁治病	-10234
▁沿着	-10235
▁洛克	-10236
▁测控	-10237
▁清单	-10238
▁渲染	-10239
▁滚滚	-10240
▁灭绝	-10241
▁理应	-10242
▁疲软	-10243
▁白人	-10244
▁目录	-10245
▁眼里	-10246
▁矿区	-10247
▁私下	-10248
▁等同	-10249
▁等级	-10250
▁签名	-10251
▁线路	-10252
▁美欧	-10253
▁老板	-10254
▁联谊	-10255
▁自立	-10256
▁苏志	-10257
▁草原	-10258
▁获奖	-10259
▁蕴藏	-10260
▁表率	-10261
▁观摩	-10262
▁规格	-10263
▁证书	-10264
▁调处	-10265
▁财长	-10266
▁购销	-10267
▁资政	-10268
▁赤裸	-10269
▁走火	-10270
▁身心	-10271
▁退役	-10272
▁针锋	-10273
▁铺路	-10274
▁阅兵	-10275
▁防洪	-10276
▁预报	-10277
▁领海	-10278
▁风格	-10279
▁风浪	-10280
▁驻京	-10281
▁驻外	-10282
▁魅力	-10283
权谋私	-10284
而易见	-10285
而走险	-10286
长补短	-10287
▁严重性	-10288
▁五月十	-10289
▁保护价	-10290
▁储备粮	-10291
▁全天候	-10292
▁八一七	-10293
▁农牧民	-10294
▁出版物	-10295
▁十三日	-10296
▁协议书	-10297
▁召集人	-10298
▁地区性	-10299
▁坚定性	-10300
▁广交会	-10301
▁建设者	-10302
▁怎样的	-10303
▁总司令	-10304
▁承担起	-10305
▁文化部	-10306
▁新德里	-10307
▁时俱进	-10308
▁朱亚衍	-10309
▁朱镕基	-10310
▁李家泉	-10311
▁李系政	-10312
▁武拒统	-10313
▁毛主席	-10314
▁特尼特	-10315
▁王光英	-10316
▁生存权	-10317
▁生活费	-10318
▁着眼于	-10319
▁第十七	-10320
▁纳扎尔	-10321
▁联合报	-10322
▁艺术家	-10323
▁郭伯雄	-10324
▁高峰会	-10325
三十一日	-10326
-2000	-10327
▁6000	-10328
▁中小学生	-10329
▁以权谋私	-10330
▁团结一致	-10331
▁工作效率	-10332
▁总后勤部	-10333
▁拉脱维亚	-10334
▁文化教育	-10335
▁显而易见	-10336
▁此起彼伏	-10337
▁民族文化	-10338
▁炎黄子孙	-10339
▁社会保险	-10340
▁社会风气	-10341
▁第二十三	-10342
▁职业教育	-10343
▁臭名昭著	-10344
▁针锋相对	-10345
▁铤而走险	-10346
▁风云变幻	-10347
▁一九九零年	-10348
▁克列巴诺夫	-10349
▁居民委员会	-10350
▁新西伯利亚	-10351
▁计算机网络	-10352
▁历史唯物主义	-10353
▁纳扎尔巴耶夫	-10354
el	-10355
iv	-10356
me	-10357
ww	-10358
▁侮	-10359
▁俗	-10360
▁倪	-10361
▁卑	-10362
▁吞	-10363
▁坑	-10364
▁尔	-10365
▁币	-10366
▁挨	-10367
▁昼	-10368
▁晤	-10369
▁晶	-10370
▁桂	-10371
▁歹	-10372
▁湘	-10373
▁灰	-10374
▁盯	-10375
▁瞻	-10376
▁砍	-10377
▁耻	-10378
▁苍	-10379
▁葬	-10380
▁衍	-10381
▁诬	-10382
▁豁	-10383
▁豆	-10384
▁雇	-10385
▁靶	-10386
▁骚	-10387
一层	-10388
一段	-10389
七百	-10390
万通	-10391
丽兰	-10392
亚夫	-10393
人才	-10394
全景	-10395
凤超	-10396
利避	-10397
威夷	-10398
密鼓	-10399
封建	-10400
思远	-10401
成果	-10402
手段	-10403
教养	-10404
景气	-10405
更张	-10406
杠杆	-10407
沙尔	-10408
秉国	-10409
立业	-10410
罗迪	-10411
观念	-10412
视听	-10413
逼人	-10414
邮件	-10415
防变	-10416
集体	-10417
鲜明	-10418
.4%	-10419
hin	-10420
ion	-10421
▁6%	-10422
▁66	-10423
▁74	-10424
▁IT	-10425
▁SS	-10426
▁一新	-10427
▁一经	-10428
▁万岁	-10429
▁上去	-10430
▁不乏	-10431
▁不小	-10432
▁不用	-10433
▁专职	-10434
▁严防	-10435
▁中队	-10436
▁乔治	-10437
▁事例	-10438
▁互通	-10439
▁从重	-10440
▁任人	-10441
▁任意	-10442
▁例证	-10443
▁倘若	-10444
▁做过	-10445
▁傲慢	-10446
▁党章	-10447
▁共存	-10448
▁兴办	-10449
▁冒险	-10450
▁军情	-10451
▁几经	-10452
▁分局	-10453
▁分社	-10454
▁刘淇	-10455
▁创始	-10456
▁初级	-10457
▁勘探	-10458
▁勤俭	-10459
▁半数	-10460
▁去世	-10461
▁合一	-10462
▁名称	-10463
▁唯物	-10464
▁唾弃	-10465
▁喜悦	-10466
▁堡垒	-10467
▁塑造	-10468
▁多方	-10469
▁大军	-10470
▁大步	-10471
▁大阪	-10472
▁失衡	-10473
▁奥姆	-10474
▁好好	-10475
▁威信	-10476
▁威望	-10477
▁宋德	-10478
▁官邸	-10479
▁定罪	-10480
▁宣誓	-10481
▁将近	-10482
▁小姐	-10483
▁局限	-10484
▁屡屡	-10485
▁山川	-10486
▁巡视	-10487
▁当好	-10488
▁感召	-10489
▁打折	-10490
▁打着	-10491
▁扫黄	-10492
▁投产	-10493
▁拉夫	-10494
▁拉米	-10495
▁拘捕	-10496
▁招商	-10497
▁招待	-10498
▁拯救	-10499
▁排名	-10500
▁政纪	-10501
▁故事	-10502
▁数年	-10503
▁新建	-10504
▁昼夜	-10505
▁更上	-10506
▁曾任	-10507
▁期刊	-10508
▁未完	-10509
▁李德	-10510
▁松懈	-10511
▁极右	-10512
▁极度	-10513
▁查出	-10514
▁案例	-10515
▁水质	-10516
▁江河	-10517
▁法理	-10518
▁波澜	-10519
▁清正	-10520
▁清洁	-10521
▁渐进	-10522
▁滑坡	-10523
▁澳洲	-10524
▁炒作	-10525
▁热切	-10526
▁特意	-10527
▁王志	-10528
▁王进	-10529
▁现时	-10530
▁珍贵	-10531
▁用途	-10532
▁直播	-10533
▁空战	-10534
▁立于	-10535
▁立刻	-10536
▁筹措	-10537
▁签定	-10538
▁简短	-10539
▁紧锣	-10540
▁经典	-10541
▁经办	-10542
▁结晶	-10543
▁统揽	-10544
▁编组	-10545
▁联署	-10546
▁自发	-10547
▁良机	-10548
▁芯片	-10549
▁萨尔	-10550
▁蒙蔽	-10551
▁蓝天	-10552
▁见证	-10553
▁识别	-10554
▁责令	-10555
▁轨迹	-10556
▁转入	-10557
▁轮替	-10558
▁输出	-10559
▁辩解	-10560
▁边疆	-10561
▁送行	-10562
▁逃避	-10563
▁造林	-10564
▁邮电	-10565
▁都市	-10566
▁醒悟	-10567
▁锐意	-10568
▁镇压	-10569
▁长沙	-10570
▁陈旧	-10571
▁陌生	-10572
▁限定	-10573
▁雷鸣	-10574
▁震荡	-10575
▁颇有	-10576
▁驳斥	-10577
▁骗人	-10578
▁魏茨	-10579
▁鱼雷	-10580
一体化	-10581
一层楼	-10582
一段落	-10583
不可少	-10584
不来提	-10585
利避害	-10586
十年代	-10587
尔布鲁	-10588
风雨雨	-10589
▁15%	-10590
▁ABM	-10591
▁万国权	-10592
▁下一代	-10593
▁下降到	-10594
▁不安全	-10595
▁不断的	-10596
▁不景气	-10597
▁主席台	-10598
▁主席国	-10599
▁事务性	-10600
▁交易所	-10601
▁信用证	-10602
▁决策者	-10603
▁半封建	-10604
▁受害人	-10605
▁增加值	-10606
▁夏威夷	-10607
▁外务省	-10608
▁孙中山	-10609
▁孙亚夫	-10610
▁工程师	-10611
▁巴沙尔	-10612
▁引进来	-10613
▁张全景	-10614
▁恩格斯	-10615
▁戴秉国	-10616
▁投资额	-10617
▁支持者	-10618
▁普罗迪	-10619
▁最高级	-10620
▁朱丽兰	-10621
▁李亚飞	-10622
▁王凤超	-10623
▁相对的	-10624
▁第十九	-10625
▁纪念馆	-10626
▁缔约国	-10627
▁著作权	-10628
▁赤裸裸	-10629
▁运输机	-10630
▁郑万通	-10631
▁金融界	-10632
▁1988	-10633
▁先进集体	-10634
▁全党全国	-10635
▁军事科学	-10636
▁劳动教养	-10637
▁取长补短	-10638
▁告一段落	-10639
▁大政方针	-10640
▁始终如一	-10641
▁形式多样	-10642
▁必不可少	-10643
▁思想准备	-10644
▁恐怖活动	-10645
▁拒腐防变	-10646
▁改弦更张	-10647
▁旗帜鲜明	-10648
▁民主改革	-10649
▁法制观念	-10650
▁环境污染	-10651
▁电子邮件	-10652
▁种族歧视	-10653
▁第二十六	-10654
▁紧锣密鼓	-10655
▁经济制裁	-10656
▁绝大部分	-10657
▁薄弱环节	-10658
▁趋利避害	-10659
▁阶级斗争	-10660
▁阿不来提	-10661
▁风风雨雨	-10662
▁更上一层楼	-10663
▁经济一体化	-10664
▁奥林匹克运动	-10665
HZ	-10666
NN	-10667
ic	-10668
um	-10669
▁━	-10670
▁侥	-10671
▁劫	-10672
▁啦	-10673
▁孔	-10674
▁峰	-10675
▁惹	-10676
▁朴	-10677
▁楷	-10678
▁歧	-10679
▁泪	-10680
▁炼	-10681
▁童	-10682
▁绞	-10683
▁詹	-10684
▁诡	-10685
▁铭	-10686
▁锦	-10687
▁颐	-10688
▁鸡	-10689
不穷	-10690
专政	-10691
乐部	-10692
九百	-10693
价还	-10694
作假	-10695
八百	-10696
历山	-10697
可为	-10698
因素	-10699
国法	-10700
富强	-10701
察院	-10702
形色	-10703
得起	-10704
德孟	-10705
愈烈	-10706
所长	-10707
执照	-10708
报表	-10709
日子	-10710
滋病	-10711
点四	-10712
特弗	-10713
献策	-10714
群岛	-10715
联体	-10716
荣凯	-10717
蒂固	-10718
蒂尔	-10719
议政	-10720
韦斯	-10721
马拉	-10722
▁4%	-10723
▁51	-10724
▁72	-10725
▁下面	-10726
▁不停	-10727
▁不屈	-10728
▁不择	-10729
▁不起	-10730
▁东莞	-10731
▁从小	-10732
▁佳节	-10733
▁供奉	-10734
▁侥幸	-10735
▁假币	-10736
▁僵化	-10737
▁免费	-10738
▁内心	-10739
▁减缓	-10740
▁几名	-10741
▁几项	-10742
▁出兵	-10743
▁出自	-10744
▁分支	-10745
▁判刑	-10746
▁利弊	-10747
▁制胜	-10748
▁劝说	-10749
▁助手	-10750
▁劳模	-10751
▁勘查	-10752
▁勤奋	-10753
▁南沙	-10754
▁县市	-10755
▁及早	-10756
▁反抗	-10757
▁受骗	-10758
▁各条	-10759
▁同党	-10760
▁吴基	-10761
▁周永	-10762
▁固体	-10763
▁国别	-10764
▁在职	-10765
▁地对	-10766
▁坠毁	-10767
▁士官	-10768
▁夏季	-10769
▁大江	-10770
▁大潮	-10771
▁存有	-10772
▁实物	-10773
▁对岸	-10774
▁尼亚	-10775
▁层出	-10776
▁干线	-10777
▁年年	-10778
▁广为	-10779
▁建功	-10780
▁开好	-10781
▁弄虚	-10782
▁强奸	-10783
▁当即	-10784
▁当权	-10785
▁往年	-10786
▁得票	-10787
▁总政	-10788
▁愈演	-10789
▁成品	-10790
▁战果	-10791
▁扣留	-10792
▁投机	-10793
▁抚养	-10794
▁抢滩	-10795
▁抵触	-10796
▁指望	-10797
▁挑拨	-10798
▁捣乱	-10799
▁揭发	-10800
▁救治	-10801
▁斗志	-10802
▁新意	-10803
▁新纪	-10804
▁无端	-10805
▁早期	-10806
▁明朗	-10807
▁显露	-10808
▁曹志	-10809
▁曼谷	-10810
▁有幸	-10811
▁有法	-10812
▁期满	-10813
▁李万	-10814
▁条文	-10815
▁标语	-10816
▁核能	-10817
▁楷模	-10818
▁欣喜	-10819
▁歌舞	-10820
▁死者	-10821
▁	-10822
,	-10823
的	-10824
.	-10825
国	-10826
"	-10827
中	-10828
一	-10829
和	-10830
是	-10831
在	-10832
人	-10833
会	-10834
有	-10835
了	-10836
大	-10837
不	-10838
发	-10839
要	-10840
对	-10841
民	-10842
作	-10843
为	-10844
政	-10845
关	-10846
进	-10847
经	-10848
年	-10849
美	-10850
展	-10851
这	-10852
行	-10853
主	-10854
出	-10855
上	-10856
新	-10857
方	-10858
部	-10859
地	-10860
以	-10861
实	-10862
重	-10863
法	-10864
日	-10865
全	-10866
力	-10867
来	-10868
成	-10869
家	-10870
台	-10871
我	-10872
两	-10873
业	-10874
加	-10875
个	-10876
系	-10877
合	-10878
问	-10879
军	-10880
同	-10881
到	-10882
表	-10883
们	-10884
与	-10885
他	-10886
事	-10887
时	-10888
社	-10889
工	-10890
建	-10891
定	-10892
1	-10893
说	-10894
党	-10895
战	-10896
现	-10897
0	-10898
本	-10899
理	-10900
开	-10901
济	-10902
题	-10903
能	-10904
制	-10905
长	-10906
分	-10907
强	-10908
化	-10909
高	-10910
动	-10911
就	-10912
机	-10913
面	-10914
前	-10915
生	-10916
将	-10917
导	-10918
外	-10919
世	-10920
代	-10921
员	-10922
多	-10923
也	-10924
十	-10925
好	-10926
利	-10927
领	-10928
统	-10929
各	-10930
湾	-10931
后	-10932
议	-10933
基	-10934
自	-10935
共	-10936
之	-10937
三	-10938
提	-10939
总	-10940
用	-10941
持	-10942
设	-10943
平	-10944
务	-10945
产	-10946
度	-10947
月	-10948
当	-10949
下	-10950
其	-10951
得	-10952
立	-10953
正	-10954
过	-10955
2	-10956
义	-10957
者	-10958
改	-10959
於	-10960
华	-10961
可	-10962
而	-10963
区	-10964
体	-10965
意	-10966
治	-10967
市	-10968
任	-10969
府	-10970
教	-10971
学	-10972
内	-10973
此	-10974
等	-10975
委	-10976
明	-10977
决	-10978
交	-10979
场	-10980
际	-10981
今	-10982
入	-10983
保	-10984
公	-10985
9	-10986
所	-10987
资	-10988
向	-10989
界	-10990
权	-10991
解	-10992
应	-10993
认	-10994
都	-10995
并	-10996
组	-10997
天	-10998
性	-10999
还	-11000
已	-11001
海	-11002
示	-11003
次	-11004
目	-11005
间	-11006
心	-11007
指	-11008
从	-11009
步	-11010
二	-11011
信	-11012
势	-11013
调	-11014
科	-11015
取	-11016
最	-11017
安	-11018
相	-11019
:	-11020
期	-11021
特	-11022
反	-11023
结	-11024
西	-11025
通	-11026
记	-11027
技	-11028
北	-11029
局	-11030
使	-11031
文	-11032
争	-11033
论	-11034
些	-11035
及	-11036
第	-11037
报	-11038
更	-11039
增	-11040
求	-11041
电	-11042
企	-11043
但	-11044
联	-11045
思	-11046
如	-11047
种	-11048
江	-11049
京	-11050
访	-11051
革	-11052
想	-11053
李	-11054
)	-11055
(	-11056
情	-11057
必	-11058
起	-11059
防	-11060
达	-11061
因	-11062
五	-11063
点	-11064
策	-11065
贸	-11066
放	-11067
农	-11068
席	-11069
件	-11070
规	-11071
队	-11072
坚	-11073
水	-11074
干	-11075
然	-11076
极	-11077
程	-11078
布	-11079
道	-11080
活	-11081
原	-11082
斯	-11083
谈	-11084
院	-11085
推	-11086
5	-11087
由	-11088
克	-11089
金	-11090
织	-11091
3	-11092
深	-11093
则	-11094
把	-11095
去	-11096
施	-11097
形	-11098
计	-11099
位	-11100
管	-11101
门	-11102
双	-11103
亚	-11104
纪	-11105
受	-11106
广	-11107
九	-11108
支	-11109
历	-11110
于	-11111
益	-11112
确	-11113
常	-11114
处	-11115
团	-11116
岸	-11117
小	-11118
无	-11119
见	-11120
先	-11121
果	-11122
东	-11123
整	-11124
功	-11125
量	-11126
话	-11127
举	-11128
术	-11129
参	-11130
式	-11131
协	-11132
首	-11133
略	-11134
近	-11135
友	-11136
造	-11137
央	-11138
泽	-11139
严	-11140
著	-11141
接	-11142
四	-11143
护	-11144
变	-11145
什	-11146
众	-11147
完	-11148
史	-11149
育	-11150
别	-11151
识	-11152
没	-11153
续	-11154
看	-11155
做	-11156
4	-11157
8	-11158
南	-11159
空	-11160
案	-11161
备	-11162
《	-11163
》	-11164
切	-11165
级	-11166
根	-11167
非	-11168
稳	-11169
研	-11170
条	-11171
何	-11172
项	-11173
质	-11174
志	-11175
望	-11176
俄	-11177
责	-11178
据	-11179
标	-11180
积	-11181
6	-11182
只	-11183
选	-11184
才	-11185
构	-11186
7	-11187
至	-11188
办	-11189
子	-11190
商	-11191
视	-11192
很	-11193
流	-11194
创	-11195
讲	-11196
口	-11197
断	-11198
约	-11199
港	-11200
族	-11201
元	-11202
比	-11203
样	-11204
具	-11205
观	-11206
真	-11207
-	-11208
言	-11209
弹	-11210
投	-11211
需	-11212
打	-11213
数	-11214
快	-11215
万	-11216
拉	-11217
须	-11218
独	-11219
书	-11220
百	-11221
武	-11222
划	-11223
副	-11224
神	-11225
效	-11226
善	-11227
维	-11228
继	-11229
里	-11230
易	-11231
未	-11232
况	-11233
精	-11234
张	-11235
础	-11236
域	-11237
互	-11238
官	-11239
转	-11240
传	-11241
少	-11242
难	-11243
群	-11244
专	-11245
查	-11246
尔	-11247
感	-11248
省	-11249
朝	-11250
直	-11251
回	-11252
息	-11253
路	-11254
陆	-11255
准	-11256
境	-11257
给	-11258
集	-11259
证	-11260
努	-11261
希	-11262
越	-11263
轮	-11264
收	-11265
律	-11266
习	-11267
被	-11268
斗	-11269
促	-11270
究	-11271
又	-11272
司	-11273
再	-11274
影	-11275
运	-11276
手	-11277
环	-11278
品	-11279
该	-11280
?	-11281
始	-11282
职	-11283
察	-11284
响	-11285
命	-11286
负	-11287
采	-11288
八	-11289
源	-11290
许	-11291
态	-11292
飞	-11293
己	-11294
马	-11295
依	-11296
罗	-11297
落	-11298
洲	-11299
香	-11300
引	-11301
朱	-11302
走	-11303
;	-11304
边	-11305
知	-11306
突	-11307
充	-11308
巴	-11309
德	-11310
挥	-11311
士	-11312
优	-11313
器	-11314
致	-11315
击	-11316
往	-11317
监	-11318
清	-11319
王	-11320
网	-11321
存	-11322
核	-11323
段	-11324
层	-11325
亿	-11326
容	-11327
告	-11328
执	-11329
远	-11330
兵	-11331
承	-11332
仅	-11333
验	-11334
愿	-11335
紧	-11336
带	-11337
林	-11338
名	-11339
格	-11340
头	-11341
着	-11342
球	-11343
抓	-11344
六	-11345
显	-11346
复	-11347
演	-11348
注	-11349
七	-11350
单	-11351
宣	-11352
风	-11353
装	-11354
练	-11355
批	-11356
服	-11357
欧	-11358
财	-11359
身	-11360
判	-11361
祖	-11362
或	-11363
列	-11364
扩	-11365
预	-11366
陈	-11367
普	-11368
太	-11369
价	-11370
供	-11371
威	-11372
速	-11373
几	-11374
城	-11375
竞	-11376
障	-11377
费	-11378
藏	-11379
即	-11380
它	-11381
助	-11382
那	-11383
署	-11384
土	-11385
包	-11386
终	-11387
失	-11388
消	-11389
破	-11390
范	-11391
害	-11392
较	-11393
待	-11394
村	-11395
鲜	-11396
周	-11397
考	-11398
审	-11399
良	-11400
贯	-11401
型	-11402
烈	-11403
盟	-11404
曾	-11405
印	-11406
气	-11407
岛	-11408
素	-11409
%	-11410
物	-11411
满	-11412
称	-11413
犯	-11414
类	-11415
评	-11416
兴	-11417
色	-11418
顿	-11419
尽	-11420
检	-11421
照	-11422
声	-11423
措	-11424
密	-11425
千	-11426
仍	-11427
营	-11428
卫	-11429
罪	-11430
阶	-11431
针	-11432
止	-11433
率	-11434
半	-11435
登	-11436
否	-11437
热	-11438
线	-11439
且	-11440
随	-11441
伟	-11442
像	-11443
模	-11444
按	-11445
航	-11446
健	-11447
富	-11448
融	-11449
警	-11450
搞	-11451
老	-11452
除	-11453
邪	-11454
图	-11455
训	-11456
迎	-11457
阿	-11458
督	-11459
请	-11460
光	-11461
绝	-11462
驻	-11463
彻	-11464
败	-11465
鹏	-11466
括	-11467
夫	-11468
危	-11469
予	-11470
闻	-11471
减	-11472
念	-11473
值	-11474
早	-11475
困	-11476
英	-11477
辉	-11478
巨	-11479
税	-11480
连	-11481
零	-11482
涉	-11483
欢	-11484
修	-11485
担	-11486
令	-11487
伊	-11488
述	-11489
韩	-11490
遇	-11491
午	-11492
麽	-11493
践	-11494
亲	-11495
每	-11496
险	-11497
讨	-11498
获	-11499
派	-11500
初	-11501
离	-11502
M	-11503
让	-11504
临	-11505
控	-11506
升	-11507
围	-11508
钱	-11509
宗	-11510
适	-11511
裂	-11512
山	-11513
限	-11514
够	-11515
候	-11516
州	-11517
逐	-11518
既	-11519
火	-11520
字	-11521
车	-11522
培	-11523
足	-11524
配	-11525
冲	-11526
福	-11527
抗	-11528
序	-11529
束	-11530
荣	-11531
低	-11532
节	-11533
挑	-11534
献	-11535
底	-11536
谋	-11537
均	-11538
坦	-11539
试	-11540
章	-11541
康	-11542
算	-11543
御	-11544
石	-11545
白	-11546
久	-11547
占	-11548
T	-11549
星	-11550
刻	-11551
售	-11552
违	-11553
校	-11554
养	-11555
听	-11556
例	-11557
额	-11558
劳	-11559
申	-11560
置	-11561
却	-11562
舰	-11563
永	-11564
固	-11565
幺	-11566
换	-11567
D	-11568
扁	-11569
腐	-11570
键	-11571
N	-11572
邦	-11573
澳	-11574
状	-11575
住	-11576
鎔	-11577
居	-11578
签	-11579
某	-11580
景	-11581
答	-11582
股	-11583
侵	-11584
号	-11585
赖	-11586
趋	-11587
介	-11588
尼	-11589
露	-11590
索	-11591
谢	-11592
超	-11593
胜	-11594
甚	-11595
繁	-11596
胡	-11597
青	-11598
召	-11599
'	-11600
恶	-11601
降	-11602
座	-11603
脑	-11604
靠	-11605
顺	-11606
另	-11607
符	-11608
退	-11609
虽	-11610
损	-11611
奥	-11612
款	-11613
排	-11614
属	-11615
盾	-11616
留	-11617
泛	-11618
差	-11619
攻	-11620
晤	-11621
赞	-11622
谓	-11623
探	-11624
师	-11625
庆	-11626
洪	-11627
私	-11628
诺	-11629
站	-11630
潜	-11631
激	-11632
票	-11633
尊	-11634
死	-11635
银	-11636
你	-11637
媒	-11638
爱	-11639
盛	-11640
祝	-11641
胞	-11642
鼓	-11643
·	-11644
客	-11645
贡	-11646
女	-11647
握	-11648
奋	-11649
顾	-11650
刘	-11651
!	-11652
便	-11653
苏	-11654
敌	-11655
疑	-11656
伙	-11657
坏	-11658
侦	-11659
她	-11660
轻	-11661
透	-11662
络	-11663
综	-11664
古	-11665
币	-11666
油	-11667
毒	-11668
绍	-11669
扬	-11670
谊	-11671
河	-11672
游	-11673
唐	-11674
守	-11675
移	-11676
迫	-11677
脱	-11678
讯	-11679
县	-11680
虑	-11681
云	-11682
压	-11683
射	-11684
诚	-11685
田	-11686
胁	-11687
免	-11688
邀	-11689
峡	-11690
黑	-11691
编	-11692
届	-11693
矛	-11694
汇	-11695
跨	-11696
秀	-11697
纳	-11698
镇	-11699
择	-11700
智	-11701
邻	-11702
O	-11703
招	-11704
料	-11705
析	-11706
洋	-11707
补	-11708
急	-11709
贫	-11710
粮	-11711
草	-11712
借	-11713
班	-11714
兰	-11715
途	-11716
春	-11717
食	-11718
乡	-11719
吴	-11720
冷	-11721
帮	-11722
归	-11723
缺	-11724
端	-11725
角	-11726
份	-11727
刚	-11728
象	-11729
P	-11730
启	-11731
伍	-11732
征	-11733
援	-11734
避	-11735
托	-11736
裁	-11737
抵	-11738
波	-11739
孙	-11740
幕	-11741
救	-11742
暴	-11743
右	-11744
债	-11745
杂	-11746
涛	-11747
纷	-11748
误	-11749
追	-11750
呼	-11751
映	-11752
苦	-11753
伴	-11754
眼	-11755
秩	-11756
背	-11757
购	-11758
W	-11759
停	-11760
铁	-11761
邓	-11762
销	-11763
架	-11764
伤	-11765
吉	-11766
拥	-11767
米	-11768
灾	-11769
庭	-11770
遭	-11771
乱	-11772
撞	-11773
贵	-11774
宝	-11775
船	-11776
乐	-11777
励	-11778
错	-11779
诉	-11780
霸	-11781
版	-11782
缓	-11783
锦	-11784
旅	-11785
短	-11786
触	-11787
e	-11788
故	-11789
潮	-11790
距	-11791
雷	-11792
龙	-11793
红	-11794
艰	-11795
馆	-11796
怀	-11797
衡	-11798
付	-11799
刑	-11800
吸	-11801
禁	-11802
遍	-11803
哈	-11804
赢	-11805
花	-11806
余	-11807
坛	-11808
琛	-11809
绩	-11810
纲	-11811
觉	-11812
医	-11813
室	-11814
宁	-11815
炸	-11816
卡	-11817
萨	-11818
丰	-11819
尚	-11820
弱	-11821
迅	-11822
温	-11823
弃	-11824
沿	-11825
秘	-11826
阻	-11827
拓	-11828
迷	-11829
掌	-11830
乌	-11831
勤	-11832
聚	-11833
毁	-11834
黄	-11835
宏	-11836
仪	-11837
侨	-11838
硬	-11839
昨	-11840
A	-11841
喜	-11842
杰	-11843
树	-11844
测	-11845
幅	-11846
沙	-11847
假	-11848
延	-11849
尤	-11850
玉	-11851
恢	-11852
病	-11853
课	-11854
宪	-11855
货	-11856
晚	-11857
乎	-11858
径	-11859
迟	-11860
似	-11861
库	-11862
野	-11863
送	-11864
杀	-11865
散	-11866
雄	-11867
瑞	-11868
璇	-11869
瓦	-11870
贺	-11871
输	-11872
艇	-11873
买	-11874
语	-11875
户	-11876
塔	-11877
悉	-11878
振	-11879
沉	-11880
旁	-11881
舆	-11882
拒	-11883
简	-11884
亡	-11885
松	-11886
播	-11887
找	-11888
肯	-11889
儿	-11890
姆	-11891
谁	-11892
异	-11893
封	-11894
允	-11895
巩	-11896
毛	-11897
截	-11898
套	-11899
赴	-11900
怎	-11901
妥	-11902
寻	-11903
频	-11904
鲍	-11905
厅	-11906
圆	-11907
拜	-11908
疆	-11909
载	-11910
估	-11911
片	-11912
订	-11913
写	-11914
母	-11915
峰	-11916
摆	-11917
歧	-11918
堂	-11919
舞	-11920
勒	-11921
若	-11922
倒	-11923
恐	-11924
折	-11925
碍	-11926
莫	-11927
剧	-11928
履	-11929
扎	-11930
骗	-11931
兼	-11932
炮	-11933
软	-11934
污	-11935
释	-11936
楚	-11937
殊	-11938
左	-11939
遗	-11940
细	-11941
赵	-11942
典	-11943
唯	-11944
缩	-11945
阳	-11946
C	-11947
伐	-11948
勇	-11949
奉	-11950
旗	-11951
遵	-11952
岗	-11953
授	-11954
洛	-11955
爆	-11956
享	-11957
浩	-11958
药	-11959
倾	-11960
廉	-11961
睦	-11962
忠	-11963
董	-11964
厦	-11965
录	-11966
筹	-11967
厚	-11968
竟	-11969
i	-11970
奇	-11971
森	-11972
赏	-11973
伯	-11974
惠	-11975
纽	-11976
阔	-11977
味	-11978
拿	-11979
哪	-11980
朗	-11981
n	-11982
旦	-11983
朋	-11984
渡	-11985
扶	-11986
泉	-11987
a	-11988
岁	-11989
旧	-11990
鲁	-11991
房	-11992
卿	-11993
辞	-11994
拔	-11995
阵	-11996
般	-11997
鉴	-11998
曲	-11999
袭	-12000
血	-12001
懈	-12002
阁	-12003
旨	-12004
灵	-12005
宾	-12006
赛	-12007
凡	-12008
博	-12009
徐	-12010
杨	-12011
佛	-12012
泰	-12013
累	-12014
音	-12015
牌	-12016
吕	-12017
渐	-12018
跃	-12019
绕	-12020
氛	-12021
圣	-12022
幸	-12023
戈	-12024
揭	-12025
熟	-12026
诸	-12027
迈	-12028
醒	-12029
川	-12030
t	-12031
牢	-12032
拟	-12033
昌	-12034
材	-12035
忧	-12036
扰	-12037
枪	-12038
厂	-12039
怕	-12040
矿	-12041
亦	-12042
呢	-12043
忍	-12044
夺	-12045
浪	-12046
乏	-12047
倡	-12048
券	-12049
蒙	-12050
湖	-12051
莱	-12052
E	-12053
哥	-12054
拖	-12055
替	-12056
乃	-12057
菲	-12058
储	-12059
轰	-12060
敏	-12061
陪	-12062
刊	-12063
贷	-12064
园	-12065
壮	-12066
翻	-12067
赫	-12068
叶	-12069
役	-12070
木	-12071
闭	-12072
r	-12073
宽	-12074
敢	-12075
纠	-12076
肃	-12077
轨	-12078
概	-12079
缔	-12080
磋	-12081
妇	-12082
毫	-12083
艺	-12084
洁	-12085
涵	-12086
衷	-12087
染	-12088
凝	-12089
含	-12090
婚	-12091
徒	-12092
o	-12093
宜	-12094
读	-12095
岚	-12096
篇	-12097
辩	-12098
返	-12099
S	-12100
迹	-12101
割	-12102
宫	-12103
跟	-12104
吁	-12105
混	-12106
翼	-12107
彩	-12108
恩	-12109
暂	-12110
沃	-12111
纵	-12112
搜	-12113
峻	-12114
框	-12115
辛	-12116
休	-12117
虚	-12118
卖	-12119
汉	-12120
震	-12121
亏	-12122
佩	-12123
吗	-12124
阐	-12125
杜	-12126
齐	-12127
惊	-12128
遏	-12129
抢	-12130
夜	-12131
摇	-12132
父	-12133
礼	-12134
劣	-12135
痴	-12136
夏	-12137
I	-12138
驱	-12139
丽	-12140
操	-12141
楼	-12142
嫌	-12143
柬	-12144
渔	-12145
惩	-12146
仁	-12147
覆	-12148
厉	-12149
吃	-12150
毕	-12151
摩	-12152
莲	-12153
罚	-12154
玺	-12155
盖	-12156
靖	-12157
循	-12158
旱	-12159
脚	-12160
艘	-12161
隐	-12162
仰	-12163
塞	-12164
句	-12165
奖	-12166
崇	-12167
灭	-12168
圳	-12169
痛	-12170
郑	-12171
捕	-12172
R	-12173
乘	-12174
戴	-12175
焚	-12176
附	-12177
B	-12178
敬	-12179
晓	-12180
掉	-12181
耶	-12182
询	-12183
逃	-12184
削	-12185
宴	-12186
拦	-12187
彼	-12188
─	-12189
偷	-12190
筑	-12191
词	-12192
戒	-12193
歪	-12194
纯	-12195
皮	-12196
雨	-12197
骨	-12198
傅	-12199
残	-12200
钟	-12201
季	-12202
忘	-12203
欺	-12204
穿	-12205
渠	-12206
码	-12207
姓	-12208
汽	-12209
甲	-12210
誉	-12211
隆	-12212
坐	-12213
坡	-12214
愈	-12215
偏	-12216
暗	-12217
惜	-12218
植	-12219
疗	-12220
赶	-12221
微	-12222
殖	-12223
贿	-12224
愤	-12225
慎	-12226
撤	-12227
佳	-12228
偿	-12229
呈	-12230
蓝	-12231
迪	-12232
伦	-12233
吹	-12234
丹	-12235
奠	-12236
耕	-12237
驾	-12238
劲	-12239
孤	-12240
歌	-12241
陷	-12242
F	-12243
穷	-12244
蒂	-12245
欲	-12246
沟	-12247
番	-12248
谴	-12249
锋	-12250
末	-12251
黎	-12252
勃	-12253
甘	-12254
埃	-12255
箭	-12256
辖	-12257
叙	-12258
津	-12259
丁	-12260
廷	-12261
怖	-12262
戏	-12263
患	-12264
胆	-12265
荡	-12266
弘	-12267
歉	-12268
尉	-12269
珍	-12270
肩	-12271
闹	-12272
静	-12273
梁	-12274
煌	-12275
穆	-12276
郭	-12277
伪	-12278
横	-12279
画	-12280
纸	-12281
貌	-12282
钢	-12283
帝	-12284
恰	-12285
惯	-12286
祥	-12287
贾	-12288
笔	-12289
逆	-12290
慧	-12291
桥	-12292
耳	-12293
巡	-12294
焦	-12295
麻	-12296
炼	-12297
牵	-12298
[	-12299
绿	-12300
贪	-12301
p	-12302
亮	-12303
叫	-12304
账	-12305
携	-12306
润	-12307
贝	-12308
辽	-12309
c	-12310
绳	-12311
]	-12312
庄	-12313
旬	-12314
哲	-12315
忽	-12316
柱	-12317
稿	-12318
童	-12319
踪	-12320
阴	-12321
凯	-12322
秋	-12323
裕	-12324
辟	-12325
锁	-12326
G	-12327
s	-12328
冒	-12329
烟	-12330
煤	-12331
尖	-12332
抛	-12333
籍	-12334
倍	-12335
牙	-12336
猛	-12337
贩	-12338
踏	-12339
抱	-12340
废	-12341
慢	-12342
赋	-12343
饭	-12344
徽	-12345
曼	-12346
狂	-12347
顽	-12348
吨	-12349
埔	-12350
宋	-12351
贴	-12352
悲	-12353
壤	-12354
蓄	-12355
衰	-12356
览	-12357
刺	-12358
姜	-12359
汪	-12360
盘	-12361
l	-12362
丧	-12363
兹	-12364
帜	-12365
缴	-12366
店	-12367
挂	-12368
欣	-12369
浙	-12370
颁	-12371
惨	-12372
旺	-12373
瞩	-12374
街	-12375
扭	-12376
缘	-12377
臣	-12378
跌	-12379
僵	-12380
嘉	-12381
扫	-12382
滋	-12383
宇	-12384
疫	-12385
盗	-12386
荒	-12387
魂	-12388
m	-12389
卢	-12390
您	-12391
扣	-12392
袖	-12393
僚	-12394
卓	-12395
姻	-12396
梦	-12397
狠	-12398
夕	-12399
滥	-12400
牲	-12401
舍	-12402
龄	-12403
寨	-12404
肇	-12405
冰	-12406
笑	-12407
肆	-12408
d	-12409
洞	-12410
锐	-12411
敦	-12412
绪	-12413
豪	-12414
辑	-12415
驶	-12416
凌	-12417
唱	-12418
惑	-12419
惕	-12420
玩	-12421
谍	-12422
墨	-12423
妄	-12424
租	-12425
谷	-12426
钦	-12427
骤	-12428
契	-12429
怪	-12430
挝	-12431
旋	-12432
牺	-12433
默	-12434
仗	-12435
剩	-12436
毅	-12437
跳	-12438
隔	-12439
麦	-12440
h	-12441
慰	-12442
拨	-12443
丝	-12444
曹	-12445
板	-12446
桑	-12447
牧	-12448
迄	-12449
邮	-12450
男	-12451
辜	-12452
俊	-12453
撑	-12454
糊	-12455
竭	-12456
鱼	-12457
兆	-12458
趣	-12459
顶	-12460
挫	-12461
辆	-12462
雪	-12463
/	-12464
谨	-12465
弄	-12466
皇	-12467
捍	-12468
艾	-12469
薄	-12470
鸣	-12471
弟	-12472
悠	-12473
挠	-12474
昭	-12475
酒	-12476
颇	-12477
弊	-12478
辅	-12479
遥	-12480
饱	-12481
勾	-12482
寄	-12483
摧	-12484
擦	-12485
凤	-12486
慨	-12487
挡	-12488
掩	-12489
械	-12490
烦	-12491
讼	-12492
陕	-12493
俱	-12494
披	-12495
涌	-12496
滞	-12497
盼	-12498
肉	-12499
g	-12500
涨	-12501
硕	-12502
蓬	-12503
迁	-12504
册	-12505
喊	-12506
梅	-12507
滑	-12508
脸	-12509
伏	-12510
帕	-12511
彰	-12512
扮	-12513
浮	-12514
炎	-12515
碑	-12516
诱	-12517
耀	-12518
详	-12519
逼	-12520
雅	-12521
凭	-12522
块	-12523
妻	-12524
憾	-12525
晨	-12526
淡	-12527
渗	-12528
舟	-12529
递	-12530
奴	-12531
庞	-12532
恪	-12533
捞	-12534
盈	-12535
餐	-12536
剥	-12537
欠	-12538
畅	-12539
耗	-12540
衣	-12541
诞	-12542
跑	-12543
铭	-12544
井	-12545
忙	-12546
犹	-12547
珠	-12548
阅	-12549
韦	-12550
怒	-12551
斌	-12552
汗	-12553
胀	-12554
刀	-12555
圈	-12556
屡	-12557
聘	-12558
衅	-12559
妈	-12560
弥	-12561
慑	-12562
辈	-12563
丑	-12564
卸	-12565
君	-12566
尾	-12567
斥	-12568
孟	-12569
遣	-12570
鹰	-12571
侧	-12572
劫	-12573
孩	-12574
潘	-12575
蔡	-12576
堡	-12577
疾	-12578
盲	-12579
芳	-12580
虎	-12581
谬	-12582
赤	-12583
垅	-12584
彭	-12585
挽	-12586
畜	-12587
磨	-12588
诗	-12589
吧	-12590
悬	-12591
渊	-12592
祸	-12593
纺	-12594
u	-12595
稍	-12596
箱	-12597
函	-12598
劝	-12599
撰	-12600
睹	-12601
茂	-12602
衍	-12603
谎	-12604
壁	-12605
浓	-12606
漏	-12607
烧	-12608
窃	-12609
弗	-12610
泄	-12611
漫	-12612
熊	-12613
蒋	-12614
屈	-12615
幻	-12616
煽	-12617
膨	-12618
悟	-12619
挖	-12620
榜	-12621
堪	-12622
忆	-12623
棉	-12624
荷	-12625
辱	-12626
逞	-12627
逻	-12628
颠	-12629
乔	-12630
嚣	-12631
焰	-12632
碰	-12633
耐	-12634
铺	-12635
剑	-12636
圭	-12637
姿	-12638
彤	-12639
拼	-12640
泊	-12641
燃	-12642
伞	-12643
卷	-12644
寺	-12645
捷	-12646
滨	-12647
宙	-12648
搬	-12649
晰	-12650
档	-12651
灌	-12652
萧	-12653
伸	-12654
姐	-12655
摸	-12656
滚	-12657
稽	-12658
霍	-12659
鸿	-12660
懂	-12661
押	-12662
撒	-12663
烂	-12664
脉	-12665
净	-12666
屋	-12667
拘	-12668
昂	-12669
畏	-12670
谭	-12671
H	-12672
兄	-12673
冠	-12674
咨	-12675
坎	-12676
沪	-12677
症	-12678
肖	-12679
驳	-12680
w	-12681
傲	-12682
枚	-12683
蔽	-12684
抽	-12685
拍	-12686
衔	-12687
镜	-12688
陶	-12689
U	-12690
插	-12691
汰	-12692
漠	-12693
灯	-12694
粗	-12695
蔓	-12696
赔	-12697
锻	-12698
页	-12699
骄	-12700
堵	-12701
洗	-12702
牛	-12703
猖	-12704
玛	-12705
罢	-12706
逢	-12707
>	-12708
俗	-12709
冈	-12710
垒	-12711
寿	-12712
惟	-12713
氏	-12714
浦	-12715
添	-12716
陵	-12717
卜	-12718
渝	-12719
灿	-12720
蛇	-12721
叛	-12722
昆	-12723
汛	-12724
舱	-12725
谅	-12726
<	-12727
偶	-12728
兑	-12729
刷	-12730
匹	-12731
奔	-12732
巧	-12733
晋	-12734
滩	-12735
琳	-12736
罕	-12737
搏	-12738
柯	-12739
笼	-12740
脆	-12741
仔	-12742
佐	-12743
岭	-12744
恒	-12745
抬	-12746
暖	-12747
聪	-12748
逾	-12749
挤	-12750
栏	-12751
炭	-12752
郎	-12753
L	-12754
吓	-12755
尝	-12756
怨	-12757
捐	-12758
歼	-12759
篪	-12760
耻	-12761
腾	-12762
芬	-12763
誓	-12764
y	-12765
冯	-12766
勘	-12767
妙	-12768
愉	-12769
摄	-12770
洽	-12771
苗	-12772
亩	-12773
冬	-12774
嘛	-12775
宿	-12776
掀	-12777
斤	-12778
燕	-12779
疏	-12780
瞻	-12781
禹	-12782
茨	-12783
诈	-12784
闪	-12785
唤	-12786
嘴	-12787
奈	-12788
崭	-12789
廿	-12790
抚	-12791
攀	-12792
淘	-12793
琴	-12794
缉	-12795
菜	-12796
译	-12797
魏	-12798
f	-12799
喇	-12800
塑	-12801
奏	-12802
拆	-12803
沦	-12804
菊	-12805
驭	-12806
v	-12807
屠	-12808
崛	-12809
挚	-12810
棋	-12811
溢	-12812
獗	-12813
皆	-12814
绘	-12815
赌	-12816
颗	-12817
彬	-12818
描	-12819
揽	-12820
柏	-12821
殷	-12822
焕	-12823
袁	-12824
讳	-12825
赠	-12826
喻	-12827
寒	-12828
搭	-12829
楷	-12830
淮	-12831
秉	-12832
窗	-12833
缅	-12834
酷	-12835
仓	-12836
娱	-12837
悄	-12838
悦	-12839
慕	-12840
摊	-12841
桂	-12842
梯	-12843
汤	-12844
澄	-12845
甫	-12846
谣	-12847
丛	-12848
仇	-12849
峙	-12850
庙	-12851
渴	-12852
澜	-12853
遂	-12854
V	-12855
仿	-12856
凶	-12857
坤	-12858
埋	-12859
妨	-12860
泥	-12861
牟	-12862
狱	-12863
磁	-12864
祉	-12865
谱	-12866
钩	-12867
冶	-12868
墙	-12869
奸	-12870
屏	-12871
庇	-12872
愚	-12873
抑	-12874
抨	-12875
挪	-12876
粉	-12877
茫	-12878
茶	-12879
荐	-12880
夸	-12881
尺	-12882
敲	-12883
旭	-12884
梵	-12885
榻	-12886
葆	-12887
闽	-12888
霖	-12889
饮	-12890
亟	-12891
忌	-12892
扑	-12893
耿	-12894
腊	-12895
迭	-12896
逊	-12897
酿	-12898
幼	-12899
恨	-12900
戚	-12901
晶	-12902
腰	-12903
邹	-12904
闯	-12905
颖	-12906
丢	-12907
凸	-12908
姑	-12909
朴	-12910
秦	-12911
肥	-12912
葡	-12913
裔	-12914
赂	-12915
逮	-12916
邱	-12917
魔	-12918
X	-12919
串	-12920
剖	-12921
啊	-12922
垮	-12923
堆	-12924
尸	-12925
床	-12926
昧	-12927
泪	-12928
炳	-12929
疲	-12930
胸	-12931
贤	-12932
郊	-12933
隶	-12934
\	-12935
催	-12936
剂	-12937
叔	-12938
垂	-12939
姚	-12940
幌	-12941
朽	-12942
枝	-12943
眷	-12944
谐	-12945
钉	-12946
铲	-12947
阮	-12948
仲	-12949
冻	-12950
庸	-12951
掘	-12952
擅	-12953
碎	-12954
葬	-12955
裸	-12956
匈	-12957
填	-12958
岩	-12959
抹	-12960
斜	-12961
昔	-12962
杆	-12963
杉	-12964
虫	-12965
蛮	-12966
轿	-12967
尘	-12968
岂	-12969
帷	-12970
弦	-12971
拢	-12972
汕	-12973
瓶	-12974
篡	-12975
贬	-12976
倪	-12977
喀	-12978
岳	-12979
拳	-12980
杭	-12981
桌	-12982
眉	-12983
矶	-12984
绑	-12985
蔑	-12986
驰	-12987
妹	-12988
孔	-12989
愧	-12990
抉	-12991
搁	-12992
柴	-12993
浅	-12994
湘	-12995
舒	-12996
萄	-12997
蒸	-12998
虐	-12999
豆	-13000
逝	-13001
鞍	-13002
颜	-13003
吾	-13004
喝	-13005
坠	-13006
奎	-13007
摘	-13008
栋	-13009
蝗	-13010
@	-13011
勉	-13012
墓	-13013
惧	-13014
挺	-13015
曝	-13016
渎	-13017
湄	-13018
疯	-13019
瞬	-13020
篮	-13021
腹	-13022
蕴	-13023
赚	-13024
钻	-13025
饰	-13026
̈	-13027
匆	-13028
堕	-13029
悔	-13030
悼	-13031
椿	-13032
汲	-13033
淆	-13034
竹	-13035
舶	-13036
哀	-13037
坪	-13038
帅	-13039
漂	-13040
祭	-13041
薪	-13042
辐	-13043
吐	-13044
奶	-13045
尬	-13046
尴	-13047
尹	-13048
捣	-13049
棒	-13050
澎	-13051
炒	-13052
赁	-13053
辨	-13054
骂	-13055
鬼	-13056
乙	-13057
囊	-13058
挟	-13059
捏	-13060
敞	-13061
沧	-13062
秒	-13063
蚀	-13064
赃	-13065
趁	-13066
铧	-13067
b	-13068
侯	-13069
删	-13070
勋	-13071
匡	-13072
吊	-13073
吞	-13074
哨	-13075
噪	-13076
杼	-13077
灰	-13078
瓜	-13079
瞄	-13080
绸	-13081
缆	-13082
诫	-13083
酝	-13084
靳	-13085
+	-13086
廖	-13087
晖	-13088
曙	-13089
枢	-13090
池	-13091
浇	-13092
涂	-13093
熙	-13094
甸	-13095
礁	-13096
芝	-13097
藤	-13098
遮	-13099
郝	-13100
铸	-13101
飚	-13102
亭	-13103
叉	-13104
圾	-13105
垃	-13106
宅	-13107
拯	-13108
敛	-13109
毋	-13110
泡	-13111
淑	-13112
燮	-13113
狭	-13114
硝	-13115
碧	-13116
脏	-13117
臭	-13118
艳	-13119
躲	-13120
酬	-13121
链	-13122
夷	-13123
夹	-13124
嫩	-13125
孝	-13126
帆	-13127
拐	-13128
歇	-13129
殿	-13130
泼	-13131
淋	-13132
玲	-13133
睛	-13134
袋	-13135
K	-13136
│	-13137
戎	-13138
拭	-13139
掠	-13140
斑	-13141
暨	-13142
枣	-13143
桶	-13144
氧	-13145
璐	-13146
矢	-13147
粹	-13148
胎	-13149
辙	-13150
铜	-13151
颂	-13152
飘	-13153
J	-13154
丈	-13155
噶	-13156
坑	-13157
崩	-13158
斡	-13159
晴	-13160
沛	-13161
琏	-13162
瑜	-13163
瘫	-13164
稻	-13165
绵	-13166
缚	-13167
羊	-13168
锡	-13169
饕	-13170
骇	-13171
鸡	-13172
刃	-13173
叹	-13174
唆	-13175
宰	-13176
帽	-13177
恃	-13178
恕	-13179
慈	-13180
柳	-13181
歹	-13182
畴	-13183
盐	-13184
砸	-13185
缀	-13186
缠	-13187
蛊	-13188
豫	-13189
髓	-13190
侮	-13191
俭	-13192
咄	-13193
喷	-13194
孕	-13195
寡	-13196
扼	-13197
斐	-13198
槛	-13199
潭	-13200
炬	-13201
痪	-13202
窄	-13203
窝	-13204
糟	-13205
耸	-13206
踊	-13207
锣	-13208
颈	-13209
Z	-13210
亨	-13211
俞	-13212
募	-13213
址	-13214
垄	-13215
寓	-13216
扯	-13217
捧	-13218
殃	-13219
溪	-13220
狼	-13221
琼	-13222
睡	-13223
禅	-13224
罩	-13225
荫	-13226
蹄	-13227
郁	-13228
魁	-13229
兜	-13230
刮	-13231
弯	-13232
杠	-13233
枯	-13234
沸	-13235
煞	-13236
狡	-13237
猜	-13238
畔	-13239
瘤	-13240
瞒	-13241
聊	-13242
芒	-13243
讽	-13244
靶	-13245
鸟	-13246
仆	-13247
倚	-13248
厢	-13249
孜	-13250
寂	-13251
寸	-13252
帐	-13253
彦	-13254
恼	-13255
惮	-13256
挣	-13257
撮	-13258
灼	-13259
碟	-13260
笠	-13261
粤	-13262
翁	-13263
腔	-13264
陛	-13265
雇	-13266
鹤	-13267
鼠	-13268
齿	-13269
俩	-13270
刹	-13271
卑	-13272
奢	-13273
徊	-13274
惹	-13275
捉	-13276
撼	-13277
沫	-13278
液	-13279
淇	-13280
淫	-13281
炉	-13282
瑟	-13283
稀	-13284
腿	-13285
舷	-13286
萍	-13287
铀	-13288
颐	-13289
魄	-13290
魅	-13291
鳌	-13292
鹿	-13293
x	-13294
丘	-13295
伎	-13296
佑	-13297
倘	-13298
哄	-13299
唾	-13300
宛	-13301
朔	-13302
栖	-13303
桃	-13304
溉	-13305
狗	-13306
砍	-13307
缁	-13308
芯	-13309
蛋	-13310
袱	-13311
诊	-13312
诡	-13313
诬	-13314
谘	-13315
谦	-13316
轴	-13317
逗	-13318
邵	-13319
阎	-13320
鸦	-13321
龚	-13322
勿	-13323
匿	-13324
厌	-13325
嘱	-13326
媚	-13327
尧	-13328
彪	-13329
恳	-13330
悖	-13331
挨	-13332
撕	-13333
昏	-13334
梭	-13335
殉	-13336
渲	-13337
炽	-13338
瞎	-13339
祈	-13340
苍	-13341
莉	-13342
薛	-13343
躁	-13344
铃	-13345
雕	-13346
骏	-13347
鼎	-13348
吵	-13349
咎	-13350
啦	-13351
坝	-13352
垦	-13353
塌	-13354
壳	-13355
婆	-13356
屿	-13357
崔	-13358
崖	-13359
幽	-13360
徇	-13361
恭	-13362
昼	-13363
柔	-13364
浴	-13365
涯	-13366
爷	-13367
狐	-13368
盯	-13369
祀	-13370
脊	-13371
邸	-13372
钊	-13373
铤	-13374
镕	-13375
阪	-13376
陌	-13377
霜	-13378
饲	-13379
饶	-13380
饿	-13381
骚	-13382
ㄉ	-13383
凑	-13384
嘎	-13385
垫	-13386
堤	-13387
姬	-13388
忡	-13389
怂	-13390
恋	-13391
抄	-13392
拾	-13393
敷	-13394
洒	-13395
溃	-13396
溯	-13397
滔	-13398
滴	-13399
纤	-13400
纱	-13401
绞	-13402
罔	-13403
翔	-13404
臂	-13405
莞	-13406
诠	-13407
豁	-13408
蹈	-13409
饥	-13410
━	-13411
侥	-13412
冤	-13413
卒	-13414
呀	-13415
呆	-13416
嚷	-13417
慌	-13418
杯	-13419
枉	-13420
柜	-13421
浏	-13422
浑	-13423
猎	-13424
痕	-13425
窜	-13426
紫	-13427
耍	-13428
虹	-13429
詹	-13430
辄	-13431
锅	-13432
闲	-13433
雾	-13434
鼻	-13435
卅	-13436
吏	-13437
嘘	-13438
娜	-13439
寥	-13440
摒	-13441
斓	-13442
曜	-13443
曰	-13444
氓	-13445
汶	-13446
沾	-13447
濒	-13448
爸	-13449
痹	-13450
禽	-13451
稚	-13452
簿	-13453
羞	-13454
萌	-13455
蔬	-13456
贼	-13457
辰	-13458
逸	-13459
钥	-13460
锲	-13461
霞	-13462
骑	-13463
_	-13464
k	-13465
亵	-13466
侈	-13467
俯	-13468
兢	-13469
厄	-13470
呐	-13471
哭	-13472
囚	-13473
堑	-13474
寰	-13475
怠	-13476
扔	-13477
拱	-13478
掣	-13479
枷	-13480
椭	-13481
洙	-13482
渖	-13483
漳	-13484
玻	-13485
睫	-13486
矗	-13487
祷	-13488
缝	-13489
翟	-13490
舌	-13491
荆	-13492
虞	-13493
蟮	-13494
袒	-13495
裹	-13496
轩	-13497
邢	-13498
钓	-13499
阜	-13500
韧	-13501
韬	-13502
麟	-13503
丙	-13504
仑	-13505
俑	-13506
傍	-13507
僧	-13508
冗	-13509
匙	-13510
匪	-13511
孰	-13512
岐	-13513
嶂	-13514
弋	-13515
徘	-13516
悍	-13517
攸	-13518
斧	-13519
斩	-13520
棵	-13521
樊	-13522
毯	-13523
沼	-13524
涡	-13525
湛	-13526
猫	-13527
玄	-13528
硅	-13529
糖	-13530
羁	-13531
翰	-13532
肚	-13533
胃	-13534
荼	-13535
菌	-13536
葛	-13537
葱	-13538
蜕	-13539
褪	-13540
诀	-13541
赡	-13542
陀	-13543
鞋	-13544
鞭	-13545
顷	-13546
j	-13547
亥	-13548
仕	-13549
仙	-13550
儒	-13551
剪	-13552
匮	-13553
妖	-13554
宕	-13555
弓	-13556
忱	-13557
惺	-13558
掷	-13559
搅	-13560
晃	-13561
梓	-13562
泯	-13563
浸	-13564
淀	-13565
漆	-13566
瓴	-13567
睁	-13568
睿	-13569
碗	-13570
笛	-13571
筋	-13572
绊	-13573
肘	-13574
腕	-13575
苟	-13576
苹	-13577
萎	-13578
藩	-13579
讶	-13580
贻	-13581
赎	-13582
醉	-13583
鑫	-13584
钮	-13585
锤	-13586
闸	-13587
阀	-13588
隙	-13589
霾	-13590
韶	-13591
Y	-13592
冀	-13593
哗	-13594
夭	-13595
娃	-13596
孚	-13597
屯	-13598
屹	-13599
怜	-13600
憬	-13601
戕	-13602
抒	-13603
旷	-13604
桩	-13605
毗	-13606
汹	-13607
泣	-13608
淳	-13609
渣	-13610
甜	-13611
窘	-13612
窥	-13613
竣	-13614
糕	-13615
缪	-13616
肿	-13617
膊	-13618
蔚	-13619
谆	-13620
蹲	-13621
躬	-13622
陋	-13623
饵	-13624
黔	-13625
Q	-13626
丸	-13627
凉	-13628
卵	-13629
咱	-13630
唇	-13631
唬	-13632
啸	-13633
娼	-13634
幢	-13635
廓	-13636
惶	-13637
梳	-13638
汁	-13639
汝	-13640
沆	-13641
涝	-13642
瀣	-13643
焉	-13644
熬	-13645
爬	-13646
牡	-13647
猪	-13648
甬	-13649
矣	-13650
矫	-13651
穹	-13652
纾	-13653
聆	-13654
臆	-13655
苛	-13656
蒲	-13657
蠢	-13658
褒	-13659
譬	-13660
钧	-13661
铮	-13662
冉	-13663
厥	-13664
嘲	-13665
夙	-13666
寞	-13667
岱	-13668
崎	-13669
怡	-13670
恿	-13671
慷	-13672
憎	-13673
掏	-13674
暑	-13675
朵	-13676
桎	-13677
梏	-13678
椅	-13679
殴	-13680
氢	-13681
涣	-13682
溜	-13683
炊	-13684
熏	-13685
爽	-13686
狮	-13687
睐	-13688
碱	-13689
穗	-13690
翠	-13691
肤	-13692
肺	-13693
腥	-13694
臻	-13695
莆	-13696
藻	-13697
蜂	-13698
诩	-13699
诽	-13700
谜	-13701
蹴	-13702
辍	-13703
鄙	-13704
铨	-13705
韪	-13706
馈	-13707
鸭	-13708
～	-13709
`	-13710
〉	-13711
俘	-13712
匦	-13713
匾	-13714
咬	-13715
啥	-13716
嗣	-13717
坷	-13718
夯	-13719
娘	-13720
宠	-13721
寐	-13722
巍	-13723
庥	-13724
憧	-13725
戾	-13726
拙	-13727
摔	-13728
枕	-13729
桓	-13730
梢	-13731
棠	-13732
棱	-13733
橄	-13734
毓	-13735
渤	-13736
烁	-13737
狈	-13738
猾	-13739
玫	-13740
琐	-13741
碌	-13742
礽	-13743
祚	-13744
祠	-13745
禄	-13746
筒	-13747
纬	-13748
纭	-13749
绎	-13750
耙	-13751
肢	-13752
舵	-13753
芹	-13754
芽	-13755
萝	-13756
蓉	-13757
诵	-13758
谤	-13759
贞	-13760
跋	-13761
跻	-13762
踵	-13763
躯	-13764
躺	-13765
雁	-13766
鳎	-13767
黯	-13768
~	-13769
乍	-13770
亢	-13771
侃	-13772
侍	-13773
冕	-13774
凰	-13775
凿	-13776
剿	-13777
厘	-13778
厮	-13779
叭	-13780
吻	-13781
咐	-13782
咸	-13783
哉	-13784
啤	-13785
喉	-13786
坊	-13787
塘	-13788
壶	-13789
媲	-13790
嫁	-13791
宓	-13792
岬	-13793
巫	-13794
巷	-13795
幡	-13796
廊	-13797
懋	-13798
拂	-13799
捆	-13800
擎	-13801
擒	-13802
梗	-13803
棍	-13804
榄	-13805
榕	-13806
毙	-13807
泅	-13808
浊	-13809
淹	-13810
溱	-13811
滕	-13812
漩	-13813
炙	-13814
珊	-13815
琪	-13816
瑶	-13817
璃	-13818
畸	-13819
疤	-13820
瘾	-13821
盆	-13822
祺	-13823
粒	-13824
绥	-13825
绽	-13826
聋	-13827
肝	-13828
胧	-13829
胶	-13830
舜	-13831
莹	-13832
襟	-13833
觅	-13834
诤	-13835
谛	-13836
谩	-13837
赣	-13838
赦	-13839
辗	-13840
钰	-13841
铝	-13842
闵	-13843
雀	-13844
鞠	-13845
z	-13846
{	-13847
|	-13848
×	-13849
乒	-13850
乓	-13851
伺	-13852
俨	-13853
卧	-13854
叮	-13855
叵	-13856
咒	-13857
咽	-13858
啡	-13859
孵	-13860
寝	-13861
巢	-13862
帖	-13863
庖	-13864
弛	-13865
惦	-13866
拴	-13867
揣	-13868
晕	-13869
杏	-13870
栗	-13871
株	-13872
梨	-13873
棚	-13874
焯	-13875
煎	-13876
犁	-13877
犬	-13878
珞	-13879
癌	-13880
砺	-13881
秽	-13882
筛	-13883
簧	-13884
粕	-13885
紊	-13886
耘	-13887
肌	-13888
膜	-13889
荧	-13890
莅	-13891
菇	-13892
蜜	-13893
螺	-13894
诣	-13895
谒	-13896
赐	-13897
趟	-13898
躏	-13899
辣	-13900
邰	-13901
酸	-13902
锈	-13903
闷	-13904
陡	-13905
隅	-13906
隘	-13907
骋	-13908
鸽	-13909
龃	-13910
=	-13911
佘	-13912
侠	-13913
凈	-13914
凳	-13915
喧	-13916
壑	-13917
婉	-13918
婴	-13919
峦	-13920
巾	-13921
忏	-13922
恣	-13923
恺	-13924
戍	-13925
戳	-13926
拚	-13927
捅	-13928
撇	-13929
攘	-13930
暇	-13931
暧	-13932
柄	-13933
栽	-13934
桦	-13935
榈	-13936
榴	-13937
樱	-13938
氐	-13939
沮	-13940
涅	-13941
淤	-13942
湃	-13943
溶	-13944
溺	-13945
炫	-13946
煦	-13947
瑛	-13948
疼	-13949
眠	-13950
矩	-13951
砖	-13952
祛	-13953
稣	-13954
窒	-13955
竖	-13956
竦	-13957
簸	-13958
纹	-13959
绚	-13960
缕	-13961
翅	-13962
翌	-13963
翘	-13964
耽	-13965
聂	-13966
胫	-13967
胺	-13968
膝	-13969
苑	-13970
蕉	-13971
虏	-13972
袤	-13973
裤	-13974
诋	-13975
蹂	-13976
轧	-13977
迥	-13978
迦	-13979
钞	-13980
铎	-13981
锩	-13982
阖	-13983
隗	-13984
隽	-13985
鞘	-13986
颤	-13987
飙	-13988
驴	-13989
骸	-13990
ā	-13991
Γ	-13992
ぷ	-13993
ㄒ	-13994
乳	-13995
亓	-13996
僻	-13997
冼	-13998
凄	-13999
凋	-14000
匀	-14001
叠	-14002
吝	-14003
呕	-14004
哑	-14005
哺	-14006
喘	-14007
囿	-14008
坟	-14009
奚	-14010
娟	-14011
嫖	-14012
峨	-14013
崴	-14014
幄	-14015
庚	-14016
恍	-14017
恫	-14018
愁	-14019
扛	-14020
拇	-14021
捡	-14022
摹	-14023
擂	-14024
旆	-14025
昊	-14026
昕	-14027
晒	-14028
暮	-14029
杞	-14030
棣	-14031
橡	-14032
氖	-14033
氲	-14034
汀	-14035
涎	-14036
淖	-14037
湿	-14038
滏	-14039
灶	-14040
烫	-14041
燥	-14042
爪	-14043
玷	-14044
琉	-14045
瑾	-14046
盎	-14047
盏	-14048
睬	-14049
碳	-14050
磊	-14051
秸	-14052
穴	-14053
窑	-14054
窿	-14055
竿	-14056
羽	-14057
腑	-14058
荪	-14059
菅	-14060
萃	-14061
蛛	-14062
蝇	-14063
蝉	-14064
螳	-14065
蟹	-14066
裨	-14067
裴	-14068
讷	-14069
讹	-14070
诲	-14071
诿	-14072
谌	-14073
跪	-14074
踩	-14075
酵	-14076
锵	-14077
霉	-14078
靡	-14079
颓	-14080
驼	-14081
骥	-14082
鸵	-14083
龅	-14084
#	-14085
&	-14086
q	-14087
Φ	-14088
′	-14089
╱	-14090
★	-14091
ひ	-14092
乞	-14093
佬	-14094
俎	-14095
倦	-14096
兮	-14097
兽	-14098
刁	-14099
叩	-14100
吋	-14101
吼	-14102
咀	-14103
咖	-14104
咛	-14105
咫	-14106
哂	-14107
啃	-14108
啬	-14109
啻	-14110
嗡	-14111
噩	-14112
妫	-14113
娣	-14114
嬗	-14115
孀	-14116
宵	-14117
屑	-14118
岢	-14119
峁	-14120
嵌	-14121
嵘	-14122
庵	-14123
怯	-14124
恤	-14125
惋	-14126
惫	-14127
懒	-14128
扇	-14129
挛	-14130
捎	-14131
掂	-14132
揆	-14133
摈	-14134
敝	-14135
晌	-14136
柑	-14137
椒	-14138
槽	-14139
殆	-14140
沌	-14141
沽	-14142
泱	-14143
泳	-14144
泻	-14145
浠	-14146
涕	-14147
烽	-14148
狞	-14149
狰	-14150
珲	-14151
璀	-14152
痒	-14153
痰	-14154
瘢	-14155
眸	-14156
睽	-14157
砜	-14158
砝	-14159
硎	-14160
磅	-14161
祟	-14162
祯	-14163
禧	-14164
笃	-14165
笫	-14166
筱	-14167
篑	-14168
篷	-14169
籽	-14170
糜	-14171
绣	-14172
绦	-14173
绷	-14174
缄	-14175
缜	-14176
罄	-14177
肠	-14178
脂	-14179
膀	-14180
芾	-14181
苓	-14182
苯	-14183
茁	-14184
茵	-14185
荟	-14186
菁	-14187
菱	-14188
螅	-14189
裘	-14190
褐	-14191
襄	-14192
訇	-14193
诘	-14194
豹	-14195
赈	-14196
赳	-14197
跫	-14198
踞	-14199
踢	-14200
迢	-14201
迨	-14202
逄	-14203
鄂	-14204
酋	-14205
酣	-14206
钡	-14207
锏	-14208
锚	-14209
锭	-14210
阂	-14211
陇	-14212
鞑	-14213
鞴	-14214
韵	-14215
飨	-14216
饩	-14217
驯	-14218
骆	-14219
髦	-14220
鲅	-14221
鲸	-14222
龉	-14223
^	-14224
‰	-14225
┐	-14226
┮	-14227
ㄍ	-14228
ㄓ	-14229
乖	-14230
佟	-14231
俏	-14232
俚	-14233
倬	-14234
傻	-14235
儆	-14236
冥	-14237
匠	-14238
卮	-14239
卲	-14240
厍	-14241
吟	-14242
呒	-14243
咳	-14244
唁	-14245
喂	-14246
嘀	-14247
噬	-14248
嚓	-14249
圩	-14250
墅	-14251
妒	-14252
姨	-14253
娴	-14254
婪	-14255
媛	-14256
嬖	-14257
寇	-14258
峥	-14259
帘	-14260
帛	-14261
庑	-14262
弧	-14263
悴	-14264
悸	-14265
愕	-14266
憋	-14267
抖	-14268
拗	-14269
揉	-14270
揪	-14271
搓	-14272
撬	-14273
攫	-14274
敖	-14275
晏	-14276
晦	-14277
暄	-14278
枭	-14279
柿	-14280
桨	-14281
棕	-14282
棺	-14283
榷	-14284
樵	-14285
橘	-14286
橹	-14287
殚	-14288
毡	-14289
氮	-14290
沅	-14291
沐	-14292
泌	-14293
洱	-14294
浆	-14295
浚	-14296
涩	-14297
涸	-14298
渺	-14299
滦	-14300
漱	-14301
澡	-14302
瀛	-14303
炜	-14304
烙	-14305
烛	-14306
烤	-14307
煊	-14308
爵	-14309
牍	-14310
猓	-14311
猿	-14312
瑰	-14313
璨	-14314
瓷	-14315
町	-14316
疙	-14317
痞	-14318
瘦	-14319
瘩	-14320
眨	-14321
硫	-14322
磕	-14323
禾	-14324
竺	-14325
纂	-14326
绯	-14327
缮	-14328
羌	-14329
羡	-14330
翱	-14331
耄	-14332
聩	-14333
肴	-14334
胤	-14335
胳	-14336
膺	-14337
臃	-14338
臧	-14339
芭	-14340
茏	-14341
荏	-14342
莽	-14343
蒜	-14344
蕾	-14345
薇	-14346
藐	-14347
藕	-14348
蚴	-14349
蠕	-14350
蠖	-14351
讴	-14352
诓	-14353
谑	-14354
贮	-14355
贽	-14356
踌	-14357
躇	-14358
辕	-14359
遁	-14360
遨	-14361
邬	-14362
郡	-14363
酌	-14364
銮	-14365
钠	-14366
钤	-14367
钵	-14368
锯	-14369
锹	-14370
陲	-14371
隧	-14372
隼	-14373
雏	-14374
雯	-14375
鞣	-14376
饼	-14377
馨	-14378
鳗	-14379
鸠	-14380
鹗	-14381
鹫	-14382
黩	-14383
龀	-14384
ǎ	-14385
Ω	-14386
С	-14387
У	-14388
〈	-14389
タ	-14390
ㄗ	-14391
乇	-14392
亘	-14393
伽	-14394
侄	-14395
倭	-14396
偌	-14397
偕	-14398
儋	-14399
兀	-14400
凛	-14401
刂	-14402
刈	-14403
剔	-14404
劈	-14405
卉	-14406
厕	-14407
厣	-14408
吭	-14409
咔	-14410
喋	-14411
嗜	-14412
嗟	-14413
嘟	-14414
噎	-14415
坂	-14416
埠	-14417
墩	-14418
壬	-14419
奕	-14420
姊	-14421
姥	-14422
娅	-14423
娑	-14424
娥	-14425
婷	-14426
嫉	-14427
嬲	-14428
孳	-14429
岣	-14430
岽	-14431
巳	-14432
庐	-14433
弩	-14434
彝	-14435
忾	-14436
怼	-14437
恙	-14438
惘	-14439
惭	-14440
懵	-14441
戮	-14442
扳	-14443
拣	-14444
拧	-14445
捺	-14446
掖	-14447
揄	-14448
揶	-14449
擞	-14450
攥	-14451
敕	-14452
旎	-14453
枫	-14454
桐	-14455
槌	-14456
樟	-14457
檐	-14458
欤	-14459
氨	-14460
沤	-14461
泓	-14462
泵	-14463
淄	-14464
淌	-14465
渥	-14466
溥	-14467
滤	-14468
潢	-14469
烘	-14470
焘	-14471
煮	-14472
玮	-14473
琵	-14474
琶	-14475
瑁	-14476
瑕	-14477
甥	-14478
甩	-14479
畹	-14480
疚	-14481
疮	-14482
痼	-14483
瘁	-14484
皓	-14485
眈	-14486
眶	-14487
瞠	-14488
瞿	-14489
矮	-14490
砂	-14491
砻	-14492
硐	-14493
祇	-14494
秃	-14495
窍	-14496
窠	-14497
窦	-14498
笋	-14499
箍	-14500
箕	-14501
箴	-14502
粱	-14503
绌	-14504
缎	-14505
缭	-14506
罨	-14507
罹	-14508
翊	-14509
胖	-14510
胝	-14511
脖	-14512
臀	-14513
臼	-14514
舅	-14515
艿	-14516
芋	-14517
芙	-14518
芜	-14519
芡	-14520
芦	-14521
芸	-14522
茅	-14523
茜	-14524
茧	-14525
茹	-14526
莎	-14527
菩	-14528
葫	-14529
虻	-14530
虾	-14531
蚁	-14532
蜓	-14533
蜻	-14534
衙	-14535
袢	-14536
裙	-14537
裰	-14538
褡	-14539
覃	-14540
觑	-14541
觯	-14542
诙	-14543
诛	-14544
诟	-14545
诧	-14546
谄	-14547
谙	-14548
谧	-14549
赅	-14550
跆	-14551
迂	-14552
迩	-14553
迳	-14554
逍	-14555
逑	-14556
遴	-14557
郏	-14558
酥	-14559
醇	-14560
钜	-14561
钝	-14562
钳	-14563
钾	-14564
铅	-14565
铰	-14566
锢	-14567
镀	-14568
镏	-14569
镐	-14570
镛	-14571
陨	-14572
雌	-14573
雍	-14574
霄	-14575
霆	-14576
鞯	-14577
颍	-14578
饺	-14579
馁	-14580
驷	-14581
驹	-14582
骷	-14583
骺	-14584
魇	-14585
鹭	-14586
龟	-14587
ü	-14588
Α	-14589
→	-14590
∪	-14591
┤	-14592
ㄕ	-14593
ㄖ	-14594
丕	-14595
丶	-14596
伥	-14597
伫	-14598
佣	-14599
佯	-14600
侣	-14601
俐	-14602
俳	-14603
偃	-14604
傀	-14605
僇	-14606
儡	-14607
凹	-14608
凼	-14609
剌	-14610
劾	-14611
卣	-14612
卦	-14613
厝	-14614
厨	-14615
呓	-14616
呛	-14617
呜	-14618
呵	-14619
呻	-14620
咏	-14621
咕	-14622
哮	-14623
嗅	-14624
嗉	-14625
嗨	-14626
嗽	-14627
嘶	-14628
嚼	-14629
圃	-14630
坞	-14631
垠	-14632
塾	-14633
墟	-14634
壕	-14635
妓	-14636
婿	-14637
媪	-14638
媳	-14639
孢	-14640
孺	-14641
孽	-14642
尿	-14643
屁	-14644
屎	-14645
岔	-14646
岖	-14647
峭	-14648
帧	-14649
弈	-14650
彷	-14651
徕	-14652
怵	-14653
悻	-14654
懑	-14655
懦	-14656
扈	-14657
扒	-14658
捂	-14659
捌	-14660
捭	-14661
捶	-14662
摁	-14663
撂	-14664
攒	-14665
斋	-14666
旌	-14667
旳	-14668
晟	-14669
曳	-14670
杳	-14671
枰	-14672
栅	-14673
桔	-14674
桝	-14675
楞	-14676
榆	-14677
榨	-14678
槐	-14679
殁	-14680
沁	-14681
沓	-14682
沥	-14683
涤	-14684
淼	-14685
渭	-14686
湮	-14687
溅	-14688
漪	-14689
漾	-14690
澹	-14691
濉	-14692
濠	-14693
瀚	-14694
炝	-14695
烯	-14696
焊	-14697
焖	-14698
煲	-14699
犀	-14700
狙	-14701
狸	-14702
猥	-14703
猴	-14704
琢	-14705
瑙	-14706
璋	-14707
璧	-14708
甑	-14709
疽	-14710
痈	-14711
瘟	-14712
瘠	-14713
癫	-14714
皂	-14715
瞧	-14716
砌	-14717
砥	-14718
砦	-14719
碇	-14720
祁	-14721
笆	-14722
笥	-14723
笨	-14724
笾	-14725
筏	-14726
篱	-14727
粟	-14728
纣	-14729
绢	-14730
缇	-14731
缢	-14732
缤	-14733
缯	-14734
罂	-14735
罐	-14736
耪	-14737
肋	-14738
肪	-14739
肮	-14740
胪	-14741
膏	-14742
膛	-14743
臁	-14744
臾	-14745
舸	-14746
芷	-14747
苁	-14748
苤	-14749
茄	-14750
茗	-14751
茬	-14752
荔	-14753
莘	-14754
蓓	-14755
蓟	-14756
蔗	-14757
蔷	-14758
蔺	-14759
蘑	-14760
虔	-14761
蚂	-14762
蚌	-14763
蚧	-14764
蛎	-14765
蛙	-14766
蜀	-14767
蜘	-14768
蜚	-14769
蟆	-14770
蟪	-14771
袂	-14772
裎	-14773
裢	-14774
褰	-14775
觊	-14776
觎	-14777
觥	-14778
觳	-14779
讥	-14780
诏	-14781
诒	-14782
诜	-14783
诮	-14784
谀	-14785
谏	-14786
谖	-14787
谚	-14788
谝	-14789
谟	-14790
谠	-14791
谡	-14792
谲	-14793
豢	-14794
贱	-14795
赊	-14796
趴	-14797
跛	-14798
蹋	-14799
辏	-14800
迸	-14801
逖	-14802
逛	-14803
逯	-14804
遐	-14805
邃	-14806
邯	-14807
郧	-14808
鄹	-14809
酃	-14810
酱	-14811
酶	-14812
醋	-14813
醴	-14814
釜	-14815
鋈	-14816
鏖	-14817
钺	-14818
铵	-14819
铿	-14820
锸	-14821
镌	-14822
镖	-14823
阉	-14824
鞒	-14825
韫	-14826
飧	-14827
饨	-14828
饷	-14829
馒	-14830
驮	-14831
骅	-14832
骊	-14833
骝	-14834
魑	-14835
鲇	-14836
鸬	-14837
鹊	-14838
麾	-14839
龋	-14840
ǜ	-14841
Χ	-14842
ζ	-14843
κ	-14844
τ	-14845
≈	-14846
≡	-14847
⊙	-14848
┍	-14849
┎	-14850
┟	-14851
┯	-14852
┱	-14853
┳	-14854
す	-14855
だ	-14856
て	-14857
と	-14858
ど	-14859
な	-14860
ぴ	-14861
サ	-14862
シ	-14863
ゼ	-14864
丫	-14865
乜	-14866
亍	-14867
伋	-14868
伶	-14869
佼	-14870
偈	-14871
僭	-14872
凓	-14873
刽	-14874
剃	-14875
剜	-14876
剽	-14877
匕	-14878
匝	-14879
匣	-14880
叨	-14881
吆	-14882
吲	-14883
咚	-14884
咪	-14885
哇	-14886
哟	-14887
哽	-14888
啧	-14889
啪	-14890
啵	-14891
喔	-14892
喙	-14893
喽	-14894
嗍	-14895
嗖	-14896
嗥	-14897
嗷	-14898
嘈	-14899
嘌	-14900
嘤	-14901
嘿	-14902
噤	-14903
嚏	-14904
囱	-14905
垣	-14906
埽	-14907
堰	-14908
墑	-14909
墒	-14910
壹	-14911
奄	-14912
妆	-14913
妊	-14914
妾	-14915
姘	-14916
娓	-14917
娠	-14918
娩	-14919
婢	-14920
嫂	-14921
嫔	-14922
嫘	-14923
嫡	-14924
嬉	-14925
孱	-14926
寮	-14927
尕	-14928
尨	-14929
屇	-14930
岑	-14931
岫	-14932
岷	-14933
峇	-14934
峤	-14935
嵇	-14936
嵛	-14937
巅	-14938
巿	-14939
帔	-14940
庀	-14941
庋	-14942
庶	-14943
弑	-14944
弭	-14945
徭	-14946
忝	-14947
怅	-14948
怴	-14949
恚	-14950
恬	-14951
悚	-14952
惆	-14953
惚	-14954
惰	-14955
惴	-14956
愣	-14957
愫	-14958
慊	-14959
憔	-14960
懊	-14961
戛	-14962
抠	-14963
拷	-14964
捋	-14965
掰	-14966
掺	-14967
掼	-14968
搀	-14969
搂	-14970
搪	-14971
搿	-14972
撩	-14973
撸	-14974
擉	-14975
斟	-14976
旖	-14977
旯	-14978
昀	-14979
昶	-14980
曦	-14981
朦	-14982
杈	-14983
枋	-14984
枞	-14985
枸	-14986
柚	-14987
栈	-14988
栌	-14989
栾	-14990
桅	-14991
桧	-14992
梧	-14993
椤	-14994
楫	-14995
榔	-14996
榛	-14997
榭	-14998
槟	-14999
橙	-15000
橱	-15001
檬	-15002
氟	-15003
氩	-15004
氯	-15005
沂	-15006
泞	-15007
泾	-15008
洼	-15009
浜	-15010
浞	-15011
涓	-15012
涞	-15013
涧	-15014
涪	-15015
涫	-15016
渌	-15017
渚	-15018
湎	-15019
滇	-15020
滓	-15021
漓	-15022
漯	-15023
潍	-15024
濂	-15025
濡	-15026
濯	-15027
瀿	-15028
炕	-15029
炵	-15030
烩	-15031
焓	-15032
焗	-15033
焙	-15034
熅	-15035
熔	-15036
熠	-15037
牒	-15038
牷	-15039
狄	-15040
猝	-15041
獍	-15042
玠	-15043
珩	-15044
琅	-15045
琦	-15046
瑚	-15047
璜	-15048
璞	-15049
瓮	-15050
瓯	-15051
甙	-15052
甯	-15053
畛	-15054
疃	-15055
疟	-15056
疵	-15057
痂	-15058
痉	-15059
痊	-15060
瘛	-15061
瘪	-15062
瘴	-15063
癖	-15064
皖	-15065
盒	-15066
盱	-15067
盹	-15068
眩	-15069
瞅	-15070
瞰	-15071
砉	-15072
砭	-15073
硇	-15074
硗	-15075
碛	-15076
磐	-15077
磷	-15078
磺	-15079
禺	-15080
秔	-15081
秤	-15082
秧	-15083
稷	-15084
窬	-15085
竽	-15086
笊	-15087
笕	-15088
笪	-15089
筇	-15090
篚	-15091
粥	-15092
糠	-15093
絮	-15094
縳	-15095
纥	-15096
纫	-15097
纶	-15098
绂	-15099
绅	-15100
绮	-15101
绰	-15102
缃	-15103
缈	-15104
缟	-15105
缥	-15106
缦	-15107
缧	-15108
缨	-15109
罅	-15110
羔	-15111
羲	-15112
翩	-15113
耋	-15114
肓	-15115
肟	-15116
胍	-15117
胥	-15118
脍	-15119
脐	-15120
脾	-15121
腭	-15122
膳	-15123
舐	-15124
艹	-15125
艽	-15126
芄	-15127
芎	-15128
芏	-15129
芘	-15130
芥	-15131
芨	-15132
芩	-15133
芰	-15134
芴	-15135
苒	-15136
苻	-15137
茉	-15138
荃	-15139
莒	-15140
莶	-15141
菠	-15142
萁	-15143
萦	-15144
葵	-15145
蒬	-15146
蔼	-15147
蕃	-15148
蕲	-15149
薜	-15150
薯	-15151
蘅	-15152
蘸	-15153
蚍	-15154
蚓	-15155
蚣	-15156
蚯	-15157
蚱	-15158
蛀	-15159
蛏	-15160
蛩	-15161
蛴	-15162
蛹	-15163
蜃	-15164
蜉	-15165
蜡	-15166
蝶	-15167
螟	-15168
蠊	-15169
蠓	-15170
蠹	-15171
衬	-15172
袍	-15173
袜	-15174
褂	-15175
褓	-15176
襁	-15177
讦	-15178
诃	-15179
诅	-15180
诰	-15181
诶	-15182
谥	-15183
豺	-15184
貉	-15185
贰	-15186
贲	-15187
赜	-15188
趾	-15189
跎	-15190
蹦	-15191
蹬	-15192
蹶	-15193
蹿	-15194
辫	-15195
逅	-15196
逡	-15197
逦	-15198
逵	-15199
逶	-15200
邂	-15201
邡	-15202
郄	-15203
郗	-15204
郴	-15205
鄣	-15206
酗	-15207
酩	-15208
酯	-15209
酰	-15210
醪	-15211
鍪	-15212
钣	-15213
钪	-15214
铣	-15215
锄	-15216
锕	-15217
镁	-15218
镰	-15219
阃	-15220
阄	-15221
阈	-15222
阒	-15223
雒	-15224
雳	-15225
霈	-15226
霎	-15227
霏	-15228
霹	-15229
靴	-15230
颅	-15231
颉	-15232
颡	-15233
颦	-15234
饔	-15235
馀	-15236
馅	-15237
馋	-15238
馍	-15239
馐	-15240
馦	-15241
騛	-15242
骛	-15243
骡	-15244
骼	-15245
髁	-15246
髅	-15247
髡	-15248
髯	-15249
魃	-15250
魉	-15251
鲂	-15252
鲆	-15253
鲨	-15254
鳞	-15255
鸥	-15256
鹄	-15257
鹆	-15258
鹘	-15259
麓	-15260
黝	-15261
黾	-15262
齑	-15263
龇	-15264
}	-15265
°	-15266
±	-15267
ò	-15268
ń	-15269
ū	-15270
ǖ	-15271
ǘ	-15272
ǚ	-15273
ɑ	-15274
ɡ	-15275
Σ	-15276
ι	-15277
σ	-15278
χ	-15279
В	-15280
Х	-15281
Ц	-15282
Ь	-15283
б	-15284
д	-15285
∨	-15286
∩	-15287
∮	-15288
∷	-15289
∽	-15290
≌	-15291
┑	-15292
┓	-15293
└	-15294
┕	-15295
┗	-15296
┙	-15297
┛	-15298
┨	-15299
┪	-15300
┬	-15301
┲	-15302
ぁ	-15303
げ	-15304
さ	-15305
し	-15306
せ	-15307
ぜ	-15308
ぞ	-15309
た	-15310
ち	-15311
っ	-15312
つ	-15313
に	-15314
ぶ	-15315
ァ	-15316
ケ	-15317
コ	-15318
ザ	-15319
ソ	-15320
ッ	-15321
ヒ	-15322
ブ	-15323
ㄆ	-15324
ㄋ	-15325
ㄌ	-15326
ㄐ	-15327
ㄔ	-15328
ㄜ	-15329
么	-15330
亃	-15331
亳	-15332
仞	-15333
伂	-15334
伉	-15335
伢	-15336
伲	-15337
俟	-15338
俪	-15339
俸	-15340
俺	-15341
倏	-15342
倔	-15343
偎	-15344
偬	-15345
偻	-15346
傣	-15347
傩	-15348
傺	-15349
僮	-15350
兔	-15351
兖	-15352
冽	-15353
凇	-15354
凵	-15355
刖	-15356
刨	-15357
剁	-15358
剐	-15359
劗	-15360
劭	-15361
匍	-15362
匏	-15363
匐	-15364
匚	-15365
卟	-15366
卤	-15367
卯	-15368
厩	-15369
厫	-15370
厶	-15371
叟	-15372
叽	-15373
吒	-15374
吖	-15375
吠	-15376
吡	-15377
吤	-15378
吩	-15379
呃	-15380
呱	-15381
呲	-15382
呶	-15383
呷	-15384
咂	-15385
咆	-15386
咋	-15387
咙	-15388
咝	-15389
咦	-15390
咧	-15391
咴	-15392
哎	-15393
哝	-15394
哧	-15395
哿	-15396
唔	-15397
唳	-15398
啋	-15399
啼	-15400
喟	-15401
嗄	-15402
嗌	-15403
嗑	-15404
嗓	-15405
嗤	-15406
嗬	-15407
嗲	-15408
嗾	-15409
嘞	-15410
嘣	-15411
噫	-15412
囉	-15413
囗	-15414
囤	-15415
圻	-15416
坍	-15417
坯	-15418
坳	-15419
坻	-15420
垢	-15421
垸	-15422
埂	-15423
埯	-15424
堇	-15425
堙	-15426
堻	-15427
墀	-15428
墼	-15429
夤	-15430
妃	-15431
妍	-15432
妞	-15433
妮	-15434
娄	-15435
娇	-15436
娉	-15437
娌	-15438
娶	-15439
婀	-15440
婵	-15441
媊	-15442
媸	-15443
嫠	-15444
嫦	-15445
嬷	-15446
孪	-15447
宄	-15448
宥	-15449
寅	-15450
寤	-15451
屉	-15452
屣	-15453
岜	-15454
岵	-15455
岿	-15456
峄	-15457
峋	-15458
峒	-15459
峪	-15460
崞	-15461
崤	-15462
崦	-15463
崧	-15464
崮	-15465
崽	-15466
崾	-15467
嵊	-15468
嵋	-15469
嵝	-15470
嵩	-15471
嵯	-15472
帑	-15473
帠	-15474
庰	-15475
庹	-15476
庾	-15477
弼	-15478
徙	-15479
忤	-15480
忻	-15481
忿	-15482
怐	-15483
怦	-15484
恲	-15485
悁	-15486
悯	-15487
愎	-15488
愦	-15489
憩	-15490
憪	-15491
懐	-15492
懮	-15493
懿	-15494
戊	-15495
戌	-15496
戟	-15497
戡	-15498
扌	-15499
扞	-15500
抡	-15501
拈	-15502
拮	-15503
挎	-15504
挞	-15505
挷	-15506
揖	-15507
搡	-15508
搴	-15509
摱	-15510
撵	-15511
撷	-15512
擢	-15513
敫	-15514
昉	-15515
昝	-15516
昵	-15517
晔	-15518
晾	-15519
暋	-15520
暹	-15521
暾	-15522
曛	-15523
曭	-15524
朕	-15525
杖	-15526
枇	-15527
枥	-15528
柰	-15529
栉	-15530
栓	-15531
桀	-15532
桢	-15533
桲	-15534
梫	-15535
椋	-15536
椎	-15537
椐	-15538
椰	-15539
椴	-15540
楔	-15541
楠	-15542
榖	-15543
榧	-15544
槊	-15545
槠	-15546
樗	-15547
樽	-15548
橇	-15549
橐	-15550
檀	-15551
檄	-15552
殡	-15553
毂	-15554
氡	-15555
氦	-15556
氪	-15557
氰	-15558
氻	-15559
汾	-15560
沔	-15561
泶	-15562
泸	-15563
洄	-15564
洌	-15565
洹	-15566
浃	-15567
浈	-15568
浒	-15569
浣	-15570
浬	-15571
涑	-15572
涟	-15573
涿	-15574
淦	-15575
淬	-15576
渫	-15577
湍	-15578
湔	-15579
溟	-15580
溧	-15581
漉	-15582
漍	-15583
漖	-15584
潇	-15585
潞	-15586
潸	-15587
澈	-15588
澍	-15589
濮	-15590
灏	-15591
灞	-15592
灸	-15593
炀	-15594
炯	-15595
烨	-15596
烬	-15597
烷	-15598
烹	-15599
焜	-15600
焱	-15601
煅	-15602
煜	-15603
煳	-15604
熄	-15605
熘	-15606
熹	-15607
燎	-15608
燧	-15609
爰	-15610
爹	-15611
牉	-15612
牳	-15613
犄	-15614
犊	-15615
犰	-15616
狯	-15617
狻	-15618
猕	-15619
猗	-15620
猩	-15621
猷	-15622
獠	-15623
獭	-15624
獾	-15625
玖	-15626
珀	-15627
珂	-15628
琥	-15629
琨	-15630
瑊	-15631
璩	-15632
瓣	-15633
瓥	-15634
甄	-15635
疱	-15636
疻	-15637
痍	-15638
痔	-15639
痘	-15640
瘸	-15641
癯	-15642
癸	-15643
皈	-15644
皉	-15645
皋	-15646
盅	-15647
盔	-15648
盚	-15649
眯	-15650
眳	-15651
眺	-15652
睅	-15653
瞑	-15654
瞗	-15655
瞪	-15656
瞵	-15657
矍	-15658
矸	-15659
砑	-15660
砟	-15661
砣	-15662
砩	-15663
砫	-15664
砰	-15665
砹	-15666
砾	-15667
硌	-15668
硖	-15669
碜	-15670
碾	-15671
磪	-15672
礴	-15673
礻	-15674
祫	-15675
禀	-15676
禨	-15677
秅	-15678
秆	-15679
秣	-15680
秪	-15681
秭	-15682
稆	-15683
稔	-15684
稞	-15685
稠	-15686
稹	-15687
穑	-15688
穻	-15689
窀	-15690
窖	-15691
窟	-15692
窭	-15693
窳	-15694
竁	-15695
笄	-15696
笈	-15697
笏	-15698
笤	-15699
笮	-15700
筐	-15701
筷	-15702
箎	-15703
箔	-15704
箝	-15705
箩	-15706
箫	-15707
篓	-15708
篣	-15709
篧	-15710
篫	-15711
簇	-15712
籼	-15713
粑	-15714
粘	-15715
糁	-15716
糇	-15717
糋	-15718
糌	-15719
糙	-15720
糨	-15721
糸	-15722
紘	-15723
綮	-15724
纗	-15725
纡	-15726
纨	-15727
纰	-15728
绒	-15729
绔	-15730
绛	-15731
绱	-15732
绲	-15733
绻	-15734
缌	-15735
缡	-15736
缫	-15737
缬	-15738
缰	-15739
缱	-15740
缶	-15741
罘	-15742
罟	-15743
羸	-15744
羹	-15745
翎	-15746
翮	-15747
翵	-15748
耆	-15749
聒	-15750
肄	-15751
肼	-15752
肾	-15753
胛	-15754
胰	-15755
胱	-15756
胼	-15757
脯	-15758
腋	-15759
腺	-15760
臬	-15761
舋	-15762
舨	-15763
舳	-15764
舻	-15765
艏	-15766
艟	-15767
芗	-15768
芮	-15769
苄	-15770
苈	-15771
苋	-15772
苎	-15773
苡	-15774
苣	-15775
茆	-15776
茌	-15777
茔	-15778
茠	-15779
荂	-15780
荚	-15781
荩	-15782
菏	-15783
菔	-15784
菟	-15785
菥	-15786
萏	-15787
萱	-15788
萸	-15789
萿	-15790
葶	-15791
葺	-15792
蒛	-15793
蔻	-15794
蕊	-15795
蕙	-15796
薏	-15797
薮	-15798
薰	-15799
薹	-15800
藜	-15801
蘩	-15802
虢	-15803
虬	-15804
蚊	-15805
蚋	-15806
蚕	-15807
蚖	-15808
蚜	-15809
蚝	-15810
蚤	-15811
蚪	-15812
蚰	-15813
蚺	-15814
蛄	-15815
蛔	-15816
蛘	-15817
蛟	-15818
蛰	-15819
蛾	-15820
蜈	-15821
蜒	-15822
蜗	-15823
蜿	-15824
蝎	-15825
蝼	-15826
螃	-15827
蟒	-15828
蟛	-15829
蟠	-15830
蠛	-15831
蠲	-15832
蠼	-15833
衩	-15834
衫	-15835
衲	-15836
袄	-15837
袟	-15838
袬	-15839
袶	-15840
袷	-15841
袸	-15842
裥	-15843
裱	-15844
裾	-15845
訾	-15846
謇	-15847
讧	-15848
讵	-15849
诎	-15850
诔	-15851
诖	-15852
诨	-15853
诳	-15854
诹	-15855
谂	-15856
谇	-15857
谕	-15858
谰	-15859
谳	-15860
豌	-15861
豚	-15862
貂	-15863
赘	-15864
赭	-15865
趸	-15866
跄	-15867
跖	-15868
跞	-15869
跤	-15870
跬	-15871
踝	-15872
蹉	-15873
蹊	-15874
蹩	-15875
躐	-15876
轶	-15877
轾	-15878
辎	-15879
辔	-15880
辶	-15881
迕	-15882
迤	-15883
逭	-15884
遄	-15885
遑	-15886
遛	-15887
遢	-15888
邅	-15889
邋	-15890
邑	-15891
邕	-15892
鄢	-15893
酚	-15894
酢	-15895
酲	-15896
醛	-15897
醯	-15898
釉	-15899
銋	-15900
鋋	-15901
錡	-15902
鎗	-15903
鏊	-15904
钋	-15905
钌	-15906
钍	-15907
钏	-15908
钗	-15909
钙	-15910
钚	-15911
钨	-15912
铆	-15913
铐	-15914
铢	-15915
铩	-15916
铬	-15917
锇	-15918
锌	-15919
锒	-15920
锓	-15921
锔	-15922
锛	-15923
锟	-15924
锰	-15925
镉	-15926
镣	-15927
镬	-15928
镶	-15929
闫	-15930
闳	-15931
闾	-15932
阆	-15933
阍	-15934
阕	-15935
阚	-15936
隹	-15937
雹	-15938
霭	-15939
霰	-15940
靘	-15941
鞔	-15942
鞲	-15943
鞳	-15944
韭	-15945
顒	-15946
颊	-15947
飒	-15948
飓	-15949
饣	-15950
饧	-15951
饬	-15952
馇	-15953
馊	-15954
馓	-15955
馕	-15956
馗	-15957
騞	-15958
骜	-15959
骞	-15960
髂	-15961
髌	-15962
髟	-15963
鬻	-15964
魈	-15965
鯣	-15966
鰴	-15967
鱿	-15968
鲈	-15969
鲋	-15970
鲎	-15971
鲤	-15972
鲫	-15973
鲲	-15974
鳄	-15975
鳍	-15976
鶱	-15977
鷌	-15978
鷞	-15979
鸩	-15980
鸫	-15981
鸲	-15982
鸷	-15983
鸸	-15984
鹅	-15985
鹋	-15986
鹌	-15987
鹑	-15988
鹪	-15989
鹬	-15990
麝	-15991
鼍	-15992
鼙	-15993
鼬	-15994
齯	-15995
龆	-15996
龈	-15997
龊	-15998
