<unk>	0
▁t	-0
▁a	-1
in	-2
▁th	-3
▁the	-4
on	-5
re	-6
▁s	-7
▁c	-8
en	-9
▁o	-10
er	-11
at	-12
nd	-13
▁p	-14
▁,	-15
it	-16
es	-17
▁w	-18
an	-19
▁and	-20
is	-21
▁of	-22
or	-23
ing	-24
▁.	-25
ion	-26
▁in	-27
al	-28
ed	-29
▁f	-30
▁b	-31
▁m	-32
▁h	-33
ar	-34
ent	-35
ic	-36
▁d	-37
▁to	-38
ou	-39
le	-40
▁re	-41
om	-42
ation	-43
ve	-44
as	-45
▁e	-46
▁n	-47
il	-48
▁st	-49
▁"	-50
ly	-51
ct	-52
▁ch	-53
ro	-54
▁g	-55
▁u	-56
st	-57
ment	-58
▁be	-59
▁l	-60
op	-61
▁de	-62
id	-63
ce	-64
▁-	-65
▁is	-66
th	-67
▁on	-68
▁for	-69
ur	-70
ol	-71
ad	-72
▁con	-73
▁chin	-74
im	-75
ut	-76
ir	-77
ch	-78
▁'	-79
ig	-80
▁that	-81
ver	-82
ter	-83
ul	-84
ies	-85
▁pro	-86
se	-87
▁com	-88
res	-89
ill	-90
ot	-91
et	-92
ld	-93
▁al	-94
ci	-95
▁it	-96
ra	-97
▁china	-98
▁we	-99
▁as	-100
ang	-101
ith	-102
nt	-103
▁j	-104
▁with	-105
▁ex	-106
▁sh	-107
ate	-108
▁wh	-109
vel	-110
ort	-111
ong	-112
ist	-113
▁v	-114
▁at	-115
▁he	-116
▁ha	-117
ive	-118
▁ne	-119
art	-120
ity	-121
ow	-122
▁y	-123
▁pe	-124
▁su	-125
▁cou	-126
▁r	-127
▁ma	-128
em	-129
▁ta	-130
▁an	-131
ers	-132
▁se	-133
ore	-134
if	-135
▁has	-136
and	-137
ations	-138
velop	-139
▁will	-140
▁this	-141
▁develop	-142
un	-143
▁un	-144
est	-145
▁le	-146
▁wor	-147
ay	-148
us	-149
▁im	-150
pe	-151
▁by	-152
▁are	-153
port	-154
ess	-155
▁have	-156
▁fr	-157
iz	-158
te	-159
con	-160
▁peop	-161
ary	-162
igh	-163
▁part	-164
▁sa	-165
ical	-166
ust	-167
▁people	-168
ant	-169
▁so	-170
end	-171
ous	-172
▁count	-173
▁comm	-174
▁go	-175
▁k	-176
ab	-177
▁1	-178
▁or	-179
ge	-180
ther	-181
ie	-182
qu	-183
▁countr	-184
ese	-185
ould	-186
▁me	-187
iv	-188
▁not	-189
ational	-190
▁tai	-191
wan	-192
conom	-193
▁taiwan	-194
▁us	-195
▁econom	-196
▁res	-197
▁pr	-198
ain	-199
od	-200
▁ad	-201
os	-202
▁tr	-203
ip	-204
▁development	-205
▁rel	-206
▁pol	-207
cial	-208
ap	-209
▁new	-210
int	-211
ff	-212
ard	-213
cc	-214
▁all	-215
ult	-216
ction	-217
ear	-218
ure	-219
um	-220
▁from	-221
▁was	-222
▁chinese	-223
▁z	-224
▁year	-225
▁en	-226
ia	-227
ial	-228
▁ar	-229
▁pl	-230
ib	-231
▁their	-232
▁str	-233
▁out	-234
ance	-235
▁should	-236
ade	-237
▁cont	-238
▁:	-239
so	-240
▁op	-241
▁said	-242
▁ind	-243
▁work	-244
▁reg	-245
ress	-246
tern	-247
og	-248
ign	-249
▁unit	-250
ome	-251
ide	-252
ud	-253
am	-254
▁its	-255
▁comp	-256
orm	-257
ue	-258
ke	-259
▁also	-260
ions	-261
▁party	-262
▁up	-263
▁co	-264
▁tw	-265
reat	-266
ian	-267
▁ag	-268
▁economic	-269
ere	-270
▁exp	-271
▁two	-272
▁imp	-273
▁ab	-274
ight	-275
ast	-276
ates	-277
ities	-278
ated	-279
gh	-280
▁relations	-281
fic	-282
vern	-283
▁cent	-284
▁pres	-285
ments	-286
▁te	-287
▁countries	-288
▁govern	-289
oc	-290
rou	-291
ace	-292
▁inc	-293
ious	-294
form	-295
ence	-296
king	-297
ces	-298
eration	-299
▁2	-300
du	-301
▁our	-302
▁ent	-303
ich	-304
▁la	-305
ident	-306
▁man	-307
▁state	-308
all	-309
pr	-310
ish	-311
▁bet	-312
▁acc	-313
▁one	-314
▁can	-315
▁united	-316
oint	-317
ep	-318
▁und	-319
ding	-320
ire	-321
▁fa	-322
▁att	-323
▁per	-324
▁dep	-325
▁sy	-326
▁import	-327
▁they	-328
el	-329
▁his	-330
00	-331
▁sup	-332
ilit	-333
ru	-334
▁over	-335
olog	-336
▁states	-337
▁under	-338
we	-339
ect	-340
▁mar	-341
▁sp	-342
▁government	-343
▁milit	-344
ree	-345
▁lead	-346
ks	-347
▁li	-348
ice	-349
▁more	-350
ween	-351
▁between	-352
▁af	-353
▁sin	-354
age	-355
▁military	-356
▁iss	-357
▁spe	-358
▁national	-359
ans	-360
stem	-361
▁system	-362
▁eff	-363
▁been	-364
ry	-365
▁coop	-366
▁dis	-367
eng	-368
▁intern	-369
▁pre	-370
iang	-371
▁sec	-372
ual	-373
ime	-374
▁must	-375
▁qu	-376
▁int	-377
▁polit	-378
▁commit	-379
ine	-380
ens	-381
▁which	-382
pp	-383
lo	-384
▁rep	-385
▁zh	-386
ition	-387
▁mo	-388
▁world	-389
▁great	-390
▁there	-391
ific	-392
lic	-393
▁cons	-394
out	-395
▁social	-396
pt	-397
▁inv	-398
▁gu	-399
ization	-400
ren	-401
▁min	-402
ass	-403
▁meet	-404
ll	-405
▁who	-406
ound	-407
▁other	-408
ach	-409
ub	-410
▁fore	-411
▁act	-412
eral	-413
▁tech	-414
tee	-415
our	-416
▁fir	-417
▁country	-418
cent	-419
ber	-420
▁vis	-421
▁am	-422
▁cooperation	-423
▁bas	-424
▁x	-425
▁bec	-426
▁important	-427
▁ser	-428
▁political	-429
ced	-430
ms	-431
hip	-432
able	-433
iss	-434
▁president	-435
▁war	-436
ile	-437
▁high	-438
▁visit	-439
▁law	-440
ory	-441
▁do	-442
▁international	-443
▁after	-444
uc	-445
ility	-446
▁prom	-447
air	-448
▁ro	-449
very	-450
▁but	-451
▁foreign	-452
ral	-453
▁;	-454
▁inte	-455
▁no	-456
▁meeting	-457
▁techn	-458
▁jiang	-459
▁prov	-460
ons	-461
▁bo	-462
rough	-463
▁19	-464
▁were	-465
▁committee	-466
▁ev	-467
ural	-468
▁offic	-469
cip	-470
▁some	-471
▁enter	-472
▁years	-473
ac	-474
apan	-475
▁japan	-476
▁polic	-477
▁sit	-478
▁made	-479
ern	-480
uss	-481
▁org	-482
▁def	-483
▁only	-484
▁three	-485
ative	-486
▁central	-487
au	-488
land	-489
▁time	-490
ism	-491
▁point	-492
are	-493
▁bu	-494
cess	-495
fere	-496
lish	-497
▁how	-498
▁stren	-499
pect	-500
gth	-501
▁strength	-502
ag	-503
▁pers	-504
uring	-505
▁situ	-506
▁(	-507
pris	-508
ij	-509
ful	-510
▁first	-511
▁pos	-512
ense	-513
min	-514
▁mark	-515
▁technolog	-516
▁plan	-517
▁gen	-518
▁const	-519
ied	-520
ening	-521
▁enterpris	-522
▁dem	-523
▁br	-524
▁mem	-525
anding	-526
ides	-527
▁peace	-528
▁buil	-529
wn	-530
▁sci	-531
▁reform	-532
man	-533
gress	-534
ving	-535
ward	-536
ract	-537
ijing	-538
▁level	-539
▁promot	-540
▁beijing	-541
▁them	-542
▁region	-543
act	-544
▁adv	-545
▁into	-546
▁bus	-547
▁situation	-548
▁right	-549
▁contin	-550
ublic	-551
ict	-552
ble	-553
ao	-554
ert	-555
▁app	-556
▁trade	-557
▁ed	-558
pc	-559
▁car	-560
▁stra	-561
▁accor	-562
▁produ	-563
les	-564
ays	-565
ating	-566
▁market	-567
▁organ	-568
▁arm	-569
▁conc	-570
lement	-571
▁main	-572
reas	-573
▁prin	-574
▁effort	-575
▁than	-576
▁fin	-577
▁support	-578
▁these	-579
▁dif	-580
▁make	-581
old	-582
▁fe	-583
▁princip	-584
me	-585
ning	-586
▁had	-587
▁issue	-588
▁strait	-589
▁em	-590
▁dec	-591
▁about	-592
ose	-593
▁cult	-594
ved	-595
▁long	-596
▁through	-597
istr	-598
▁depart	-599
▁ra	-600
▁when	-601
▁chang	-602
▁fu	-603
▁secur	-604
▁such	-605
emin	-606
▁[	-607
▁]	-608
▁good	-609
▁)	-610
▁since	-611
▁hist	-612
▁invest	-613
▁ac	-614
iend	-615
▁again	-616
▁cor	-617
▁friend	-618
rest	-619
one	-620
▁cr	-621
▁est	-622
▁var	-623
▁real	-624
▁educ	-625
▁both	-626
▁impro	-627
▁cl	-628
▁hong	-629
▁indust	-630
▁zemin	-631
ateg	-632
▁policy	-633
ject	-634
ision	-635
▁aff	-636
ized	-637
▁form	-638
iew	-639
▁hu	-640
▁enterprises	-641
▁au	-642
▁sides	-643
▁ach	-644
▁leaders	-645
▁achie	-646
▁security	-647
hu	-648
ak	-649
chang	-650
▁increas	-651
▁stud	-652
ause	-653
▁pow	-654
ros	-655
▁maj	-656
ok	-657
▁fur	-658
▁ob	-659
▁strateg	-660
▁major	-661
▁during	-662
▁further	-663
▁various	-664
der	-665
▁efforts	-666
ross	-667
▁ter	-668
▁proble	-669
ablish	-670
▁establish	-671
▁air	-672
▁interest	-673
ures	-674
▁russ	-675
▁person	-676
day	-677
▁if	-678
ively	-679
▁defense	-680
ible	-681
▁would	-682
▁pract	-683
ai	-684
▁prop	-685
ret	-686
▁economy	-687
rain	-688
ors	-689
▁many	-690
▁exchang	-691
▁forces	-692
ise	-693
▁gr	-694
ution	-695
▁dire	-696
▁implement	-697
▁general	-698
▁ful	-699
ric	-700
▁fact	-701
ention	-702
▁public	-703
ung	-704
▁commun	-705
low	-706
ever	-707
bers	-708
▁ide	-709
▁building	-710
ents	-711
ury	-712
lect	-713
arly	-714
▁set	-715
uan	-716
ues	-717
▁repres	-718
ability	-719
ite	-720
▁cap	-721
▁tal	-722
▁own	-723
▁well	-724
▁stru	-725
ater	-726
▁199	-727
▁miss	-728
illion	-729
▁ext	-730
▁grou	-731
▁developing	-732
▁cad	-733
▁coun	-734
ics	-735
ough	-736
ost	-737
ister	-738
▁admin	-739
own	-740
▁still	-741
▁education	-742
▁sino	-743
▁hand	-744
▁century	-745
▁technology	-746
▁i	-747
arge	-748
▁according	-749
▁however	-750
cil	-751
ressed	-752
ality	-753
▁mod	-754
▁very	-755
▁resp	-756
ruction	-757
▁inst	-758
atic	-759
▁hum	-760
vers	-761
sel	-762
▁fund	-763
▁3	-764
▁pointed	-765
red	-766
▁rights	-767
▁ke	-768
row	-769
ification	-770
ize	-771
▁kong	-772
▁ins	-773
av	-774
▁sc	-775
▁percent	-776
▁administr	-777
gg	-778
▁auth	-779
ft	-780
▁held	-781
epend	-782
▁q	-783
▁human	-784
▁independ	-785
▁sign	-786
▁today	-787
▁author	-788
▁members	-789
fore	-790
▁report	-791
▁even	-792
▁concern	-793
▁underst	-794
lud	-795
▁may	-796
▁become	-797
▁view	-798
▁minister	-799
cy	-800
▁secret	-801
▁principle	-802
▁bel	-803
▁partic	-804
▁power	-805
feren	-806
▁direct	-807
▁put	-808
▁cadres	-809
▁any	-810
▁chair	-811
▁order	-812
▁leg	-813
▁necess	-814
▁end	-815
▁sub	-816
▁xin	-817
▁cur	-818
ind	-819
ters	-820
▁present	-821
▁inter	-822
▁maint	-823
▁see	-824
▁last	-825
ted	-826
▁col	-827
▁cross	-828
▁interests	-829
▁?	-830
formation	-831
▁take	-832
▁what	-833
led	-834
▁you	-835
▁cpc	-836
▁zhu	-837
▁cond	-838
hua	-839
▁need	-840
▁bush	-841
▁result	-842
itions	-843
ack	-844
▁num	-845
erv	-846
▁construction	-847
▁loc	-848
▁being	-849
▁disc	-850
▁trans	-851
▁carry	-852
▁rev	-853
000	-854
▁fal	-855
ying	-856
▁recent	-857
urn	-858
ute	-859
ath	-860
▁conf	-861
ier	-862
▁respons	-863
▁rem	-864
▁affair	-865
cept	-866
▁stand	-867
nel	-868
ount	-869
rent	-870
lev	-871
▁chairman	-872
▁maintain	-873
▁group	-874
ting	-875
ety	-876
▁found	-877
▁hop	-878
▁resol	-879
▁achieve	-880
▁necessary	-881
▁condu	-882
▁sm	-883
ph	-884
▁while	-885
▁effect	-886
ually	-887
▁five	-888
▁requ	-889
▁council	-890
▁official	-891
▁against	-892
▁mass	-893
▁stability	-894
▁independence	-895
ield	-896
cing	-897
▁large	-898
▁most	-899
▁force	-900
▁joint	-901
▁strengthen	-902
▁now	-903
▁regard	-904
▁problems	-905
to	-906
▁affairs	-907
▁issues	-908
mental	-909
ief	-910
▁succ	-911
▁improve	-912
ings	-913
▁success	-914
ship	-915
▁includ	-916
▁grow	-917
ological	-918
ateral	-919
▁current	-920
▁provin	-921
▁activ	-922
leg	-923
▁past	-924
▁manage	-925
estern	-926
▁information	-927
▁5	-928
▁lo	-929
▁fut	-930
ilateral	-931
▁train	-932
▁every	-933
▁serious	-934
▁side	-935
▁authorities	-936
▁cas	-937
▁western	-938
▁departments	-939
gr	-940
eri	-941
ech	-942
▁mainland	-943
▁pur	-944
▁future	-945
ession	-946
▁areas	-947
▁army	-948
ked	-949
▁industr	-950
▁special	-951
ungong	-952
mit	-953
▁falungong	-954
▁use	-955
▁jo	-956
▁med	-957
▁japanese	-958
ling	-959
lear	-960
▁tas	-961
▁local	-962
▁same	-963
▁strategic	-964
▁way	-965
▁cour	-966
cond	-967
▁10	-968
▁ant	-969
ives	-970
▁modern	-971
zh	-972
ame	-973
▁science	-974
▁scient	-975
ily	-976
▁reun	-977
▁play	-978
▁fol	-979
ene	-980
▁secretary	-981
ves	-982
ference	-983
▁speech	-984
iod	-985
▁period	-986
▁history	-987
▁management	-988
ered	-989
▁follow	-990
▁because	-991
▁regul	-992
▁russia	-993
▁spir	-994
▁spirit	-995
iness	-996
▁strong	-997
▁nat	-998
▁those	-999
▁call	-1000
▁ann	-1001
▁comple	-1002
ided	-1003
▁deput	-1004
▁basic	-1005
ally	-1006
▁progress	-1007
▁product	-1008
par	-1009
iron	-1010
▁show	-1011
▁leading	-1012
ertain	-1013
▁xinhua	-1014
ov	-1015
▁wang	-1016
▁vice	-1017
▁wto	-1018
▁activities	-1019
▁prote	-1020
▁conduct	-1021
▁common	-1022
ways	-1023
▁meas	-1024
▁rec	-1025
▁equ	-1026
▁reunification	-1027
▁env	-1028
ricult	-1029
▁finan	-1030
▁promote	-1031
gu	-1032
ants	-1033
▁agricult	-1034
▁art	-1035
▁sol	-1036
▁democ	-1037
▁contr	-1038
▁contro	-1039
▁second	-1040
▁personnel	-1041
▁kn	-1042
▁number	-1043
▁role	-1044
▁ass	-1045
▁prof	-1046
ivers	-1047
▁making	-1048
ots	-1049
▁sou	-1050
▁training	-1051
ital	-1052
▁attend	-1053
ife	-1054
ously	-1055
iving	-1056
▁deep	-1057
arch	-1058
▁eu	-1059
anced	-1060
▁each	-1061
▁inf	-1062
▁just	-1063
imes	-1064
▁opening	-1065
▁certain	-1066
▁step	-1067
▁thin	-1068
ts	-1069
▁saf	-1070
▁project	-1071
▁far	-1072
▁financial	-1073
▁add	-1074
▁down	-1075
▁quest	-1076
▁nation	-1077
▁conditions	-1078
▁relev	-1079
▁sch	-1080
▁char	-1081
▁relevant	-1082
▁continue	-1083
▁forward	-1084
▁scientific	-1085
▁environ	-1086
▁beg	-1087
▁always	-1088
▁opp	-1089
ering	-1090
▁administration	-1091
▁chen	-1092
▁enh	-1093
▁4	-1094
▁lin	-1095
▁whole	-1096
ically	-1097
▁reach	-1098
ji	-1099
not	-1100
imin	-1101
▁friendly	-1102
▁four	-1103
▁congress	-1104
▁poss	-1105
▁ban	-1106
bal	-1107
▁organiz	-1108
irc	-1109
ord	-1110
▁study	-1111
▁bilateral	-1112
ctions	-1113
ensive	-1114
▁masses	-1115
▁comr	-1116
▁soci	-1117
▁weap	-1118
▁talks	-1119
▁histor	-1120
▁ur	-1121
▁glo	-1122
▁tib	-1123
▁rese	-1124
▁tibet	-1125
▁growth	-1126
▁require	-1127
▁ret	-1128
▁open	-1129
▁field	-1130
▁practice	-1131
▁appro	-1132
▁superv	-1133
get	-1134
ficult	-1135
▁process	-1136
▁difficult	-1137
▁among	-1138
▁serv	-1139
sp	-1140
ists	-1141
▁belie	-1142
▁continu	-1143
▁demand	-1144
▁yuan	-1145
ferent	-1146
read	-1147
▁respect	-1148
ources	-1149
▁quality	-1150
▁hel	-1151
▁toward	-1152
▁des	-1153
▁levels	-1154
▁experi	-1155
▁day	-1156
▁circ	-1157
▁expressed	-1158
▁prev	-1159
▁sum	-1160
▁asia	-1161
▁socialist	-1162
he	-1163
▁20	-1164
▁cannot	-1165
▁society	-1166
▁global	-1167
▁measures	-1168
▁him	-1169
▁struct	-1170
▁business	-1171
▁mat	-1172
ency	-1173
▁office	-1174
▁discuss	-1175
▁represent	-1176
ular	-1177
road	-1178
▁hard	-1179
▁promoting	-1180
rit	-1181
▁mother	-1182
▁ref	-1183
▁clo	-1184
▁mut	-1185
ird	-1186
▁npc	-1187
raft	-1188
vere	-1189
▁means	-1190
▁billion	-1191
▁tre	-1192
als	-1193
ior	-1194
▁investment	-1195
osed	-1196
▁help	-1197
ission	-1198
▁prem	-1199
▁attention	-1200
▁compet	-1201
ri	-1202
xt	-1203
▁ideological	-1204
ck	-1205
▁bene	-1206
▁missile	-1207
lom	-1208
hai	-1209
ui	-1210
arn	-1211
▁off	-1212
▁third	-1213
▁ph	-1214
▁mon	-1215
▁south	-1216
▁units	-1217
other	-1218
▁oper	-1219
▁dip	-1220
▁diplom	-1221
▁head	-1222
▁kore	-1223
▁like	-1224
▁member	-1225
▁systems	-1226
▁civ	-1227
▁nor	-1228
▁increase	-1229
▁another	-1230
▁rong	-1231
▁research	-1232
▁key	-1233
▁peng	-1234
▁city	-1235
▁civil	-1236
▁exchanges	-1237
▁represents	-1238
ices	-1239
iven	-1240
▁rest	-1241
portun	-1242
▁opportun	-1243
▁understanding	-1244
▁control	-1245
▁department	-1246
▁anti	-1247
▁funda	-1248
▁different	-1249
▁leadership	-1250
loy	-1251
men	-1252
▁fundamental	-1253
▁sur	-1254
▁industry	-1255
▁importance	-1256
▁exam	-1257
▁including	-1258
ale	-1259
▁tot	-1260
▁treat	-1261
,000	-1262
ruct	-1263
▁advanced	-1264
ken	-1265
▁compan	-1266
▁close	-1267
reh	-1268
▁adop	-1269
just	-1270
▁instit	-1271
itive	-1272
▁conference	-1273
erc	-1274
▁standing	-1275
uly	-1276
▁comb	-1277
▁friendship	-1278
▁strugg	-1279
▁pa	-1280
rupt	-1281
▁dom	-1282
▁expl	-1283
▁organization	-1284
▁pay	-1285
▁motherland	-1286
▁ele	-1287
▁life	-1288
alth	-1289
line	-1290
▁bring	-1291
▁ens	-1292
aking	-1293
▁before	-1294
▁developed	-1295
▁without	-1296
▁met	-1297
cific	-1298
ner	-1299
ained	-1300
▁compreh	-1301
▁rongji	-1302
▁vi	-1303
▁guang	-1304
▁full	-1305
▁basis	-1306
wor	-1307
▁ir	-1308
ately	-1309
▁repor	-1310
▁charact	-1311
utions	-1312
▁exerc	-1313
▁resources	-1314
its	-1315
thing	-1316
▁back	-1317
istry	-1318
▁eng	-1319
▁artic	-1320
▁peaceful	-1321
istics	-1322
▁premier	-1323
▁xia	-1324
prk	-1325
▁whe	-1326
▁democr	-1327
▁dprk	-1328
▁could	-1329
▁jun	-1330
▁standard	-1331
ibility	-1332
▁deputy	-1333
▁big	-1334
▁water	-1335
ness	-1336
▁reas	-1337
med	-1338
▁production	-1339
▁know	-1340
self	-1341
▁thus	-1342
eric	-1343
▁ministry	-1344
▁start	-1345
▁give	-1346
izing	-1347
▁americ	-1348
▁policies	-1349
▁environment	-1350
ently	-1351
▁historical	-1352
▁organizations	-1353
▁trad	-1354
▁rural	-1355
▁bl	-1356
▁cause	-1357
▁called	-1358
▁million	-1359
▁question	-1360
▁character	-1361
ged	-1362
▁results	-1363
▁incident	-1364
ds	-1365
▁commission	-1366
com	-1367
▁safe	-1368
ified	-1369
▁regional	-1370
▁russian	-1371
▁line	-1372
▁times	-1373
▁euro	-1374
▁neg	-1375
▁integr	-1376
unch	-1377
▁deleg	-1378
▁ap	-1379
iding	-1380
▁arr	-1381
▁agree	-1382
▁zhang	-1383
▁cre	-1384
▁say	-1385
▁inn	-1386
▁change	-1387
▁investig	-1388
▁achievements	-1389
▁read	-1390
▁exchange	-1391
▁her	-1392
▁theory	-1393
▁8	-1394
▁therefore	-1395
▁concerned	-1396
▁es	-1397
▁views	-1398
▁mutual	-1399
▁dr	-1400
▁legal	-1401
▁europe	-1402
ix	-1403
▁complete	-1404
lf	-1405
▁capital	-1406
▁technological	-1407
▁overall	-1408
▁position	-1409
▁did	-1410
▁occ	-1411
▁ca	-1412
▁thinking	-1413
▁signific	-1414
▁mor	-1415
▁whether	-1416
▁fully	-1417
▁shang	-1418
▁industrial	-1419
▁particip	-1420
▁arms	-1421
▁kind	-1422
ont	-1423
reme	-1424
▁opin	-1425
ient	-1426
▁weapons	-1427
▁democratic	-1428
▁armed	-1429
ush	-1430
▁nations	-1431
▁pop	-1432
▁early	-1433
▁never	-1434
▁total	-1435
ven	-1436
▁ties	-1437
▁turn	-1438
▁supervision	-1439
ared	-1440
▁strengthening	-1441
rect	-1442
▁cultural	-1443
selves	-1444
▁where	-1445
▁sever	-1446
chan	-1447
▁mid	-1448
▁shanghai	-1449
▁nuc	-1450
▁carr	-1451
▁hold	-1452
▁innov	-1453
▁space	-1454
▁mechan	-1455
ited	-1456
ived	-1457
▁article	-1458
▁modernization	-1459
▁struggle	-1460
▁pla	-1461
▁does	-1462
tle	-1463
▁laws	-1464
▁foundation	-1465
▁apr	-1466
▁possible	-1467
md	-1468
uch	-1469
▁east	-1470
▁sovere	-1471
▁jud	-1472
▁term	-1473
▁agricultural	-1474
atri	-1475
▁news	-1476
▁elect	-1477
ulation	-1478
▁del	-1479
▁nuclear	-1480
▁she	-1481
guard	-1482
▁emph	-1483
▁here	-1484
▁several	-1485
▁safeguard	-1486
▁task	-1487
▁diplomatic	-1488
▁course	-1489
ages	-1490
▁cle	-1491
thod	-1492
▁accord	-1493
▁6	-1494
ool	-1495
▁hope	-1496
▁land	-1497
▁domest	-1498
ceed	-1499
unic	-1500
ready	-1501
▁already	-1502
▁regulations	-1503
ove	-1504
▁then	-1505
▁method	-1506
▁changes	-1507
pl	-1508
gra	-1509
▁press	-1510
▁launch	-1511
▁few	-1512
▁peas	-1513
▁old	-1514
▁correct	-1515
▁lee	-1516
▁strategy	-1517
ouse	-1518
▁firm	-1519
▁taken	-1520
▁mac	-1521
▁increasing	-1522
ave	-1523
▁creat	-1524
▁$	-1525
used	-1526
▁fields	-1527
▁products	-1528
ised	-1529
▁plane	-1530
▁indic	-1531
▁sim	-1532
▁scale	-1533
▁territ	-1534
▁bre	-1535
ences	-1536
mp	-1537
▁domestic	-1538
▁officials	-1539
▁enhance	-1540
▁deal	-1541
▁stat	-1542
▁fam	-1543
▁account	-1544
▁enc	-1545
▁deter	-1546
▁univers	-1547
igor	-1548
▁tax	-1549
orial	-1550
▁following	-1551
▁val	-1552
inning	-1553
▁problem	-1554
▁consid	-1555
▁health	-1556
▁protect	-1557
▁cam	-1558
▁leader	-1559
▁contrib	-1560
▁tra	-1561
▁self	-1562
▁fl	-1563
▁comrade	-1564
▁structure	-1565
▁15	-1566
▁invol	-1567
▁cooper	-1568
▁regions	-1569
▁po	-1570
▁corrupt	-1571
▁grad	-1572
▁equip	-1573
▁positive	-1574
▁wel	-1575
▁stressed	-1576
▁shall	-1577
▁taking	-1578
▁responsible	-1579
▁able	-1580
▁separ	-1581
sh	-1582
▁tar	-1583
ordin	-1584
▁parties	-1585
▁get	-1586
pid	-1587
▁bure	-1588
ude	-1589
▁session	-1590
arm	-1591
▁21	-1592
alf	-1593
ock	-1594
▁par	-1595
▁come	-1596
pects	-1597
▁media	-1598
ium	-1599
▁beh	-1600
▁within	-1601
▁recently	-1602
▁7	-1603
▁reached	-1604
▁aut	-1605
▁hui	-1606
omp	-1607
▁once	-1608
▁rul	-1609
▁pass	-1610
▁object	-1611
oun	-1612
▁low	-1613
▁community	-1614
▁dial	-1615
▁july	-1616
▁small	-1617
ades	-1618
▁tro	-1619
▁stage	-1620
▁trend	-1621
▁better	-1622
▁higher	-1623
▁director	-1624
▁implementation	-1625
▁alth	-1626
▁command	-1627
▁although	-1628
▁responsibility	-1629
▁net	-1630
▁ensure	-1631
▁understand	-1632
▁mult	-1633
▁used	-1634
▁reason	-1635
lin	-1636
work	-1637
▁exist	-1638
▁fight	-1639
▁emb	-1640
▁progra	-1641
▁culture	-1642
▁test	-1643
▁return	-1644
▁espe	-1645
cially	-1646
▁rapid	-1647
▁redu	-1648
▁especially	-1649
▁bat	-1650
▁mean	-1651
▁oppos	-1652
▁strict	-1653
▁attended	-1654
ange	-1655
▁join	-1656
▁place	-1657
▁relig	-1658
olution	-1659
▁crimin	-1660
▁emphas	-1661
▁relationship	-1662
ase	-1663
▁foc	-1664
▁successful	-1665
▁chall	-1666
▁broad	-1667
▁mater	-1668
▁case	-1669
▁benef	-1670
▁export	-1671
ping	-1672
▁ago	-1673
▁established	-1674
▁crit	-1675
ising	-1676
▁school	-1677
xi	-1678
ignt	-1679
▁material	-1680
▁sovereignt	-1681
▁move	-1682
▁took	-1683
▁delegation	-1684
▁sovereignty	-1685
itude	-1686
▁organs	-1687
wh	-1688
▁workers	-1689
▁troop	-1690
▁carrying	-1691
▁province	-1692
istic	-1693
▁republic	-1694
▁asian	-1695
▁entire	-1696
olding	-1697
▁let	-1698
ential	-1699
▁inspe	-1700
▁summit	-1701
▁establishment	-1702
▁fre	-1703
aly	-1704
for	-1705
less	-1706
▁nmd	-1707
▁combat	-1708
▁north	-1709
erg	-1710
ood	-1711
▁200	-1712
▁post	-1713
▁yu	-1714
▁init	-1715
▁soon	-1716
▁addition	-1717
aran	-1718
▁based	-1719
▁themselves	-1720
▁job	-1721
▁owned	-1722
▁accordance	-1723
▁matter	-1724
iously	-1725
▁tasks	-1726
▁marx	-1727
oura	-1728
▁bian	-1729
▁cases	-1730
▁officers	-1731
come	-1732
▁related	-1733
▁viol	-1734
▁things	-1735
dle	-1736
▁shui	-1737
lu	-1738
▁aw	-1739
utely	-1740
▁extreme	-1741
▁abs	-1742
▁decision	-1743
▁revolution	-1744
avy	-1745
ick	-1746
▁teng	-1747
▁carried	-1748
ins	-1749
▁trust	-1750
▁attach	-1751
▁provide	-1752
bor	-1753
▁guaran	-1754
▁needs	-1755
▁prosp	-1756
ple	-1757
craft	-1758
▁feel	-1759
inton	-1760
▁clear	-1761
▁speed	-1762
▁clinton	-1763
▁projects	-1764
▁keep	-1765
▁rece	-1766
▁days	-1767
▁allow	-1768
▁administrative	-1769
rought	-1770
▁vigor	-1771
▁enterprise	-1772
ead	-1773
erity	-1774
▁peasants	-1775
ued	-1776
▁requirements	-1777
oss	-1778
rael	-1779
▁dest	-1780
▁israel	-1781
▁though	-1782
▁improving	-1783
▁pen	-1784
▁effective	-1785
▁dra	-1786
▁sen	-1787
▁working	-1788
ather	-1789
ensus	-1790
▁il	-1791
▁comprehensive	-1792
por	-1793
▁purp	-1794
▁given	-1795
▁india	-1796
▁sent	-1797
▁consci	-1798
▁tradition	-1799
▁next	-1800
▁greater	-1801
▁equipment	-1802
ploy	-1803
▁forum	-1804
▁inspection	-1805
▁dialog	-1806
▁propos	-1807
▁jia	-1808
▁middle	-1809
▁nature	-1810
ng	-1811
side	-1812
▁2000	-1813
ban	-1814
▁april	-1815
▁neigh	-1816
oy	-1817
▁lu	-1818
▁9	-1819
▁wish	-1820
▁short	-1821
ec	-1822
atives	-1823
▁house	-1824
▁socialism	-1825
▁march	-1826
▁create	-1827
▁threat	-1828
hold	-1829
gether	-1830
▁remar	-1831
▁believe	-1832
▁protection	-1833
ored	-1834
▁top	-1835
▁build	-1836
▁chief	-1837
▁industries	-1838
▁ty	-1839
▁facts	-1840
▁accomp	-1841
▁want	-1842
▁bureau	-1843
▁stress	-1844
▁actively	-1845
▁competition	-1846
▁contact	-1847
ail	-1848
ler	-1849
na	-1850
▁pal	-1851
▁area	-1852
▁target	-1853
ped	-1854
▁sal	-1855
▁consult	-1856
▁seriously	-1857
▁non	-1858
▁impact	-1859
▁tang	-1860
▁troops	-1861
▁rate	-1862
▁wei	-1863
▁expert	-1864
▁advant	-1865
▁together	-1866
▁significance	-1867
sw	-1868
▁lab	-1869
▁norm	-1870
▁learn	-1871
▁expand	-1872
▁proper	-1873
▁corruption	-1874
▁my	-1875
▁accept	-1876
▁service	-1877
▁characteristics	-1878
▁list	-1879
▁host	-1880
aff	-1881
▁aim	-1882
▁fail	-1883
thers	-1884
▁program	-1885
▁young	-1886
▁overse	-1887
▁conv	-1888
▁discip	-1889
▁groups	-1890
ned	-1891
antly	-1892
▁exercise	-1893
ony	-1894
▁less	-1895
▁influ	-1896
▁intens	-1897
▁sect	-1898
▁commer	-1899
▁company	-1900
▁reporter	-1901
▁agreement	-1902
▁along	-1903
▁prevent	-1904
▁provincial	-1905
▁wu	-1906
qing	-1907
▁spok	-1908
▁korean	-1909
▁class	-1910
▁overseas	-1911
▁principles	-1912
▁town	-1913
▁election	-1914
▁funds	-1915
▁aircraft	-1916
▁much	-1917
ledge	-1918
▁round	-1919
▁adjust	-1920
oti	-1921
ened	-1922
▁constit	-1923
▁express	-1924
▁extremely	-1925
adem	-1926
ulated	-1927
▁negoti	-1928
▁achieved	-1929
▁run	-1930
▁face	-1931
▁afric	-1932
▁distr	-1933
▁lib	-1934
▁west	-1935
▁academ	-1936
▁beginning	-1937
▁consensus	-1938
▁analy	-1939
▁outside	-1940
▁operations	-1941
▁av	-1942
▁div	-1943
▁macao	-1944
▁itself	-1945
iles	-1946
▁purs	-1947
▁using	-1948
▁sea	-1949
▁recon	-1950
▁governments	-1951
▁opportunity	-1952
isl	-1953
lit	-1954
▁1999	-1955
▁push	-1956
▁month	-1957
▁pacific	-1958
▁globalization	-1959
▁june	-1960
ending	-1961
▁grass	-1962
▁50	-1963
▁fun	-1964
▁appe	-1965
atriots	-1966
▁fourth	-1967
erous	-1968
▁asked	-1969
▁others	-1970
ify	-1971
▁criminal	-1972
mber	-1973
oney	-1974
▁links	-1975
ciation	-1976
▁american	-1977
empt	-1978
▁break	-1979
▁communist	-1980
▁implementing	-1981
ging	-1982
ppcc	-1983
▁doing	-1984
▁legisl	-1985
▁perform	-1986
oo	-1987
▁gradually	-1988
▁er	-1989
▁fav	-1990
▁increased	-1991
▁money	-1992
▁spokes	-1993
▁coordin	-1994
▁action	-1995
▁adopted	-1996
ell	-1997
▁mot	-1998
▁clearly	-1999
▁pat	-2000
▁willing	-2001
▁compatriots	-2002
ances	-2003
▁asse	-2004
▁vict	-2005
tees	-2006
▁prime	-2007
▁agriculture	-2008
▁eas	-2009
▁mom	-2010
▁qian	-2011
▁particular	-2012
jiang	-2013
▁internal	-2014
▁happ	-2015
▁points	-2016
medi	-2017
▁treaty	-2018
idence	-2019
▁cppcc	-2020
▁purpose	-2021
▁handling	-2022
▁mechanism	-2023
▁el	-2024
▁wen	-2025
▁asso	-2026
▁care	-2027
▁proc	-2028
▁above	-2029
▁circles	-2030
▁profound	-2031
isf	-2032
▁11	-2033
▁dist	-2034
ictions	-2035
▁encoura	-2036
ivid	-2037
▁nin	-2038
pected	-2039
▁center	-2040
▁ear	-2041
aring	-2042
▁experience	-2043
▁cooperative	-2044
▁amb	-2045
▁eth	-2046
▁yet	-2047
▁labor	-2048
▁light	-2049
▁moment	-2050
head	-2051
▁natural	-2052
▁palest	-2053
▁name	-2054
▁guarantee	-2055
iqu	-2056
▁aug	-2057
▁12	-2058
▁six	-2059
unicip	-2060
▁police	-2061
▁municip	-2062
aq	-2063
▁difficulties	-2064
ancing	-2065
atisf	-2066
ash	-2067
▁amount	-2068
ply	-2069
▁adh	-2070
▁ninth	-2071
▁focus	-2072
▁front	-2073
▁ess	-2074
▁cities	-2075
▁liu	-2076
▁attitude	-2077
▁half	-2078
ars	-2079
▁across	-2080
▁methods	-2081
put	-2082
▁bud	-2083
oping	-2084
▁staff	-2085
▁signed	-2086
▁operation	-2087
ev	-2088
▁30	-2089
▁sense	-2090
▁conducted	-2091
ron	-2092
zhi	-2093
istan	-2094
▁deng	-2095
▁gave	-2096
▁former	-2097
aged	-2098
over	-2099
▁interv	-2100
▁living	-2101
aster	-2102
▁warm	-2103
▁brief	-2104
▁assist	-2105
▁examin	-2106
▁opportunities	-2107
ula	-2108
▁sty	-2109
▁suff	-2110
▁shows	-2111
▁pub	-2112
▁acce	-2113
▁stop	-2114
▁remain	-2115
▁publish	-2116
ably	-2117
▁determin	-2118
onom	-2119
▁ren	-2120
▁autonom	-2121
▁knowledge	-2122
ty	-2123
den	-2124
▁enfor	-2125
▁favor	-2126
▁highly	-2127
ensively	-2128
▁iraq	-2129
▁grain	-2130
▁announ	-2131
▁visited	-2132
▁your	-2133
▁brought	-2134
▁!	-2135
▁oct	-2136
ten	-2137
gest	-2138
▁status	-2139
▁challeng	-2140
▁prepar	-2141
▁concept	-2142
mb	-2143
▁camp	-2144
▁reports	-2145
zhou	-2146
iting	-2147
▁planning	-2148
▁obs	-2149
▁innovation	-2150
▁traditional	-2151
▁gre	-2152
▁cra	-2153
▁korea	-2154
▁terms	-2155
▁religious	-2156
▁coll	-2157
▁went	-2158
ended	-2159
▁missiles	-2160
▁neighbor	-2161
▁prosperity	-2162
▁16	-2163
atch	-2164
▁guide	-2165
▁undert	-2166
▁peoples	-2167
▁regarding	-2168
ises	-2169
ogn	-2170
ton	-2171
▁maintaining	-2172
▁gra	-2173
▁court	-2174
▁issued	-2175
▁lat	-2176
▁sha	-2177
▁attempt	-2178
▁around	-2179
▁advance	-2180
▁comrades	-2181
ired	-2182
▁enj	-2183
▁sun	-2184
▁win	-2185
▁affect	-2186
▁opinion	-2187
▁committees	-2188
▁why	-2189
▁ground	-2190
▁answ	-2191
▁xiaoping	-2192
▁rok	-2193
itation	-2194
▁acceler	-2195
▁hon	-2196
▁urban	-2197
▁normal	-2198
uth	-2199
omen	-2200
ilities	-2201
▁practical	-2202
▁absol	-2203
▁island	-2204
▁sales	-2205
▁companies	-2206
cr	-2207
▁road	-2208
▁collect	-2209
▁decided	-2210
▁experts	-2211
▁specific	-2212
▁unity	-2213
▁healthy	-2214
▁sold	-2215
▁recogn	-2216
▁individ	-2217
▁dialogue	-2218
▁dut	-2219
▁income	-2220
▁population	-2221
ges	-2222
▁13	-2223
▁manner	-2224
▁discipline	-2225
▁university	-2226
▁goal	-2227
▁having	-2228
▁services	-2229
ats	-2230
▁vot	-2231
▁split	-2232
▁battle	-2233
ource	-2234
▁shen	-2235
isions	-2236
▁putin	-2237
▁reality	-2238
▁completely	-2239
▁home	-2240
▁spokesman	-2241
rely	-2242
▁repe	-2243
▁strive	-2244
ories	-2245
ularly	-2246
▁localities	-2247
▁dev	-2248
standing	-2249
oon	-2250
str	-2251
▁firmly	-2252
▁ability	-2253
▁counter	-2254
▁accession	-2255
▁standards	-2256
▁individual	-2257
▁truth	-2258
▁facing	-2259
▁18	-2260
lying	-2261
▁stable	-2262
▁deputies	-2263
▁effic	-2264
▁consist	-2265
up	-2266
▁feb	-2267
▁indicated	-2268
▁ran	-2269
▁continued	-2270
▁representatives	-2271
▁particularly	-2272
ology	-2273
▁done	-2274
▁investigation	-2275
▁ru	-2276
fect	-2277
▁going	-2278
▁marxism	-2279
▁bor	-2280
▁earn	-2281
▁led	-2282
▁bang	-2283
▁style	-2284
▁consum	-2285
kes	-2286
▁brit	-2287
▁fair	-2288
▁penins	-2289
▁saying	-2290
▁deg	-2291
▁contrad	-2292
▁challenges	-2293
atell	-2294
ggest	-2295
▁suggest	-2296
▁maintained	-2297
▁effectively	-2298
▁jan	-2299
▁exec	-2300
▁due	-2301
imate	-2302
▁illeg	-2303
▁quite	-2304
▁hongzhi	-2305
▁network	-2306
▁strictly	-2307
▁improvement	-2308
racy	-2309
atively	-2310
▁deploy	-2311
ison	-2312
ming	-2313
▁100	-2314
▁morning	-2315
▁european	-2316
▁mob	-2317
▁core	-2318
▁hopes	-2319
▁fighting	-2320
▁statement	-2321
iter	-2322
▁initi	-2323
▁peninsula	-2324
▁ge	-2325
▁caused	-2326
▁negotiations	-2327
acy	-2328
▁bur	-2329
▁satisf	-2330
▁readjust	-2331
▁family	-2332
▁vigorously	-2333
az	-2334
mar	-2335
▁institutions	-2336
ners	-2337
ichen	-2338
▁tele	-2339
▁attack	-2340
ild	-2341
▁sl	-2342
▁destro	-2343
▁series	-2344
▁harm	-2345
▁conflic	-2346
▁repeated	-2347
▁territorial	-2348
▁cold	-2349
▁rich	-2350
▁demands	-2351
▁contacts	-2352
▁properly	-2353
▁union	-2354
▁objective	-2355
ody	-2356
oub	-2357
▁bal	-2358
▁fra	-2359
▁aggress	-2360
▁ut	-2361
▁employ	-2362
▁reforms	-2363
▁politics	-2364
ator	-2365
▁satell	-2366
▁pun	-2367
ferences	-2368
olid	-2369
▁tur	-2370
▁conscient	-2371
▁oil	-2372
▁draft	-2373
▁qichen	-2374
▁welcome	-2375
▁safeguarding	-2376
ifying	-2377
▁consider	-2378
ne	-2379
▁vill	-2380
▁seeking	-2381
lling	-2382
▁county	-2383
▁reporters	-2384
▁14	-2385
ember	-2386
▁gras	-2387
▁pros	-2388
iation	-2389
▁demon	-2390
▁plans	-2391
▁resolve	-2392
▁decl	-2393
▁solid	-2394
▁critic	-2395
▁persist	-2396
▁realize	-2397
▁noted	-2398
▁constantly	-2399
▁handle	-2400
▁influence	-2401
nam	-2402
ival	-2403
▁vol	-2404
▁da	-2405
▁lar	-2406
▁find	-2407
▁words	-2408
▁weak	-2409
▁demonstr	-2410
▁emphasized	-2411
▁came	-2412
▁teach	-2413
▁mainly	-2414
ority	-2415
ternoon	-2416
▁actual	-2417
▁afternoon	-2418
▁198	-2419
intao	-2420
ished	-2421
▁immedi	-2422
▁lim	-2423
▁event	-2424
▁started	-2425
▁students	-2426
iency	-2427
▁fire	-2428
▁greatly	-2429
▁17	-2430
ooth	-2431
▁bank	-2432
▁thor	-2433
▁bound	-2434
▁prior	-2435
▁contributions	-2436
▁cho	-2437
▁det	-2438
▁adopt	-2439
▁enjoy	-2440
▁jintao	-2441
▁direction	-2442
▁enem	-2443
▁look	-2444
▁tour	-2445
▁stock	-2446
▁august	-2447
▁opinions	-2448
▁prot	-2449
▁continuously	-2450
▁loss	-2451
▁evil	-2452
▁lies	-2453
idents	-2454
▁tian	-2455
iveness	-2456
▁enforce	-2457
▁example	-2458
▁currently	-2459
▁association	-2460
ober	-2461
▁chan	-2462
▁october	-2463
▁sing	-2464
▁certainly	-2465
▁ord	-2466
▁prc	-2467
▁jointly	-2468
▁commercial	-2469
▁ji	-2470
assad	-2471
▁began	-2472
▁ambassad	-2473
▁too	-2474
▁propag	-2475
▁throughout	-2476
iet	-2477
aper	-2478
▁defin	-2479
▁democracy	-2480
▁civilization	-2481
lia	-2482
lus	-2483
▁charge	-2484
▁den	-2485
▁seek	-2486
▁autonomous	-2487
ery	-2488
▁base	-2489
▁really	-2490
▁spiritual	-2491
lymp	-2492
▁cere	-2493
▁kinds	-2494
▁olymp	-2495
ume	-2496
▁ve	-2497
ames	-2498
fare	-2499
▁men	-2500
nic	-2501
▁km	-2502
▁deb	-2503
acity	-2504
▁dang	-2505
▁left	-2506
▁best	-2507
▁value	-2508
▁rather	-2509
▁confidence	-2510
▁sw	-2511
▁abroad	-2512
▁guo	-2513
▁generation	-2514
anda	-2515
▁jiax	-2516
▁qing	-2517
▁zhong	-2518
▁parlia	-2519
▁smooth	-2520
▁internet	-2521
▁sk	-2522
ians	-2523
▁fed	-2524
▁benefic	-2525
▁earnest	-2526
▁mind	-2527
mitted	-2528
▁proceed	-2529
▁reflect	-2530
▁integrity	-2531
▁ambassador	-2532
▁capability	-2533
▁concerning	-2534
tical	-2535
▁orig	-2536
▁ship	-2537
action	-2538
▁cheng	-2539
▁technical	-2540
▁accomplish	-2541
▁che	-2542
▁jian	-2543
▁vast	-2544
▁cerem	-2545
▁active	-2546
▁mission	-2547
▁upon	-2548
▁execut	-2549
▁provided	-2550
ond	-2551
▁fig	-2552
▁destroy	-2553
▁outstanding	-2554
▁ger	-2555
▁ethnic	-2556
▁markets	-2557
▁warfare	-2558
▁thorough	-2559
▁visiting	-2560
▁favorable	-2561
▁sust	-2562
▁rules	-2563
▁safety	-2564
▁directly	-2565
while	-2566
▁resolutely	-2567
mend	-2568
▁hoped	-2569
oke	-2570
▁fulf	-2571
▁studying	-2572
aging	-2573
▁heart	-2574
▁factors	-2575
erve	-2576
▁loo	-2577
▁infr	-2578
▁occur	-2579
iver	-2580
▁chi	-2581
▁doc	-2582
▁urg	-2583
▁raise	-2584
▁design	-2585
▁proced	-2586
▁procur	-2587
▁productive	-2588
▁think	-2589
▁consolid	-2590
aign	-2591
▁cris	-2592
▁learned	-2593
▁campaign	-2594
▁opposition	-2595
▁ways	-2596
▁communic	-2597
vey	-2598
▁stead	-2599
▁crisis	-2600
▁remarks	-2601
▁capacity	-2602
▁involved	-2603
aim	-2604
ger	-2605
rodu	-2606
▁inde	-2607
▁share	-2608
▁sound	-2609
ception	-2610
▁comput	-2611
▁closely	-2612
▁announced	-2613
▁dam	-2614
▁rad	-2615
▁weapon	-2616
▁heg	-2617
idance	-2618
▁orient	-2619
▁uphold	-2620
▁holding	-2621
▁meanwhile	-2622
ope	-2623
▁docu	-2624
urance	-2625
▁becom	-2626
▁hegem	-2627
▁origin	-2628
▁theore	-2629
▁fulfill	-2630
▁jiaxuan	-2631
▁reconna	-2632
▁received	-2633
▁published	-2634
▁advoc	-2635
▁white	-2636
▁guiding	-2637
▁meetings	-2638
▁partners	-2639
▁conscientiously	-2640
▁qual	-2641
▁entry	-2642
▁arrange	-2643
▁transport	-2644
▁bill	-2645
▁later	-2646
ei	-2647
ugg	-2648
▁shi	-2649
▁squ	-2650
icial	-2651
ither	-2652
▁paid	-2653
ines	-2654
▁aspects	-2655
▁invitation	-2656
▁experiences	-2657
ured	-2658
ouble	-2659
ulate	-2660
▁guidance	-2661
▁proposed	-2662
▁questions	-2663
▁differences	-2664
lood	-2665
▁bar	-2666
▁1998	-2667
▁obst	-2668
▁solve	-2669
▁supply	-2670
▁laid	-2671
▁sept	-2672
▁text	-2673
▁budget	-2674
▁municipal	-2675
▁september	-2676
▁efficiency	-2677
▁comprehensively	-2678
▁bom	-2679
round	-2680
▁applic	-2681
▁station	-2682
▁majority	-2683
iers	-2684
▁exc	-2685
hing	-2686
▁added	-2687
▁benefit	-2688
▁kim	-2689
▁log	-2690
▁poor	-2691
▁german	-2692
▁played	-2693
▁wars	-2694
▁eight	-2695
▁welcom	-2696
▁undertaking	-2697
oms	-2698
▁dece	-2699
▁sett	-2700
erving	-2701
▁distrib	-2702
▁elements	-2703
▁bid	-2704
▁introdu	-2705
▁ceremony	-2706
▁beneficial	-2707
iy	-2708
▁navy	-2709
▁depth	-2710
▁enemy	-2711
▁existing	-2712
▁increasingly	-2713
io	-2714
▁adhere	-2715
▁ce	-2716
▁changed	-2717
▁speaking	-2718
▁liberation	-2719
ased	-2720
▁dal	-2721
▁yes	-2722
▁stated	-2723
ented	-2724
▁farm	-2725
▁prec	-2726
▁occas	-2727
▁theoretical	-2728
▁wa	-2729
▁mao	-2730
▁smugg	-2731
▁became	-2732
▁structural	-2733
▁advantage	-2734
▁discussion	-2735
▁relatively	-2736
pri	-2737
▁gain	-2738
▁zhao	-2739
▁appoint	-2740
▁stip	-2741
▁freed	-2742
▁quick	-2743
▁serve	-2744
▁crimes	-2745
▁actually	-2746
▁territory	-2747
▁gl	-2748
uary	-2749
▁prim	-2750
bs	-2751
go	-2752
▁draw	-2753
▁frequ	-2754
▁largest	-2755
▁popular	-2756
▁tremend	-2757
▁reported	-2758
xs	-2759
▁avo	-2760
ament	-2761
▁energ	-2762
▁january	-2763
▁establishing	-2764
pec	-2765
▁free	-2766
▁personal	-2767
▁fle	-2768
▁fall	-2769
▁washing	-2770
dong	-2771
fully	-2772
▁ahead	-2773
ront	-2774
▁cru	-2775
▁illegal	-2776
wa	-2777
▁bra	-2778
▁pot	-2779
▁ever	-2780
▁writ	-2781
▁contradictions	-2782
iction	-2783
▁source	-2784
▁founding	-2785
▁insurance	-2786
▁tremendous	-2787
usi	-2788
▁idea	-2789
▁yong	-2790
▁attract	-2791
▁entered	-2792
▁judicial	-2793
▁24	-2794
husi	-2795
xing	-2796
▁child	-2797
▁enthusi	-2798
ests	-2799
▁pra	-2800
▁nove	-2801
▁model	-2802
▁arrived	-2803
▁november	-2804
▁washington	-2805
▁lan	-2806
▁agre	-2807
▁true	-2808
▁25	-2809
▁drive	-2810
▁yester	-2811
▁launched	-2812
▁successfully	-2813
aries	-2814
▁thought	-2815
▁yesterday	-2816
▁opt	-2817
▁pil	-2818
▁senior	-2819
▁mention	-2820
▁powerful	-2821
▁restruct	-2822
uted	-2823
arily	-2824
▁heavy	-2825
▁africa	-2826
▁functions	-2827
▁provinces	-2828
▁giving	-2829
▁immediately	-2830
▁har	-2831
▁jour	-2832
▁viet	-2833
▁visits	-2834
▁propert	-2835
▁attending	-2836
▁propaganda	-2837
▁constitution	-2838
zxs	-2839
▁simil	-2840
▁vietnam	-2841
▁elimin	-2842
sequ	-2843
▁imm	-2844
ruary	-2845
▁cust	-2846
▁hall	-2847
▁looking	-2848
▁subject	-2849
▁february	-2850
way	-2851
ique	-2852
▁stance	-2853
▁benefits	-2854
▁proposal	-2855
ivate	-2856
▁perfect	-2857
▁annivers	-2858
▁palestin	-2859
▁pressure	-2860
▁repeatedly	-2861
cell	-2862
▁sole	-2863
▁improved	-2864
▁interview	-2865
▁enforcement	-2866
val	-2867
▁facil	-2868
▁facilities	-2869
▁anniversary	-2870
hib	-2871
▁jin	-2872
▁told	-2873
▁circum	-2874
▁months	-2875
▁basically	-2876
itor	-2877
▁cit	-2878
point	-2879
▁seen	-2880
▁price	-2881
▁truly	-2882
▁review	-2883
▁actions	-2884
▁aggression	-2885
fer	-2886
▁dpp	-2887
▁unf	-2888
▁final	-2889
▁himself	-2890
▁telecom	-2891
▁guangdong	-2892
▁legislative	-2893
isc	-2894
▁red	-2895
▁yang	-2896
▁forth	-2897
▁raised	-2898
▁enhancing	-2899
br	-2900
▁lay	-2901
▁typ	-2902
▁trip	-2903
▁range	-2904
▁excell	-2905
▁powell	-2906
bo	-2907
▁23	-2908
▁197	-2909
ption	-2910
▁nearly	-2911
▁initiative	-2912
most	-2913
atory	-2914
▁repl	-2915
▁created	-2916
▁olympic	-2917
▁stresses	-2918
▁environmental	-2919
▁ris	-2920
▁hands	-2921
▁restr	-2922
▁resist	-2923
▁executive	-2924
ators	-2925
▁freedom	-2926
▁xu	-2927
▁won	-2928
▁essential	-2929
▁examination	-2930
uit	-2931
▁wr	-2932
▁energy	-2933
▁circumst	-2934
▁expanding	-2935
▁strengthened	-2936
centr	-2937
verage	-2938
▁subst	-2939
▁degree	-2940
▁sectors	-2941
▁concentr	-2942
▁prospects	-2943
▁bes	-2944
ishing	-2945
▁grand	-2946
▁soldiers	-2947
rug	-2948
▁aimed	-2949
▁death	-2950
▁ideas	-2951
▁channel	-2952
▁promoted	-2953
▁bro	-2954
▁ple	-2955
▁caus	-2956
▁grasp	-2957
mos	-2958
pir	-2959
▁80	-2960
▁coast	-2961
▁collision	-2962
per	-2963
▁drug	-2964
▁property	-2965
▁ec	-2966
▁fif	-2967
▁cost	-2968
▁dong	-2969
osp	-2970
jian	-2971
kind	-2972
▁citiz	-2973
▁depend	-2974
▁schools	-2975
▁targets	-2976
▁approval	-2977
▁conducting	-2978
▁22	-2979
▁team	-2980
▁agreed	-2981
▁planes	-2982
▁encourage	-2983
▁potential	-2984
▁educational	-2985
▁cut	-2986
▁tem	-2987
▁disp	-2988
▁mill	-2989
▁appre	-2990
▁dalai	-2991
▁belief	-2992
▁rapidly	-2993
▁date	-2994
▁behind	-2995
▁ruling	-2996
cive	-2997
ones	-2998
▁obt	-2999
▁figh	-3000
▁rule	-3001
▁purch	-3002
▁corpor	-3003
▁expected	-3004
▁absolutely	-3005
▁yi	-3006
▁stri	-3007
▁annual	-3008
▁select	-3009
▁exports	-3010
▁mankind	-3011
▁severe	-3012
▁residents	-3013
▁cub	-3014
munic	-3015
▁believed	-3016
▁electron	-3017
▁previous	-3018
▁telecommunic	-3019
eless	-3020
▁restructuring	-3021
▁ase	-3022
▁earth	-3023
through	-3024
▁breakthrough	-3025
sis	-3026
▁huge	-3027
▁talk	-3028
▁presidential	-3029
ires	-3030
phere	-3031
▁plen	-3032
▁lives	-3033
holding	-3034
▁border	-3035
▁instead	-3036
ension	-3037
▁submar	-3038
▁extensive	-3039
▁nationalities	-3040
ex	-3041
ems	-3042
zao	-3043
▁40	-3044
ivered	-3045
▁chong	-3046
▁thanks	-3047
▁separat	-3048
▁xinjiang	-3049
▁condition	-3050
▁delivered	-3051
▁communists	-3052
▁partnership	-3053
▁ku	-3054
▁yun	-3055
▁institute	-3056
▁circumstances	-3057
▁vo	-3058
iance	-3059
▁apec	-3060
▁away	-3061
▁type	-3062
▁superi	-3063
▁persons	-3064
▁appropri	-3065
▁confront	-3066
▁exchanged	-3067
▁nan	-3068
▁atmos	-3069
▁mobil	-3070
▁contract	-3071
▁division	-3072
rine	-3073
▁imper	-3074
▁reiter	-3075
▁content	-3076
▁conducive	-3077
▁preparations	-3078
▁pak	-3079
osing	-3080
▁longer	-3081
▁prices	-3082
ulations	-3083
▁similar	-3084
▁28	-3085
isms	-3086
▁lot	-3087
▁pred	-3088
▁displ	-3089
▁forms	-3090
▁tibetan	-3091
ined	-3092
ream	-3093
lection	-3094
▁victory	-3095
▁implemented	-3096
▁claim	-3097
issance	-3098
▁indian	-3099
▁smuggling	-3100
▁atmosphere	-3101
enced	-3102
▁hour	-3103
▁heads	-3104
▁advantages	-3105
by	-3106
use	-3107
▁hs	-3108
aled	-3109
roots	-3110
▁known	-3111
▁bangzao	-3112
▁becoming	-3113
▁pakistan	-3114
▁grassroots	-3115
ank	-3116
▁hot	-3117
▁2001	-3118
▁rect	-3119
▁medium	-3120
▁opened	-3121
▁situations	-3122
fe	-3123
▁26	-3124
▁appl	-3125
arters	-3126
▁cadre	-3127
▁powers	-3128
▁moreover	-3129
▁exercises	-3130
anch	-3131
▁ment	-3132
▁thing	-3133
▁square	-3134
▁earnestly	-3135
▁something	-3136
▁adjustment	-3137
▁parliament	-3138
angu	-3139
iment	-3140
▁crack	-3141
▁mag	-3142
▁poll	-3143
▁port	-3144
▁seven	-3145
▁trial	-3146
▁showed	-3147
▁nothing	-3148
▁kmt	-3149
▁zhou	-3150
▁newsp	-3151
▁comment	-3152
▁hegemon	-3153
▁representative	-3154
▁spoke	-3155
▁fujian	-3156
▁children	-3157
▁organized	-3158
▁profession	-3159
▁fel	-3160
▁obv	-3161
▁exceed	-3162
▁oppose	-3163
▁creating	-3164
▁protecting	-3165
▁reconnaissance	-3166
pow	-3167
▁ardu	-3168
▁tact	-3169
▁wife	-3170
▁deeply	-3171
▁balance	-3172
▁discussed	-3173
▁assistance	-3174
▁resolution	-3175
▁requirement	-3176
raph	-3177
resp	-3178
▁bringing	-3179
yang	-3180
▁unp	-3181
itable	-3182
▁telev	-3183
▁approach	-3184
▁township	-3185
▁path	-3186
▁scope	-3187
▁explor	-3188
▁spread	-3189
▁medical	-3190
und	-3191
rete	-3192
wide	-3193
▁cha	-3194
otian	-3195
▁fifth	-3196
▁frame	-3197
▁formal	-3198
▁concrete	-3199
▁supported	-3200
▁supporting	-3201
▁arrangements	-3202
▁1.	-3203
▁gap	-3204
▁cord	-3205
▁nato	-3206
▁guard	-3207
▁african	-3208
▁achieving	-3209
utes	-3210
▁soft	-3211
▁arduous	-3212
▁computer	-3213
▁satellite	-3214
▁inev	-3215
▁engage	-3216
▁besides	-3217
▁friends	-3218
▁palestinian	-3219
eds	-3220
▁mis	-3221
▁built	-3222
▁perman	-3223
▁procedures	-3224
▁27	-3225
▁1992	-3226
▁fine	-3227
atriot	-3228
▁coming	-3229
▁everything	-3230
▁independent	-3231
▁spr	-3232
astruct	-3233
▁complic	-3234
▁customs	-3235
▁studies	-3236
▁ensuring	-3237
▁deepening	-3238
▁infrastruct	-3239
▁ara	-3240
▁cordial	-3241
ites	-3242
▁ver	-3243
▁emerg	-3244
▁construct	-3245
aren	-3246
▁bad	-3247
▁nar	-3248
▁engine	-3249
▁resolved	-3250
▁treatment	-3251
▁continually	-3252
gos	-3253
▁phen	-3254
▁gener	-3255
itality	-3256
▁wishes	-3257
▁phenomen	-3258
▁transfer	-3259
▁unification	-3260
ps	-3261
ria	-3262
▁cal	-3263
▁devot	-3264
▁roots	-3265
▁britain	-3266
▁initial	-3267
▁definite	-3268
lines	-3269
▁1997	-3270
▁util	-3271
▁patriot	-3272
▁materials	-3273
▁providing	-3274
▁upholding	-3275
▁participate	-3276
ina	-3277
acks	-3278
grat	-3279
edong	-3280
▁reve	-3281
▁equal	-3282
▁congrat	-3283
▁display	-3284
▁reasons	-3285
▁analysis	-3286
ek	-3287
▁prep	-3288
▁practic	-3289
uf	-3290
▁0	-3291
cies	-3292
▁regular	-3293
▁rational	-3294
▁ministers	-3295
▁live	-3296
▁wide	-3297
▁super	-3298
▁embass	-3299
▁framework	-3300
▁television	-3301
▁ey	-3302
▁speak	-3303
▁assemb	-3304
▁multip	-3305
▁zedong	-3306
▁aid	-3307
▁unt	-3308
▁rise	-3309
▁schol	-3310
▁reduce	-3311
▁getting	-3312
▁include	-3313
hui	-3314
ork	-3315
▁sar	-3316
arent	-3317
▁says	-3318
▁places	-3319
▁allowed	-3320
▁haotian	-3321
ibilities	-3322
▁federation	-3323
ffic	-3324
▁lit	-3325
▁desp	-3326
▁games	-3327
▁assets	-3328
▁airport	-3329
▁growing	-3330
▁planned	-3331
▁ideology	-3332
▁permanent	-3333
▁coordination	-3334
llig	-3335
▁nav	-3336
▁duty	-3337
▁happy	-3338
▁passed	-3339
▁respon	-3340
▁sector	-3341
▁average	-3342
▁conclus	-3343
▁electronic	-3344
▁distribution	-3345
ih	-3346
ys	-3347
▁mr	-3348
▁era	-3349
aining	-3350
▁crime	-3351
▁remark	-3352
▁consumption	-3353
▁flow	-3354
▁kill	-3355
▁wrong	-3356
▁indeed	-3357
▁xiamen	-3358
▁starting	-3359
▁consideration	-3360
now	-3361
▁ul	-3362
ufact	-3363
ground	-3364
▁board	-3365
▁journ	-3366
▁parts	-3367
▁master	-3368
▁conting	-3369
▁finally	-3370
▁accompan	-3371
▁manufact	-3372
▁ecological	-3373
▁revolutionary	-3374
▁ko	-3375
▁san	-3376
▁york	-3377
ternal	-3378
▁formed	-3379
▁regards	-3380
▁historic	-3381
▁sustained	-3382
▁determined	-3383
aut	-3384
▁avoid	-3385
▁faced	-3386
▁huang	-3387
▁technologies	-3388
ane	-3389
▁gath	-3390
▁sens	-3391
▁primary	-3392
▁convention	-3393
▁significant	-3394
mn	-3395
▁sov	-3396
▁worth	-3397
▁consequ	-3398
▁december	-3399
▁mutually	-3400
▁deployment	-3401
▁honor	-3402
▁optim	-3403
▁approved	-3404
zhen	-3405
power	-3406
▁citizens	-3407
▁mechanisms	-3408
▁operational	-3409
▁transformation	-3410
enge	-3411
odies	-3412
▁israeli	-3413
▁infrastructure	-3414
uk	-3415
▁fo	-3416
▁ten	-3417
irmed	-3418
▁losses	-3419
▁contents	-3420
▁substant	-3421
▁slow	-3422
▁banks	-3423
▁ident	-3424
▁paper	-3425
▁expans	-3426
▁soviet	-3427
▁turned	-3428
▁embassy	-3429
▁conflicts	-3430
▁principal	-3431
▁complicated	-3432
dp	-3433
lav	-3434
ugh	-3435
uing	-3436
▁gang	-3437
goslav	-3438
▁asean	-3439
▁legit	-3440
▁might	-3441
▁quickly	-3442
▁unified	-3443
▁yugoslav	-3444
▁intensify	-3445
▁fac	-3446
▁doub	-3447
▁lack	-3448
▁behalf	-3449
▁deepen	-3450
▁supreme	-3451
▁governing	-3452
▁promotion	-3453
▁consultations	-3454
▁wid	-3455
▁shown	-3456
▁finance	-3457
▁generally	-3458
▁accelerate	-3459
izh	-3460
▁ii	-3461
iber	-3462
ograph	-3463
▁branch	-3464
▁punish	-3465
▁shrine	-3466
▁limited	-3467
▁village	-3468
▁feelings	-3469
▁expansion	-3470
▁reiterated	-3471
▁respectively	-3472
.5	-3473
▁lia	-3474
▁tend	-3475
▁greet	-3476
▁academy	-3477
▁produce	-3478
▁changing	-3479
▁agreements	-3480
▁statistics	-3481
ift	-3482
▁sus	-3483
▁extent	-3484
▁factor	-3485
▁record	-3486
▁spring	-3487
▁volume	-3488
▁journal	-3489
▁private	-3490
▁warning	-3491
▁everyone	-3492
▁negative	-3493
▁mentioned	-3494
▁realizing	-3495
▁communications	-3496
nan	-3497
sheng	-3498
▁inform	-3499
▁joining	-3500
▁precise	-3501
ien	-3502
▁letter	-3503
▁intellig	-3504
▁minority	-3505
▁challenge	-3506
▁institution	-3507
▁feat	-3508
▁lower	-3509
lled	-3510
▁shar	-3511
▁boost	-3512
▁famil	-3513
▁goods	-3514
▁pilot	-3515
ulating	-3516
▁choice	-3517
▁plenary	-3518
▁profess	-3519
▁academic	-3520
▁momentum	-3521
▁occasions	-3522
su	-3523
▁rej	-3524
▁ste	-3525
▁cover	-3526
▁talent	-3527
▁opposed	-3528
▁documents	-3529
▁legitimate	-3530
▁thoroughly	-3531
crib	-3532
▁wan	-3533
▁marked	-3534
▁trying	-3535
▁figures	-3536
▁diplomacy	-3537
▁aud	-3538
▁rat	-3539
field	-3540
▁chun	-3541
▁upgr	-3542
▁seize	-3543
▁wants	-3544
▁compar	-3545
▁elected	-3546
▁district	-3547
▁returned	-3548
uven	-3549
iscal	-3550
▁phil	-3551
employ	-3552
▁expect	-3553
▁opposing	-3554
▁application	-3555
guo	-3556
inent	-3557
▁setting	-3558
▁function	-3559
▁vitality	-3560
▁businessmen	-3561
▁ign	-3562
▁mer	-3563
verty	-3564
▁poverty	-3565
▁palestine	-3566
▁consistently	-3567
uo	-3568
▁aspect	-3569
▁assign	-3570
▁worked	-3571
▁precisely	-3572
▁resolving	-3573
▁securities	-3574
▁cro	-3575
▁rum	-3576
▁sud	-3577
▁wal	-3578
ading	-3579
▁resc	-3580
▁women	-3581
▁duties	-3582
▁flight	-3583
▁pattern	-3584
▁trouble	-3585
▁response	-3586
▁completed	-3587
▁conclusion	-3588
▁gun	-3589
asing	-3590
▁ming	-3591
▁cultiv	-3592
▁solemn	-3593
▁conclud	-3594
▁movement	-3595
▁reaching	-3596
▁employment	-3597
▁innovations	-3598
ware	-3599
▁vir	-3600
▁deeds	-3601
▁often	-3602
▁dealing	-3603
▁shenzhen	-3604
bod	-3605
huan	-3606
▁rely	-3607
▁lanqing	-3608
▁putting	-3609
▁sources	-3610
▁smoothly	-3611
▁participation	-3612
ake	-3613
thern	-3614
▁body	-3615
▁bomb	-3616
▁zeng	-3617
▁senate	-3618
▁crucial	-3619
▁keeping	-3620
▁discussions	-3621
isd	-3622
ror	-3623
ills	-3624
▁cambod	-3625
▁search	-3626
▁corresp	-3627
▁eastern	-3628
▁collective	-3629
▁age	-3630
▁ball	-3631
▁urged	-3632
▁fiscal	-3633
▁matters	-3634
▁proposals	-3635
gy	-3636
alu	-3637
▁rui	-3638
▁intel	-3639
▁convey	-3640
▁paying	-3641
▁engaged	-3642
▁germany	-3643
▁raising	-3644
▁greatest	-3645
▁treas	-3646
▁arrest	-3647
▁renmin	-3648
▁briefed	-3649
▁coastal	-3650
▁despite	-3651
ains	-3652
▁room	-3653
mitting	-3654
▁conven	-3655
▁defend	-3656
▁playing	-3657
▁assembly	-3658
▁consistent	-3659
▁intelligence	-3660
asm	-3661
▁ang	-3662
▁cred	-3663
▁enorm	-3664
▁height	-3665
▁pursue	-3666
▁failure	-3667
▁jul	-3668
▁mount	-3669
▁reserv	-3670
▁written	-3671
▁believes	-3672
▁requires	-3673
▁supervis	-3674
▁intellect	-3675
▁intention	-3676
ax	-3677
inan	-3678
▁leap	-3679
▁zheng	-3680
▁france	-3681
▁essence	-3682
▁explore	-3683
▁external	-3684
▁undertakings	-3685
▁crew	-3686
▁pace	-3687
▁clean	-3688
▁occup	-3689
▁numbers	-3690
▁occurred	-3691
▁priority	-3692
▁excellent	-3693
▁performance	-3694
hic	-3695
ulg	-3696
cast	-3697
cking	-3698
▁behav	-3699
▁langu	-3700
▁types	-3701
▁little	-3702
▁america	-3703
▁conform	-3704
▁speeches	-3705
▁americans	-3706
▁confrontation	-3707
cif	-3708
lig	-3709
▁rele	-3710
▁unre	-3711
▁accur	-3712
▁cults	-3713
▁plant	-3714
▁vehic	-3715
▁openly	-3716
▁sudden	-3717
▁justice	-3718
▁channels	-3719
▁mal	-3720
▁watch	-3721
▁analyz	-3722
▁expend	-3723
▁backward	-3724
▁commerce	-3725
▁supports	-3726
▁decisions	-3727
▁transform	-3728
▁practition	-3729
▁suggestions	-3730
▁intellectual	-3731
▁song	-3732
▁unpre	-3733
▁millen	-3734
▁running	-3735
▁required	-3736
▁recognize	-3737
▁stay	-3738
▁subs	-3739
▁apart	-3740
▁obstac	-3741
▁thanked	-3742
▁attached	-3743
▁expendit	-3744
▁enthusiasm	-3745
▁procurator	-3746
sec	-3747
stan	-3748
▁hero	-3749
overed	-3750
▁steps	-3751
▁likely	-3752
▁bearing	-3753
▁british	-3754
▁evening	-3755
▁practices	-3756
▁readjustment	-3757
▁han	-3758
aters	-3759
▁lear	-3760
▁votes	-3761
▁remains	-3762
▁commander	-3763
▁aust	-3764
▁rein	-3765
▁aspir	-3766
▁declar	-3767
▁enhanced	-3768
▁learning	-3769
▁numerous	-3770
▁submitted	-3771
▁eman	-3772
▁webs	-3773
▁worr	-3774
▁hours	-3775
▁night	-3776
▁xiang	-3777
▁urgent	-3778
▁rejuven	-3779
▁correctly	-3780
mine	-3781
omes	-3782
▁cab	-3783
inary	-3784
▁acts	-3785
▁imposs	-3786
cedented	-3787
▁extended	-3788
▁included	-3789
▁regiment	-3790
▁definitely	-3791
▁unprecedented	-3792
reg	-3793
urs	-3794
▁ill	-3795
▁feng	-3796
asters	-3797
▁output	-3798
atically	-3799
▁compared	-3800
▁impossible	-3801
▁provisions	-3802
east	-3803
arian	-3804
▁race	-3805
ousand	-3806
▁extra	-3807
▁flood	-3808
theless	-3809
▁hainan	-3810
▁winning	-3811
▁thousand	-3812
▁involving	-3813
▁multilateral	-3814
▁transportation	-3815
▁cand	-3816
▁jing	-3817
▁zone	-3818
▁failed	-3819
▁specif	-3820
▁emancip	-3821
▁conflict	-3822
▁prevention	-3823
enth	-3824
▁yas	-3825
erted	-3826
ndred	-3827
▁emer	-3828
▁link	-3829
▁mist	-3830
▁yuxi	-3831
▁ended	-3832
▁holds	-3833
▁ready	-3834
▁topic	-3835
▁hundred	-3836
▁marxist	-3837
▁strongly	-3838
▁1,	-3839
▁inh	-3840
emical	-3841
▁capable	-3842
▁briefing	-3843
▁enormous	-3844
▁scholars	-3845
down	-3846
know	-3847
▁gas	-3848
licit	-3849
▁tests	-3850
▁acknow	-3851
▁viewpoint	-3852
han	-3853
uni	-3854
▁pet	-3855
▁hosp	-3856
porary	-3857
▁measure	-3858
▁contingent	-3859
▁organizational	-3860
▁gone	-3861
▁bases	-3862
▁mayor	-3863
▁until	-3864
▁detail	-3865
▁competit	-3866
▁authority	-3867
▁dangerous	-3868
▁household	-3869
▁republican	-3870
▁engineering	-3871
▁hua	-3872
▁yan	-3873
▁1990	-3874
▁earl	-3875
▁rail	-3876
▁amend	-3877
▁beaut	-3878
▁candid	-3879
▁disput	-3880
▁forest	-3881
▁notice	-3882
▁declaration	-3883
▁integration	-3884
▁realization	-3885
bi	-3886
uel	-3887
▁29	-3888
iant	-3889
oman	-3890
uous	-3891
will	-3892
light	-3893
▁goes	-3894
▁oblig	-3895
▁sched	-3896
▁tried	-3897
▁answer	-3898
▁prompt	-3899
▁ruihuan	-3900
ets	-3901
▁ky	-3902
▁hit	-3903
▁near	-3904
▁minds	-3905
▁posts	-3906
▁civilian	-3907
ha	-3908
▁dat	-3909
▁sho	-3910
itled	-3911
onent	-3912
▁either	-3913
▁headed	-3914
▁headqu	-3915
▁honest	-3916
▁listed	-3917
▁invited	-3918
▁attaches	-3919
▁welcomed	-3920
▁orientation	-3921
oph	-3922
org	-3923
▁macro	-3924
mission	-3925
▁explicit	-3926
▁organize	-3927
▁unemploy	-3928
▁headquarters	-3929
unt	-3930
▁ho	-3931
ette	-3932
lebr	-3933
▁unc	-3934
ought	-3935
▁sell	-3936
▁allies	-3937
▁celebr	-3938
▁strike	-3939
▁accident	-3940
▁disputes	-3941
▁solution	-3942
▁weaponry	-3943
▁qualified	-3944
▁consultation	-3945
cient	-3946
▁1996	-3947
▁coal	-3948
▁accum	-3949
▁least	-3950
▁complex	-3951
▁judging	-3952
▁affected	-3953
▁equality	-3954
▁revealed	-3955
▁launching	-3956
▁practitioners	-3957
pei	-3958
look	-3959
▁vote	-3960
▁exhib	-3961
▁inside	-3962
▁regarded	-3963
▁committed	-3964
▁superiority	-3965
▁gdp	-3966
going	-3967
ukuni	-3968
▁acqu	-3969
▁symp	-3970
▁makes	-3971
version	-3972
▁agency	-3973
▁needed	-3974
▁rescue	-3975
▁facilit	-3976
▁ordinary	-3977
▁formulated	-3978
▁suc	-3979
▁try	-3980
▁stim	-3981
▁millenn	-3982
▁absolute	-3983
▁accounts	-3984
▁entitled	-3985
▁governor	-3986
▁advancing	-3987
▁personally	-3988
▁individuals	-3989
▁je	-3990
avor	-3991
▁iran	-3992
ichuan	-3993
idered	-3994
▁surely	-3995
▁causing	-3996
▁handled	-3997
▁possess	-3998
▁serving	-3999
▁succeed	-4000
▁reaction	-4001
▁determination	-4002
▁31	-4003
▁dead	-4004
▁felt	-4005
▁late	-4006
▁assum	-4007
▁guests	-4008
▁splitt	-4009
▁totally	-4010
▁produced	-4011
▁continuous	-4012
▁municipality	-4013
rog	-4014
▁195	-4015
▁abm	-4016
▁tan	-4017
▁brib	-4018
▁relax	-4019
▁sincere	-4020
▁turning	-4021
▁yasukuni	-4022
▁investors	-4023
▁ourselves	-4024
▁professor	-4025
▁accounting	-4026
▁considered	-4027
.2	-4028
augh	-4029
▁shu	-4030
▁gore	-4031
▁abide	-4032
▁theme	-4033
▁withd	-4034
▁almost	-4035
▁bodies	-4036
▁steady	-4037
▁neither	-4038
▁selling	-4039
▁expanded	-4040
▁neighborly	-4041
▁nevertheless	-4042
ky	-4043
jing	-4044
▁apply	-4045
▁arats	-4046
▁goals	-4047
▁sized	-4048
▁conserv	-4049
▁reduced	-4050
▁towards	-4051
▁accepted	-4052
▁presided	-4053
▁consolidate	-4054
▁corporation	-4055
ept	-4056
ntr	-4057
▁dro	-4058
▁wit	-4059
space	-4060
▁book	-4061
▁fest	-4062
▁food	-4063
▁moving	-4064
▁profits	-4065
▁alliance	-4066
▁battlefield	-4067
▁legislation	-4068
▁lif	-4069
▁quant	-4070
▁proved	-4071
▁airspace	-4072
▁overcome	-4073
▁theories	-4074
▁interfere	-4075
▁millennium	-4076
ivity	-4077
▁jiab	-4078
coming	-4079
icians	-4080
▁evalu	-4081
areness	-4082
atorial	-4083
▁guided	-4084
▁namely	-4085
▁austral	-4086
▁straits	-4087
▁activity	-4088
▁prepared	-4089
▁awareness	-4090
▁naturally	-4091
▁integrated	-4092
▁professional	-4093
▁ult	-4094
▁ves	-4095
icted	-4096
▁lost	-4097
▁arous	-4098
▁whose	-4099
▁jiabao	-4100
▁annette	-4101
▁sciences	-4102
▁separatist	-4103
▁settlement	-4104
ari	-4105
▁chung	-4106
▁daily	-4107
▁grant	-4108
▁image	-4109
▁river	-4110
▁insist	-4111
▁unable	-4112
▁vessel	-4113
▁emphasis	-4114
▁language	-4115
▁appropriate	-4116
shan	-4117
wise	-4118
works	-4119
▁chap	-4120
▁debt	-4121
cerity	-4122
▁alone	-4123
▁fruit	-4124
▁reven	-4125
▁attain	-4126
▁values	-4127
▁signing	-4128
▁spending	-4129
▁objectives	-4130
▁satellites	-4131
igr	-4132
▁gul	-4133
iques	-4134
▁cast	-4135
▁mess	-4136
orious	-4137
▁cabin	-4138
▁deliber	-4139
▁highest	-4140
▁thereby	-4141
▁teaching	-4142
ixed	-4143
▁quar	-4144
▁agend	-4145
▁youth	-4146
▁latest	-4147
▁terror	-4148
▁decades	-4149
▁positions	-4150
▁satisfied	-4151
▁sincerity	-4152
▁background	-4153
▁participating	-4154
iao	-4155
ring	-4156
ships	-4157
▁blue	-4158
▁clos	-4159
▁supp	-4160
▁word	-4161
▁enough	-4162
▁meaning	-4163
▁software	-4164
▁practicing	-4165
▁effectiveness	-4166
be	-4167
abil	-4168
isive	-4169
▁grat	-4170
▁hous	-4171
▁quan	-4172
▁domin	-4173
▁ancient	-4174
▁realized	-4175
▁correspon	-4176
▁gathering	-4177
bit	-4178
umi	-4179
▁defe	-4180
▁fees	-4181
▁root	-4182
▁summ	-4183
▁leave	-4184
▁multi	-4185
▁works	-4186
▁explos	-4187
▁appointed	-4188
▁economies	-4189
▁competitiveness	-4190
ione	-4191
wing	-4192
▁reb	-4193
agers	-4194
▁manif	-4195
▁pione	-4196
▁divers	-4197
▁original	-4198
▁logistics	-4199
▁newspaper	-4200
▁businesses	-4201
▁preventing	-4202
▁progressive	-4203
▁developments	-4204
let	-4205
▁ba	-4206
▁bon	-4207
izumi	-4208
▁autom	-4209
▁ranks	-4210
▁assess	-4211
▁reject	-4212
▁survey	-4213
▁biggest	-4214
▁koizumi	-4215
▁landing	-4216
▁peasant	-4217
▁promulg	-4218
▁profoundly	-4219
▁generations	-4220
▁instruction	-4221
.3	-4222
.7	-4223
bors	-4224
▁mos	-4225
▁pan	-4226
0,000	-4227
iable	-4228
icken	-4229
▁adap	-4230
▁begin	-4231
▁takes	-4232
▁enable	-4233
▁solving	-4234
abilities	-4235
▁behavior	-4236
▁operating	-4237
▁criticized	-4238
▁procuratorial	-4239
long	-4240
▁aer	-4241
▁fast	-4242
▁tell	-4243
encies	-4244
▁interp	-4245
▁waters	-4246
▁drought	-4247
▁frequent	-4248
▁stronger	-4249
▁investments	-4250
▁contribution	-4251
▁interference	-4252
ob	-4253
jun	-4254
ovo	-4255
▁qi	-4256
hong	-4257
olar	-4258
quet	-4259
▁lie	-4260
▁pntr	-4261
▁advis	-4262
▁agenda	-4263
▁artill	-4264
▁gained	-4265
▁owners	-4266
▁followers	-4267
▁yugoslavia	-4268
rep	-4269
ager	-4270
▁adm	-4271
▁kos	-4272
▁xiao	-4273
▁ying	-4274
▁blood	-4275
▁hence	-4276
▁latter	-4277
▁taipei	-4278
▁wealth	-4279
▁helping	-4280
▁monitor	-4281
▁request	-4282
▁withdra	-4283
▁attained	-4284
▁entering	-4285
▁hegemonism	-4286
▁participants	-4287
tt	-4288
▁kaz	-4289
where	-4290
▁loans	-4291
▁scene	-4292
▁bright	-4293
▁damage	-4294
▁explan	-4295
▁kosovo	-4296
▁inspect	-4297
▁sichuan	-4298
▁reducing	-4299
▁guangzhou	-4300
▁incidents	-4301
▁struggles	-4302
▁frequently	-4303
▁nationwide	-4304
hi	-4305
oto	-4306
ports	-4307
▁fier	-4308
▁kept	-4309
▁naval	-4310
▁victim	-4311
▁criminals	-4312
▁difficulty	-4313
akh	-4314
equ	-4315
organ	-4316
▁enab	-4317
▁gulf	-4318
▁kuom	-4319
▁surv	-4320
▁week	-4321
▁explo	-4322
▁surve	-4323
▁meters	-4324
▁motion	-4325
▁suffic	-4326
▁describ	-4327
▁exposed	-4328
▁militar	-4329
▁witness	-4330
▁oriented	-4331
▁eliminate	-4332
▁reception	-4333
▁competitive	-4334
.4	-4335
anxi	-4336
orge	-4337
▁arab	-4338
▁card	-4339
▁chec	-4340
▁tung	-4341
econom	-4342
intang	-4343
▁brill	-4344
▁colle	-4345
▁green	-4346
▁driving	-4347
▁reorgan	-4348
▁continuing	-4349
.6	-4350
▁esc	-4351
▁oce	-4352
▁rock	-4353
▁placed	-4354
▁appreci	-4355
▁banquet	-4356
▁claimed	-4357
lementary	-4358
▁steadily	-4359
▁stepping	-4360
▁regulation	-4361
aves	-4362
uses	-4363
▁coh	-4364
▁pain	-4365
▁sort	-4366
▁wind	-4367
▁vital	-4368
▁burden	-4369
▁condem	-4370
▁mainst	-4371
▁fighter	-4372
▁religion	-4373
▁neighbors	-4374
▁obviously	-4375
▁sanctions	-4376
▁kuomintang	-4377
.8	-4378
eg	-4379
ott	-4380
iful	-4381
idden	-4382
▁site	-4383
▁discl	-4384
▁spons	-4385
▁joined	-4386
▁shares	-4387
▁earlier	-4388
▁aviation	-4389
▁decisive	-4390
▁perspect	-4391
▁accompanied	-4392
▁corresponding	-4393
▁investigations	-4394
rem	-4395
▁dy	-4396
▁ask	-4397
▁sky	-4398
ature	-4399
enses	-4400
▁aband	-4401
▁drawn	-4402
▁heard	-4403
▁courts	-4404
▁extend	-4405
▁networks	-4406
▁suffered	-4407
▁artillery	-4408
▁cooperate	-4409
▁greetings	-4410
▁submarine	-4411
▁guangsheng	-4412
▁extensively	-4413
▁constructive	-4414
jie	-4415
ases	-4416
quis	-4417
apers	-4418
eping	-4419
verse	-4420
▁bear	-4421
▁cuba	-4422
▁belong	-4423
▁figure	-4424
▁forced	-4425
▁single	-4426
economic	-4427
▁ranking	-4428
▁dispatch	-4429
▁hospital	-4430
▁taxation	-4431
▁teachers	-4432
cks	-4433
ipp	-4434
▁bao	-4435
arted	-4436
▁tack	-4437
ounded	-4438
▁comes	-4439
▁moral	-4440
istence	-4441
ocation	-4442
▁adding	-4443
▁criter	-4444
▁emerged	-4445
▁fishing	-4446
▁outlook	-4447
▁concluded	-4448
oses	-4449
pped	-4450
▁touch	-4451
illance	-4452
▁banner	-4453
▁fairly	-4454
▁relief	-4455
▁carrier	-4456
▁relying	-4457
▁answered	-4458
▁instance	-4459
▁jianxing	-4460
▁respects	-4461
▁speeding	-4462
▁formation	-4463
▁municipalities	-4464
li	-4465
oll	-4466
wei	-4467
book	-4468
izes	-4469
rage	-4470
▁inj	-4471
apore	-4472
matic	-4473
▁amid	-4474
▁taxes	-4475
olation	-4476
portion	-4477
▁marria	-4478
▁stabil	-4479
▁commiss	-4480
▁tourism	-4481
▁document	-4482
▁formulate	-4483
▁singapore	-4484
▁expression	-4485
▁appreciation	-4486
▁surveillance	-4487
iary	-4488
rene	-4489
oning	-4490
▁1995	-4491
▁black	-4492
▁calls	-4493
▁indis	-4494
▁tight	-4495
▁acting	-4496
▁commod	-4497
▁disarm	-4498
▁kazakh	-4499
▁talked	-4500
▁cabinet	-4501
▁anything	-4502
▁fighters	-4503
▁eventually	-4504
▁manufacturing	-4505
tered	-4506
▁begun	-4507
▁risks	-4508
essions	-4509
▁associ	-4510
▁ideals	-4511
▁volunt	-4512
▁reserve	-4513
▁manifest	-4514
▁discovered	-4515
▁coordinated	-4516
▁disarmament	-4517
sy	-4518
lif	-4519
nian	-4520
yuan	-4521
▁luo	-4522
erated	-4523
requis	-4524
▁colon	-4525
▁appear	-4526
▁danger	-4527
▁excess	-4528
▁george	-4529
▁linked	-4530
▁sports	-4531
▁trends	-4532
▁feeling	-4533
▁critical	-4534
▁disaster	-4535
▁prerequis	-4536
▁stationed	-4537
▁guidelines	-4538
▁considerable	-4539
cow	-4540
rew	-4541
▁saw	-4542
▁note	-4543
▁burea	-4544
▁moved	-4545
▁obser	-4546
▁moscow	-4547
▁incomes	-4548
▁showing	-4549
▁concepts	-4550
▁severely	-4551
▁unremitting	-4552
▁consultative	-4553
.1	-4554
yu	-4555
oud	-4556
ull	-4557
aded	-4558
ining	-4559
▁prob	-4560
▁virt	-4561
▁belar	-4562
▁credit	-4563
▁wanted	-4564
▁chapter	-4565
▁nanjing	-4566
▁counties	-4567
▁declared	-4568
▁managing	-4569
▁criticism	-4570
▁prominent	-4571
▁prosperous	-4572
▁capabilities	-4573
▁cy	-4574
icul	-4575
▁300	-4576
▁got	-4577
▁zhe	-4578
▁blow	-4579
▁data	-4580
▁phys	-4581
▁vent	-4582
▁compl	-4583
▁towns	-4584
▁entrep	-4585
▁articles	-4586
▁families	-4587
▁ballistic	-4588
▁reasonable	-4589
▁vietnamese	-4590
▁rejuvenation	-4591
-1	-4592
ama	-4593
vert	-4594
▁hur	-4595
raint	-4596
▁burd	-4597
▁check	-4598
imately	-4599
ression	-4600
▁aroused	-4601
▁refused	-4602
▁traffic	-4603
▁beautiful	-4604
▁interpret	-4605
▁sincerely	-4606
▁sovereign	-4607
▁entreprene	-4608
▁submarines	-4609
emen	-4610
ibly	-4611
▁err	-4612
astic	-4613
rench	-4614
▁budd	-4615
▁doct	-4616
▁foot	-4617
▁heav	-4618
▁surf	-4619
▁block	-4620
▁categ	-4621
▁newly	-4622
▁proven	-4623
▁imperial	-4624
▁striving	-4625
▁exhibition	-4626
▁respective	-4627
▁intensified	-4628
▁investigate	-4629
jin	-4630
ibao	-4631
omin	-4632
▁rob	-4633
▁dism	-4634
▁love	-4635
▁judge	-4636
▁surpl	-4637
▁entoura	-4638
▁involve	-4639
▁pushing	-4640
▁website	-4641
▁appeared	-4642
▁purchase	-4643
▁remained	-4644
▁resource	-4645
▁chongqing	-4646
▁intermedi	-4647
▁satisfact	-4648
▁hy	-4649
akes	-4650
iled	-4651
▁entr	-4652
▁fish	-4653
▁gold	-4654
▁mori	-4655
▁depos	-4656
▁exact	-4657
▁petro	-4658
▁scored	-4659
▁warmly	-4660
▁burdens	-4661
▁stopped	-4662
▁tactics	-4663
▁sessions	-4664
▁brilliant	-4665
▁component	-4666
▁inevitable	-4667
▁accelerating	-4668
▁persistently	-4669
ya	-4670
iff	-4671
rom	-4672
▁60	-4673
▁king	-4674
▁bonds	-4675
▁conne	-4676
▁doubt	-4677
▁meant	-4678
▁moves	-4679
▁radio	-4680
▁tough	-4681
▁closer	-4682
▁farmers	-4683
▁reinfor	-4684
▁armament	-4685
▁constant	-4686
▁emergency	-4687
▁entourage	-4688
▁phenomena	-4689
▁reforming	-4690
▁unilateral	-4691
▁experienced	-4692
▁uk	-4693
ihood	-4694
▁appra	-4695
▁gradu	-4696
▁latin	-4697
▁imports	-4698
▁outline	-4699
▁renminbi	-4700
▁vehicles	-4701
▁broadcast	-4702
▁demonstrated	-4703
▁intervention	-4704
▁prerequisite	-4705
▁universities	-4706
▁macroeconomic	-4707
▁rectification	-4708
arr	-4709
etr	-4710
zen	-4711
▁ok	-4712
▁xi	-4713
irth	-4714
anmen	-4715
isdom	-4716
▁sure	-4717
▁vari	-4718
▁corps	-4719
▁livel	-4720
▁sharp	-4721
▁attacks	-4722
▁belarus	-4723
▁disclosed	-4724
▁obstacles	-4725
▁suggested	-4726
▁consequences	-4727
▁stipulations	-4728
▁successively	-4729
▁institutional	-4730
▁bold	-4731
▁flex	-4732
▁nine	-4733
▁zhen	-4734
ailand	-4735
enance	-4736
▁exert	-4737
igation	-4738
▁double	-4739
▁wisdom	-4740
ignation	-4741
▁talking	-4742
▁wannian	-4743
▁chemical	-4744
▁marriage	-4745
▁thailand	-4746
liferation	-4747
▁perspective	-4748
rs	-4749
▁hi	-4750
anim	-4751
▁magn	-4752
▁mine	-4753
▁tong	-4754
▁chile	-4755
▁receive	-4756
▁sustain	-4757
▁carefully	-4758
▁disasters	-4759
▁pollution	-4760
qi	-4761
▁bi	-4762
ocol	-4763
▁qiy	-4764
izhou	-4765
▁batt	-4766
▁diss	-4767
▁eyes	-4768
▁seems	-4769
▁ships	-4770
▁fierce	-4771
▁unanim	-4772
▁hostile	-4773
▁partner	-4774
▁combined	-4775
▁obtained	-4776
▁separate	-4777
▁intercept	-4778
▁presented	-4779
▁tiananmen	-4780
.9	-4781
ark	-4782
you	-4783
▁70	-4784
▁ye	-4785
rote	-4786
▁mong	-4787
▁birth	-4788
▁schem	-4789
▁wrote	-4790
istered	-4791
▁courage	-4792
▁protest	-4793
▁protocol	-4794
▁vigorous	-4795
▁zhejiang	-4796
▁confident	-4797
▁otherwise	-4798
▁punishment	-4799
▁controlling	-4800
▁maintenance	-4801
▁breakthroughs	-4802
-8	-4803
ipe	-4804
▁ts	-4805
aken	-4806
▁gao	-4807
▁sef	-4808
▁raid	-4809
▁unsw	-4810
acking	-4811
itably	-4812
▁arena	-4813
▁liter	-4814
▁recru	-4815
▁yield	-4816
▁profit	-4817
izations	-4818
▁prefect	-4819
▁revenue	-4820
▁revised	-4821
▁surplus	-4822
▁tension	-4823
▁arrested	-4824
▁features	-4825
▁provides	-4826
▁patriotic	-4827
▁proportion	-4828
▁unswerving	-4829
jik	-4830
ses	-4831
umn	-4832
▁ep	-4833
igil	-4834
▁aeg	-4835
▁tom	-4836
cious	-4837
▁brid	-4838
▁fixed	-4839
▁iraqi	-4840
▁ocean	-4841
▁tajik	-4842
▁vigil	-4843
▁unique	-4844
▁applied	-4845
▁festival	-4846
▁fruitful	-4847
▁withdraw	-4848
▁reflected	-4849
▁difference	-4850
▁explicitly	-4851
▁livelihood	-4852
▁recognized	-4853
▁concentrate	-4854
▁expenditure	-4855
ieh	-4856
yun	-4857
▁kil	-4858
▁argu	-4859
▁coex	-4860
▁doll	-4861
▁lose	-4862
▁false	-4863
▁ideal	-4864
▁items	-4865
▁exclus	-4866
▁prohib	-4867
▁trading	-4868
▁comments	-4869
▁invested	-4870
▁supervisory	-4871
▁unemployment	-4872
ita	-4873
sych	-4874
▁ende	-4875
▁jobs	-4876
▁psych	-4877
▁qiyue	-4878
▁anyone	-4879
▁appeal	-4880
▁causes	-4881
▁events	-4882
▁contain	-4883
▁circular	-4884
▁concerted	-4885
▁destroyed	-4886
▁publicity	-4887
▁introduced	-4888
ees	-4889
fang	-4890
quan	-4891
▁bit	-4892
▁dig	-4893
▁fan	-4894
▁jie	-4895
▁pie	-4896
▁flag	-4897
▁aegis	-4898
▁radar	-4899
▁resum	-4900
▁sixth	-4901
▁desire	-4902
▁funded	-4903
▁unions	-4904
▁observe	-4905
▁programs	-4906
▁punished	-4907
▁textbook	-4908
▁reduction	-4909
▁scientists	-4910
▁understood	-4911
▁entrepreneurs	-4912
cot	-4913
cked	-4914
text	-4915
tion	-4916
▁1993	-4917
▁fill	-4918
▁frank	-4919
▁input	-4920
▁killed	-4921
▁abandon	-4922
▁tendency	-4923
▁attracted	-4924
▁ownership	-4925
▁producing	-4926
▁violation	-4927
▁lea	-4928
riers	-4929
▁dign	-4930
▁fost	-4931
▁ones	-4932
▁susp	-4933
▁aware	-4934
▁parent	-4935
▁drawing	-4936
▁worried	-4937
▁goodwill	-4938
▁southern	-4939
▁mentality	-4940
ili	-4941
lam	-4942
▁cop	-4943
oring	-4944
uting	-4945
▁tide	-4946
▁okina	-4947
hearted	-4948
▁convin	-4949
▁mongol	-4950
▁narrow	-4951
▁bangguo	-4952
▁distort	-4953
▁stepped	-4954
▁surface	-4955
▁occasion	-4956
▁pursuing	-4957
▁relatives	-4958
▁splittist	-4959
▁inevitably	-4960
▁commitments	-4961
▁restrictions	-4962
▁procuratorate	-4963
ma	-4964
▁hwa	-4965
▁sil	-4966
rence	-4967
usted	-4968
▁iron	-4969
▁send	-4970
▁uphe	-4971
▁wing	-4972
▁dealt	-4973
▁faith	-4974
▁incor	-4975
▁lines	-4976
▁sheng	-4977
▁contem	-4978
▁saving	-4979
▁passing	-4980
▁philipp	-4981
▁answering	-4982
▁realistic	-4983
▁receiving	-4984
▁fundamentally	-4985
amed	-4986
body	-4987
iced	-4988
▁son	-4989
ience	-4990
usion	-4991
▁chee	-4992
▁loft	-4993
▁mini	-4994
▁spot	-4995
▁chance	-4996
▁mobile	-4997
▁charges	-4998
▁exactly	-4999
▁glorious	-5000
▁selected	-5001
▁processing	-5002
▁remarkable	-5003
▁politicians	-5004
uls	-5005
ague	-5006
▁arg	-5007
▁uns	-5008
▁lien	-5009
▁catch	-5010
▁debts	-5011
▁semin	-5012
itarian	-5013
▁flying	-5014
▁hearing	-5015
▁meticul	-5016
▁offices	-5017
▁section	-5018
▁demanded	-5019
▁reconcil	-5020
▁collection	-5021
▁destroyers	-5022
▁phenomenon	-5023
▁sufficient	-5024
▁journalists	-5025
aug	-5026
bed	-5027
rown	-5028
uled	-5029
▁196	-5030
▁hen	-5031
▁nov	-5032
▁1980	-5033
ultane	-5034
▁blind	-5035
▁expos	-5036
▁french	-5037
▁merely	-5038
▁simply	-5039
▁infring	-5040
▁obvious	-5041
condition	-5042
▁equipped	-5043
▁formalism	-5044
▁simultane	-5045
▁principled	-5046
▁possibility	-5047
▁mobilization	-5048
ney	-5049
feld	-5050
ples	-5051
▁easy	-5052
▁edit	-5053
▁pict	-5054
▁prag	-5055
▁rums	-5056
andong	-5057
loying	-5058
▁lofty	-5059
▁ribao	-5060
▁toler	-5061
▁suffer	-5062
▁travel	-5063
▁focused	-5064
▁liberal	-5065
▁studied	-5066
▁reflects	-5067
▁released	-5068
▁resolute	-5069
▁dialogues	-5070
▁indicates	-5071
▁contribute	-5072
▁everywhere	-5073
▁extraordin	-5074
▁statements	-5075
▁exploration	-5076
▁utilization	-5077
▁concentrated	-5078
▁participated	-5079
ik	-5080
agon	-5081
imum	-5082
ariat	-5083
▁1994	-5084
▁dise	-5085
▁fash	-5086
▁fear	-5087
▁fort	-5088
▁adapt	-5089
▁antic	-5090
▁delay	-5091
▁kejie	-5092
▁refer	-5093
▁helped	-5094
▁regret	-5095
▁topics	-5096
▁advocate	-5097
▁followed	-5098
▁rumsfeld	-5099
▁southeast	-5100
▁monitoring	-5101
▁communiques	-5102
▁parliamentary	-5103
ew	-5104
▁500	-5105
▁sac	-5106
▁ding	-5107
▁1,000	-5108
▁award	-5109
▁embod	-5110
▁inaug	-5111
▁monop	-5112
▁phase	-5113
▁mental	-5114
▁solved	-5115
▁tariff	-5116
▁college	-5117
▁fashion	-5118
▁follows	-5119
▁guangxi	-5120
▁praised	-5121
▁speaker	-5122
▁testing	-5123
▁vessels	-5124
▁cambodia	-5125
▁exception	-5126
▁sensitive	-5127
▁parliaments	-5128
▁substantive	-5129
▁specifically	-5130
▁dil	-5131
▁fil	-5132
▁gan	-5133
lined	-5134
▁bott	-5135
▁lect	-5136
▁remo	-5137
▁sale	-5138
▁arrog	-5139
▁defic	-5140
▁disap	-5141
▁drill	-5142
▁storm	-5143
▁dignity	-5144
▁urgency	-5145
▁concerns	-5146
▁cracking	-5147
▁exceeded	-5148
▁suddenly	-5149
▁talented	-5150
▁administer	-5151
▁congresses	-5152
▁proceeding	-5153
▁separately	-5154
▁neighboring	-5155
mc	-5156
xin	-5157
ghui	-5158
heres	-5159
▁feud	-5160
▁quot	-5161
▁capita	-5162
▁colleg	-5163
▁resett	-5164
▁sacred	-5165
▁skills	-5166
▁indones	-5167
▁install	-5168
▁lessons	-5169
▁straight	-5170
▁advocated	-5171
▁instructions	-5172
fa	-5173
emor	-5174
itch	-5175
▁fee	-5176
▁flo	-5177
▁anim	-5178
▁trig	-5179
▁broke	-5180
▁costs	-5181
▁tenth	-5182
▁famous	-5183
▁narcot	-5184
▁timely	-5185
▁federal	-5186
▁message	-5187
▁replace	-5188
▁autonomy	-5189
▁breaking	-5190
▁commemor	-5191
▁promptly	-5192
▁quantity	-5193
▁treasury	-5194
▁constitute	-5195
▁stipulated	-5196
▁emphatically	-5197
kyo	-5198
▁mu	-5199
iong	-5200
▁feas	-5201
▁mach	-5202
▁onto	-5203
▁rout	-5204
▁valu	-5205
itative	-5206
▁centers	-5207
▁parents	-5208
▁colonial	-5209
▁electric	-5210
▁shoulder	-5211
▁australia	-5212
▁conscious	-5213
▁continues	-5214
▁connection	-5215
▁discussing	-5216
▁multipolar	-5217
▁formulating	-5218
▁contemporary	-5219
▁communication	-5220
▁py	-5221
▁cmc	-5222
▁gor	-5223
▁tmd	-5224
▁gong	-5225
▁feudal	-5226
▁settle	-5227
▁decline	-5228
▁intense	-5229
▁adhering	-5230
▁engaging	-5231
▁includes	-5232
▁integrate	-5233
▁scheduled	-5234
▁witnessed	-5235
▁newspapers	-5236
▁officially	-5237
▁encouraging	-5238
▁enhancement	-5239
▁reconciliation	-5240
▁bey	-5241
▁len	-5242
▁hung	-5243
▁plat	-5244
urning	-5245
▁canad	-5246
▁wider	-5247
▁obtain	-5248
▁rising	-5249
▁slight	-5250
▁upheld	-5251
▁okinawa	-5252
▁farmland	-5253
▁pressing	-5254
▁accidents	-5255
▁imperative	-5256
▁kazakhstan	-5257
▁accelerated	-5258
-3	-5259
icts	-5260
ties	-5261
uits	-5262
erget	-5263
▁2008	-5264
▁guns	-5265
▁sacr	-5266
▁estim	-5267
▁heret	-5268
▁beyond	-5269
▁exists	-5270
▁sympos	-5271
▁bombing	-5272
▁energet	-5273
▁variety	-5274
▁revision	-5275
▁elections	-5276
▁coordinate	-5277
▁circulation	-5278
▁congressmen	-5279
▁obligations	-5280
nce	-5281
▁90	-5282
resh	-5283
▁don	-5284
▁eye	-5285
▁yos	-5286
zhong	-5287
icious	-5288
▁fraud	-5289
▁devote	-5290
▁listen	-5291
▁effects	-5292
▁motions	-5293
▁pleased	-5294
▁quanyou	-5295
ferential	-5296
▁colleges	-5297
▁geograph	-5298
▁liaoning	-5299
▁violated	-5300
▁editorial	-5301
▁symposium	-5302
▁undermine	-5303
▁immolation	-5304
▁percentage	-5305
▁tajikistan	-5306
▁humanitarian	-5307
▁preferential	-5308
ee	-5309
band	-5310
rich	-5311
▁tool	-5312
▁diver	-5313
▁rates	-5314
▁zones	-5315
entions	-5316
istical	-5317
▁models	-5318
▁served	-5319
▁returns	-5320
▁seminar	-5321
▁entirely	-5322
▁trillion	-5323
▁valuable	-5324
▁existence	-5325
▁upgrading	-5326
▁preserving	-5327
▁explanation	-5328
▁ministerial	-5329
▁wholehearted	-5330
▁congratulations	-5331
aps	-5332
oks	-5333
xic	-5334
▁kh	-5335
ilin	-5336
unei	-5337
whel	-5338
▁cher	-5339
lation	-5340
▁buddh	-5341
▁cuban	-5342
itively	-5343
▁argent	-5344
▁brunei	-5345
▁easily	-5346
▁enrich	-5347
▁hearts	-5348
▁wanton	-5349
▁finding	-5350
▁respond	-5351
▁overwhel	-5352
▁shortage	-5353
▁acknowled	-5354
▁splitting	-5355
▁thousands	-5356
▁specialized	-5357
▁sustainable	-5358
▁representing	-5359
bei	-5360
ida	-5361
iung	-5362
▁fry	-5363
▁hus	-5364
fered	-5365
overy	-5366
umping	-5367
▁upper	-5368
▁utmost	-5369
▁dismiss	-5370
▁jiangsu	-5371
▁passage	-5372
▁tianjin	-5373
▁typical	-5374
▁announce	-5375
▁contrary	-5376
▁purposes	-5377
▁surround	-5378
▁academies	-5379
▁assistant	-5380
▁accumulated	-5381
uck	-5382
arty	-5383
▁194	-5384
▁slo	-5385
▁genu	-5386
▁stre	-5387
▁exped	-5388
▁stood	-5389
▁looked	-5390
▁assigned	-5391
▁defensive	-5392
▁delegates	-5393
▁described	-5394
▁firepower	-5395
▁illegally	-5396
▁villagers	-5397
▁encouraged	-5398
▁destruction	-5399
▁interviewed	-5400
▁unanimously	-5401
▁psychological	-5402
-2	-5403
boo	-5404
▁ug	-5405
oral	-5406
tedly	-5407
using	-5408
▁knows	-5409
▁monet	-5410
▁prove	-5411
▁decide	-5412
▁teleph	-5413
▁undoub	-5414
▁genuine	-5415
▁leaving	-5416
▁pretext	-5417
▁theater	-5418
▁applying	-5419
▁worldwide	-5420
▁controlled	-5421
▁originally	-5422
▁undoubtedly	-5423
▁intensifying	-5424
▁civilizations	-5425
▁proliferation	-5426
ubei	-5427
▁hun	-5428
▁rid	-5429
▁seem	-5430
▁impet	-5431
▁shape	-5432
▁shift	-5433
ination	-5434
▁bribes	-5435
▁bridge	-5436
▁closed	-5437
▁forget	-5438
▁quarter	-5439
▁branches	-5440
▁distance	-5441
▁undermin	-5442
▁intensive	-5443
▁listening	-5444
▁returning	-5445
▁separated	-5446
▁positively	-5447
▁registered	-5448
▁formulation	-5449
▁nationality	-5450
▁substantial	-5451
▁expectations	-5452
▁reorganization	-5453
aw	-5454
ink	-5455
orn	-5456
iger	-5457
iling	-5458
▁cham	-5459
▁died	-5460
▁shoc	-5461
▁size	-5462
▁soul	-5463
icheng	-5464
▁fleet	-5465
▁liang	-5466
▁offer	-5467
▁track	-5468
▁voice	-5469
▁gorges	-5470
▁recall	-5471
▁seeing	-5472
▁serves	-5473
▁banking	-5474
▁calling	-5475
▁offered	-5476
▁prospect	-5477
▁offensive	-5478
▁accurately	-5479
▁achievement	-5480
▁coexistence	-5481
eu	-5482
▁35	-5483
tain	-5484
▁tie	-5485
▁plus	-5486
▁brand	-5487
▁unite	-5488
▁bureauc	-5489
▁denghui	-5490
▁deterior	-5491
▁missions	-5492
▁heretical	-5493
▁selection	-5494
▁welcoming	-5495
▁tao	-5496
▁zhi	-5497
▁cars	-5498
isance	-5499
▁admir	-5500
▁arrang	-5501
▁hidden	-5502
▁incomp	-5503
▁observ	-5504
▁orders	-5505
▁railway	-5506
▁shaanxi	-5507
▁conveyed	-5508
▁superior	-5509
▁commanding	-5510
▁expressing	-5511
▁promulgated	-5512
▁reconnaisance	-5513
10	-5514
une	-5515
▁ded	-5516
▁enl	-5517
▁sab	-5518
▁else	-5519
bright	-5520
▁batch	-5521
▁inner	-5522
▁whate	-5523
▁subsid	-5524
▁confron	-5525
▁pursued	-5526
▁victims	-5527
▁expenses	-5528
▁mistakes	-5529
▁obstruct	-5530
▁exclusive	-5531
▁guideline	-5532
▁successes	-5533
▁aspirations	-5534
▁secretariat	-5535
▁overwhelming	-5536
ingu	-5537
▁eld	-5538
▁ton	-5539
▁brig	-5540
▁risk	-5541
▁soil	-5542
▁dilig	-5543
▁medic	-5544
▁weather	-5545
▁allowing	-5546
▁hegemony	-5547
▁mongolia	-5548
▁shandong	-5549
▁cambodian	-5550
▁contracts	-5551
▁narcotics	-5552
▁creativity	-5553
▁designated	-5554
▁membership	-5555
▁publishing	-5556
▁investigated	-5557
mo	-5558
iar	-5559
ancy	-5560
inct	-5561
leum	-5562
right	-5563
▁guan	-5564
▁irre	-5565
▁judg	-5566
▁save	-5567
ospace	-5568
▁deeper	-5569
▁transp	-5570
▁assumed	-5571
▁depends	-5572
▁english	-5573
▁surpris	-5574
▁advances	-5575
▁informed	-5576
▁zhongnan	-5577
▁aerospace	-5578
▁amendment	-5579
▁crackdown	-5580
▁displayed	-5581
▁marketing	-5582
▁universal	-5583
▁vigilance	-5584
▁pioneering	-5585
▁separation	-5586
▁separatism	-5587
▁accomplished	-5588
iny	-5589
zhu	-5590
▁lh	-5591
▁buy	-5592
asion	-5593
iring	-5594
itime	-5595
▁laos	-5596
▁pill	-5597
▁plot	-5598
▁rush	-5599
▁scen	-5600
▁color	-5601
▁conce	-5602
▁maneu	-5603
▁plays	-5604
▁polar	-5605
▁waves	-5606
▁please	-5607
▁rivers	-5608
▁simple	-5609
▁careful	-5610
▁decreas	-5611
▁ordered	-5612
▁focusing	-5613
▁listened	-5614
▁maritime	-5615
▁monetary	-5616
▁platform	-5617
▁warships	-5618
▁whatever	-5619
▁adherence	-5620
▁restraint	-5621
▁facilitate	-5622
▁traditions	-5623
gyz	-5624
urd	-5625
etic	-5626
more	-5627
oked	-5628
▁fly	-5629
▁sad	-5630
▁yao	-5631
▁inse	-5632
▁ping	-5633
▁pled	-5634
▁turk	-5635
▁xing	-5636
▁access	-5637
▁corner	-5638
▁extrem	-5639
fficient	-5640
▁educate	-5641
▁affirmed	-5642
▁examined	-5643
▁survival	-5644
▁computers	-5645
▁inspected	-5646
▁sentenced	-5647
▁communique	-5648
▁zhongnanhai	-5649
▁36	-5650
hiro	-5651
▁tit	-5652
books	-5653
lfare	-5654
orrow	-5655
▁clar	-5656
▁glad	-5657
▁sake	-5658
▁tens	-5659
▁absor	-5660
▁anhui	-5661
▁disse	-5662
▁divor	-5663
▁mexic	-5664
▁setup	-5665
▁spent	-5666
▁hosted	-5667
▁seized	-5668
▁compens	-5669
▁evident	-5670
▁forever	-5671
▁welfare	-5672
▁consumer	-5673
▁formally	-5674
▁quarters	-5675
▁restrict	-5676
▁settling	-5677
▁explained	-5678
▁pragmatic	-5679
▁specially	-5680
▁aspiration	-5681
▁evaluation	-5682
▁exercising	-5683
▁mainstream	-5684
▁strategies	-5685
▁&	-5686
asa	-5687
▁ic	-5688
gypt	-5689
laim	-5690
licop	-5691
▁mode	-5692
▁setb	-5693
▁egypt	-5694
▁father	-5695
▁hardly	-5696
▁lesson	-5697
▁helicop	-5698
▁student	-5699
▁violence	-5700
▁petroleum	-5701
▁selecting	-5702
▁precondition	-5703
▁consolidating	-5704
▁wholeheartedly	-5705
ze	-5706
yal	-5707
▁az	-5708
omet	-5709
▁cod	-5710
▁tae	-5711
▁roles	-5712
▁steel	-5713
▁tense	-5714
▁tokyo	-5715
utation	-5716
▁yunnan	-5717
▁becomes	-5718
▁forming	-5719
▁impetus	-5720
▁patient	-5721
▁albright	-5722
▁designed	-5723
▁probably	-5724
▁reserves	-5725
▁tactical	-5726
▁defending	-5727
▁resulting	-5728
▁additional	-5729
▁excellency	-5730
▁performing	-5731
▁du	-5732
chun	-5733
olic	-5734
ores	-5735
▁alt	-5736
▁hin	-5737
▁kyr	-5738
▁hebei	-5739
▁match	-5740
▁errone	-5741
▁faster	-5742
▁servic	-5743
▁chaired	-5744
▁damaged	-5745
▁dialect	-5746
▁grounds	-5747
▁opposes	-5748
▁composed	-5749
▁mountain	-5750
▁northern	-5751
▁entrusted	-5752
▁expounded	-5753
▁innovative	-5754
▁transferred	-5755
▁intermediate	-5756
▁characteristic	-5757
▁simultaneously	-5758
ba	-5759
att	-5760
ils	-5761
oir	-5762
pro	-5763
ule	-5764
here	-5765
icks	-5766
rees	-5767
▁ease	-5768
▁flor	-5769
▁hear	-5770
▁ramp	-5771
▁sets	-5772
▁xian	-5773
▁arbit	-5774
▁daugh	-5775
▁falun	-5776
▁islam	-5777
▁limit	-5778
▁print	-5779
▁stern	-5780
▁defeat	-5781
▁handed	-5782
▁kyrgyz	-5783
▁settled	-5784
literated	-5785
▁magnific	-5786
▁publicly	-5787
▁stations	-5788
▁subordin	-5789
▁accepting	-5790
▁immediate	-5791
▁procedure	-5792
▁realities	-5793
▁terrorism	-5794
▁communities	-5795
▁delegations	-5796
ibian	-5797
ighth	-5798
▁burn	-5799
▁hang	-5800
▁rose	-5801
▁hotel	-5802
▁italy	-5803
▁rally	-5804
▁sabot	-5805
▁kilome	-5806
igration	-5807
▁arrival	-5808
▁disrupt	-5809
▁enjoyed	-5810
▁husband	-5811
▁payment	-5812
▁recovery	-5813
▁reliable	-5814
▁afterward	-5815
▁councilor	-5816
▁happiness	-5817
▁textbooks	-5818
▁publication	-5819
▁unswervingly	-5820
▁relationships	-5821
dam	-5822
wen	-5823
▁ze	-5824
born	-5825
▁irr	-5826
▁swe	-5827
▁tim	-5828
▁drag	-5829
▁seas	-5830
▁uses	-5831
▁henan	-5832
▁marks	-5833
▁10,000	-5834
▁motive	-5835
▁patent	-5836
▁rocket	-5837
▁voters	-5838
▁divided	-5839
▁florida	-5840
▁insepar	-5841
▁younger	-5842
▁informal	-5843
▁reference	-5844
▁reservoir	-5845
▁organizing	-5846
▁cultivation	-5847
▁magnificent	-5848
▁politically	-5849
▁introduction	-5850
▁standardized	-5851
▁transliterated	-5852
bu	-5853
eva	-5854
▁dai	-5855
▁jur	-5856
▁ups	-5857
▁xue	-5858
▁cath	-5859
▁insu	-5860
▁symb	-5861
active	-5862
regard	-5863
▁consp	-5864
▁drugs	-5865
▁older	-5866
▁bigger	-5867
▁eighth	-5868
▁endang	-5869
▁geneva	-5870
▁penetr	-5871
▁prosec	-5872
▁resort	-5873
ountered	-5874
▁examine	-5875
▁explain	-5876
▁located	-5877
▁secrets	-5878
▁version	-5879
▁endeavor	-5880
▁examples	-5881
▁upcoming	-5882
▁disregard	-5883
▁introduce	-5884
▁necessity	-5885
▁violating	-5886
▁assessment	-5887
▁comparison	-5888
▁appointment	-5889
▁encountered	-5890
▁cao	-5891
▁sem	-5892
idesp	-5893
raine	-5894
under	-5895
▁conn	-5896
▁slog	-5897
liness	-5898
ulates	-5899
▁gives	-5900
▁kyoto	-5901
▁walks	-5902
cession	-5903
staking	-5904
▁apolog	-5905
▁choose	-5906
▁summer	-5907
▁widesp	-5908
▁address	-5909
▁flowers	-5910
▁founded	-5911
▁housing	-5912
▁liaison	-5913
▁pursuit	-5914
▁registr	-5915
▁ukraine	-5916
▁yoshiro	-5917
▁conforms	-5918
▁creation	-5919
▁dissemin	-5920
▁distingu	-5921
▁involves	-5922
▁mobilize	-5923
▁secondary	-5924
▁stressing	-5925
▁candidates	-5926
▁widespread	-5927
▁painstaking	-5928
▁appropriately	-5929
▁characterized	-5930
▁consciousness	-5931
30	-5932
dd	-5933
chi	-5934
ley	-5935
bing	-5936
guay	-5937
time	-5938
▁mir	-5939
▁uru	-5940
▁lama	-5941
▁none	-5942
▁wall	-5943
▁chaos	-5944
▁lenin	-5945
▁troub	-5946
▁remove	-5947
▁resume	-5948
▁trades	-5949
▁premise	-5950
▁retired	-5951
▁summing	-5952
▁tourist	-5953
▁unchang	-5954
▁uruguay	-5955
▁agencies	-5956
▁auditing	-5957
▁chairmen	-5958
▁deployed	-5959
▁familiar	-5960
▁incorpor	-5961
▁qinghong	-5962
▁suspects	-5963
▁determine	-5964
▁erroneous	-5965
▁identical	-5966
▁stimulate	-5967
▁impression	-5968
▁furthermore	-5969
dro	-5970
▁lic	-5971
acing	-5972
eding	-5973
orily	-5974
▁rice	-5975
▁tran	-5976
▁wait	-5977
▁acted	-5978
▁angle	-5979
▁focal	-5980
▁persu	-5981
▁ratio	-5982
▁signs	-5983
▁arbitr	-5984
▁extric	-5985
▁fuzhou	-5986
▁pushed	-5987
▁analyst	-5988
▁conspic	-5989
▁procure	-5990
▁quicken	-5991
▁sending	-5992
▁superst	-5993
▁accurate	-5994
▁physical	-5995
▁cultivate	-5996
▁excessive	-5997
▁religions	-5998
▁commanders	-5999
▁commitment	-6000
▁resistance	-6001
▁acknowledge	-6002
▁represented	-6003
▁emancipating	-6004
af	-6005
fat	-6006
uct	-6007
ump	-6008
part	-6009
▁lai	-6010
▁mil	-6011
▁thr	-6012
lands	-6013
▁born	-6014
▁imag	-6015
▁rare	-6016
▁shel	-6017
▁star	-6018
▁stub	-6019
▁wave	-6020
ection	-6021
▁books	-6022
▁dream	-6023
▁elder	-6024
▁fresh	-6025
▁reaff	-6026
▁turns	-6027
▁curren	-6028
▁detach	-6029
▁vision	-6030
▁climate	-6031
▁dollars	-6032
▁lasting	-6033
▁outcome	-6034
▁violent	-6035
▁adopting	-6036
▁flexible	-6037
▁indicate	-6038
▁stubborn	-6039
▁zhaoxing	-6040
ifications	-6041
▁candidate	-6042
▁reporting	-6043
▁sponsored	-6044
▁personages	-6045
▁reputation	-6046
▁transition	-6047
▁integrating	-6048
▁associations	-6049
set	-6050
▁2,	-6051
aced	-6052
cont	-6053
▁bul	-6054
▁cai	-6055
▁sep	-6056
▁door	-6057
▁elev	-6058
▁nong	-6059
▁phot	-6060
▁unex	-6061
onents	-6062
▁solic	-6063
▁waste	-6064
▁arafat	-6065
▁asking	-6066
▁philos	-6067
▁unless	-6068
▁manager	-6069
▁deepened	-6070
▁grasping	-6071
▁intensity	-6072
▁reviewing	-6073
▁dispatched	-6074
▁counterpart	-6075
▁registration	-6076
▁demonstration	-6077
zz	-6078
aks	-6079
yan	-6080
▁cot	-6081
▁fab	-6082
▁sev	-6083
▁ven	-6084
erate	-6085
▁cope	-6086
▁lawy	-6087
▁spur	-6088
▁wage	-6089
▁wors	-6090
▁dedic	-6091
▁dozen	-6092
▁grown	-6093
▁lhasa	-6094
▁arouse	-6095
▁presid	-6096
▁useful	-6097
▁comprom	-6098
▁defined	-6099
▁devoted	-6100
▁journey	-6101
▁motives	-6102
▁removed	-6103
▁spheres	-6104
▁subhead	-6105
▁threats	-6106
▁violate	-6107
▁attempts	-6108
▁detailed	-6109
▁evidence	-6110
▁possibly	-6111
▁economics	-6112
▁philosoph	-6113
▁victories	-6114
▁capitalism	-6115
▁patriotism	-6116
▁ultimately	-6117
▁advancement	-6118
▁commodities	-6119
▁considering	-6120
▁inseparable	-6121
▁accompanying	-6122
▁contradiction	-6123
ta	-6124
mun	-6125
feng	-6126
iate	-6127
▁eve	-6128
▁yel	-6129
stone	-6130
▁abol	-6131
▁bing	-6132
fering	-6133
▁abund	-6134
▁airpl	-6135
▁dynam	-6136
▁grave	-6137
▁pyong	-6138
▁animal	-6139
▁distur	-6140
▁apprais	-6141
▁compuls	-6142
▁convers	-6143
▁missing	-6144
▁subsequ	-6145
▁happened	-6146
▁meantime	-6147
▁multiple	-6148
▁resulted	-6149
▁shuibian	-6150
▁villages	-6151
▁predicted	-6152
▁qualities	-6153
▁kilometers	-6154
▁militarism	-6155
▁respecting	-6156
▁viewpoints	-6157
▁cultivating	-6158
▁eliminating	-6159
▁corporations	-6160
20	-6161
bek	-6162
gone	-6163
hood	-6164
raid	-6165
ashed	-6166
woman	-6167
▁forb	-6168
▁park	-6169
▁pert	-6170
▁aside	-6171
▁worry	-6172
uration	-6173
▁bottom	-6174
▁cotton	-6175
▁jurisd	-6176
▁laying	-6177
avorable	-6178
▁endless	-6179
▁jiangxi	-6180
▁minutes	-6181
▁officer	-6182
▁whoever	-6183
astically	-6184
▁millions	-6185
▁precious	-6186
▁preserve	-6187
▁dissatisf	-6188
▁employees	-6189
▁observation	-6190
▁preparation	-6191
▁unfavorable	-6192
▁acknowledged	-6193
▁economically	-6194
▁governmental	-6195
▁energetically	-6196
▁investigating	-6197
▁satisfactorily	-6198
de	-6199
fort	-6200
lete	-6201
▁spl	-6202
ingly	-6203
▁suit	-6204
▁cohes	-6205
▁degen	-6206
▁table	-6207
▁tanks	-6208
▁armies	-6209
▁landed	-6210
▁loving	-6211
▁stream	-6212
▁forging	-6213
▁harmful	-6214
▁volunte	-6215
▁instruct	-6216
▁shipping	-6217
▁practiced	-6218
▁categories	-6219
▁conviction	-6220
▁institutes	-6221
▁permission	-6222
▁adjustments	-6223
▁explorations	-6224
▁extraordinary	-6225
alem	-6226
▁dao	-6227
essed	-6228
pping	-6229
rimin	-6230
vered	-6231
▁fell	-6232
▁pure	-6233
▁stir	-6234
iments	-6235
▁coven	-6236
▁enact	-6237
▁inher	-6238
▁jilin	-6239
▁pleas	-6240
▁sober	-6241
▁syria	-6242
▁afraid	-6243
▁altern	-6244
▁decade	-6245
▁filled	-6246
▁palace	-6247
▁armored	-6248
▁comfort	-6249
▁impacts	-6250
▁olympics	-6251
▁affecting	-6252
▁mountains	-6253
▁northeast	-6254
▁pyongyang	-6255
▁respected	-6256
▁telephone	-6257
▁temporary	-6258
▁appearance	-6259
▁regardless	-6260
▁unexpected	-6261
▁philippines	-6262
▁insufficient	-6263
▁professionals	-6264
ls	-6265
yi	-6266
▁34	-6267
ichi	-6268
▁nep	-6269
oying	-6270
▁2005	-6271
▁band	-6272
▁cert	-6273
▁marg	-6274
▁merg	-6275
▁recom	-6276
actions	-6277
▁casual	-6278
▁heroic	-6279
▁scheme	-6280
▁withst	-6281
▁upgrade	-6282
▁distinct	-6283
▁solemnly	-6284
▁tomorrow	-6285
▁attacking	-6286
▁primarily	-6287
▁supervise	-6288
▁suspected	-6289
▁taiwanese	-6290
▁unchanged	-6291
▁households	-6292
▁presidents	-6293
▁authoritative	-6294
oul	-6295
qin	-6296
▁55	-6297
abor	-6298
crip	-6299
▁haw	-6300
▁kid	-6301
▁pao	-6302
▁scre	-6303
▁thai	-6304
▁below	-6305
▁enjoys	-6306
▁fabric	-6307
▁houses	-6308
▁league	-6309
▁analyze	-6310
▁battles	-6311
▁brigade	-6312
▁managed	-6313
▁noticed	-6314
▁routine	-6315
▁someone	-6316
▁talents	-6317
▁arranged	-6318
▁convened	-6319
▁gathered	-6320
▁confirmed	-6321
▁compulsory	-6322
▁purchasing	-6323
▁conspicuous	-6324
▁constitutes	-6325
▁procurement	-6326
▁internationally	-6327
of	-6328
bre	-6329
zil	-6330
▁45	-6331
osen	-6332
what	-6333
▁1.2	-6334
inite	-6335
uance	-6336
xiang	-6337
▁calm	-6338
▁admit	-6339
▁backb	-6340
▁gross	-6341
▁hunan	-6342
▁leaps	-6343
▁twice	-6344
▁assume	-6345
▁brazil	-6346
▁broken	-6347
▁ethics	-6348
▁losing	-6349
▁injured	-6350
▁promise	-6351
▁admitted	-6352
▁criteria	-6353
▁develops	-6354
▁enjoying	-6355
▁somewhat	-6356
▁discrimin	-6357
▁efficient	-6358
▁indonesia	-6359
▁initially	-6360
▁suffering	-6361
▁uncertain	-6362
▁capitalist	-6363
▁logistical	-6364
▁spacecraft	-6365
▁undergoing	-6366
▁enthusiastic	-6367
▁comparatively	-6368
irm	-6369
thy	-6370
vak	-6371
▁si	-6372
omed	-6373
▁mic	-6374
▁1950	-6375
▁verd	-6376
▁forge	-6377
▁hubei	-6378
▁nomin	-6379
▁piece	-6380
▁editor	-6381
▁heaven	-6382
▁mexico	-6383
▁preced	-6384
▁repair	-6385
▁symbol	-6386
▁tackle	-6387
▁viewed	-6388
▁linking	-6389
▁seventh	-6390
▁altitude	-6391
▁bankrupt	-6392
▁catholic	-6393
▁hundreds	-6394
▁counterfe	-6395
▁criterion	-6396
▁precision	-6397
▁undergone	-6398
▁undertake	-6399
▁fulfilling	-6400
▁protective	-6401
▁indignation	-6402
▁supervisors	-6403
▁underground	-6404
▁jurisdiction	-6405
▁accomplishing	-6406
ote	-6407
ram	-6408
ray	-6409
▁38	-6410
▁tv	-6411
oned	-6412
urch	-6413
▁fei	-6414
▁hor	-6415
limin	-6416
oming	-6417
▁1972	-6418
▁clim	-6419
▁fang	-6420
▁unhe	-6421
▁zhan	-6422
pelled	-6423
racted	-6424
▁antis	-6425
▁grade	-6426
▁matsu	-6427
▁nepal	-6428
▁sight	-6429
▁stick	-6430
▁canada	-6431
▁census	-6432
▁church	-6433
▁larger	-6434
▁refuse	-6435
▁regime	-6436
▁stands	-6437
▁submit	-6438
▁charter	-6439
▁dispute	-6440
▁prelimin	-6441
▁relating	-6442
▁huaicheng	-6443
▁preparing	-6444
▁consciously	-6445
▁expenditures	-6446
▁iv	-6447
althy	-6448
▁aged	-6449
▁aims	-6450
▁empt	-6451
▁fate	-6452
▁inqu	-6453
▁intr	-6454
idable	-6455
▁haste	-6456
▁fellow	-6457
▁slovak	-6458
▁adverse	-6459
▁analysts	-6460
▁checking	-6461
▁granting	-6462
▁judgment	-6463
▁thoughts	-6464
▁treaties	-6465
▁welcomes	-6466
▁arrogance	-6467
▁civilized	-6468
▁estimated	-6469
▁pakistani	-6470
▁reinforce	-6471
▁structures	-6472
▁universally	-6473
▁guaranteeing	-6474
▁resettlement	-6475
▁neighborliness	-6476
ilt	-6477
adow	-6478
teed	-6479
▁ath	-6480
print	-6481
▁game	-6482
▁rank	-6483
▁croat	-6484
▁guest	-6485
▁trees	-6486
istries	-6487
▁clique	-6488
▁golden	-6489
▁permit	-6490
▁plants	-6491
▁poison	-6492
▁preach	-6493
▁prison	-6494
▁refers	-6495
▁farming	-6496
▁qinglin	-6497
▁sympath	-6498
▁analyzed	-6499
▁argument	-6500
▁covenant	-6501
▁creative	-6502
▁resident	-6503
▁striking	-6504
▁whenever	-6505
▁condemned	-6506
▁performed	-6507
▁remaining	-6508
▁unhealthy	-6509
▁guaranteed	-6510
▁contributed	-6511
▁independently	-6512
her	-6513
off	-6514
oly	-6515
overn	-6516
▁1991	-6517
▁flew	-6518
▁priv	-6519
▁reck	-6520
▁avail	-6521
▁bombs	-6522
▁names	-6523
▁norms	-6524
▁proud	-6525
▁vivid	-6526
▁debate	-6527
▁desert	-6528
▁drills	-6529
▁harmon	-6530
▁intend	-6531
▁chunyun	-6532
▁closing	-6533
▁details	-6534
▁issuing	-6535
▁letters	-6536
▁massive	-6537
▁neglect	-6538
▁yuanhua	-6539
▁backbone	-6540
▁dongshan	-6541
▁issuance	-6542
▁sacrific	-6543
▁setbacks	-6544
▁shenyang	-6545
▁stricken	-6546
▁threaten	-6547
▁directors	-6548
▁gratitude	-6549
▁advocating	-6550
▁kyrgyzstan	-6551
▁rectifying	-6552
▁servicemen	-6553
▁commissions	-6554
▁influential	-6555
▁applications	-6556
▁conventional	-6557
▁satisfaction	-6558
500	-6559
adv	-6560
ald	-6561
elt	-6562
lad	-6563
▁chu	-6564
▁kun	-6565
▁web	-6566
cedon	-6567
cheng	-6568
▁capt	-6569
▁grim	-6570
▁isol	-6571
▁ling	-6572
iently	-6573
terior	-6574
▁adequ	-6575
▁disch	-6576
▁niger	-6577
▁absurd	-6578
▁denied	-6579
▁firing	-6580
▁unreas	-6581
▁warned	-6582
▁worker	-6583
▁amended	-6584
▁combine	-6585
▁gradual	-6586
▁textile	-6587
▁vehicle	-6588
▁payments	-6589
▁promised	-6590
▁relative	-6591
▁schedule	-6592
▁slowdown	-6593
▁troubles	-6594
▁watching	-6595
▁argentina	-6596
▁combining	-6597
▁commissar	-6598
▁electoral	-6599
▁explosion	-6600
▁maintains	-6601
▁protected	-6602
▁amendments	-6603
▁ministries	-6604
▁prefecture	-6605
▁manufacture	-6606
▁secretaries	-6607
▁intellectuals	-6608
sid	-6609
▁ip	-6610
otic	-6611
rian	-6612
▁400	-6613
▁ast	-6614
▁cat	-6615
▁chr	-6616
▁kin	-6617
▁rmb	-6618
arity	-6619
▁garr	-6620
▁hurt	-6621
▁pipe	-6622
▁prud	-6623
▁shut	-6624
▁unce	-6625
▁wake	-6626
advant	-6627
▁annan	-6628
▁motor	-6629
▁plate	-6630
▁skill	-6631
▁sorts	-6632
▁spend	-6633
▁unequ	-6634
▁pilots	-6635
▁remote	-6636
▁shared	-6637
▁summar	-6638
▁wished	-6639
▁adhered	-6640
▁cracked	-6641
▁enabled	-6642
▁ethical	-6643
▁headway	-6644
▁imposed	-6645
▁macedon	-6646
▁vicious	-6647
▁whereas	-6648
▁drafting	-6649
▁feasible	-6650
▁revising	-6651
▁unreason	-6652
▁wantonly	-6653
▁adjusting	-6654
▁appraisal	-6655
▁attempted	-6656
▁disadvant	-6657
▁unceasing	-6658
▁detachment	-6659
▁guarantees	-6660
▁previously	-6661
▁surrounding	-6662
▁trafficking	-6663
▁compensation	-6664
▁consequently	-6665
▁deliberately	-6666
adic	-6667
▁150	-6668
▁fem	-6669
▁max	-6670
▁odd	-6671
▁soe	-6672
▁une	-6673
shore	-6674
uries	-6675
▁cash	-6676
▁dare	-6677
▁dark	-6678
▁film	-6679
▁harv	-6680
▁insp	-6681
▁seat	-6682
ounced	-6683
▁blows	-6684
▁envoy	-6685
▁faces	-6686
▁mines	-6687
▁postp	-6688
▁somet	-6689
▁tramp	-6690
ensable	-6691
keeping	-6692
▁lasted	-6693
▁online	-6694
▁revise	-6695
▁shores	-6696
▁splend	-6697
▁degrees	-6698
▁deliver	-6699
▁dropped	-6700
▁faction	-6701
▁operate	-6702
▁orderly	-6703
▁trigger	-6704
▁waiting	-6705
▁attacked	-6706
▁monopoly	-6707
▁obstacle	-6708
▁everybody	-6709
▁hostility	-6710
▁policemen	-6711
▁conservancy	-6712
▁preparatory	-6713
▁specialists	-6714
▁transmission	-6715
▁administering	-6716
ka	-6717
zu	-6718
amb	-6719
ige	-6720
nes	-6721
▁37	-6722
haps	-6723
meas	-6724
▁hom	-6725
▁lag	-6726
▁mus	-6727
▁guam	-6728
▁leng	-6729
▁shan	-6730
crimin	-6731
finite	-6732
lining	-6733
▁alger	-6734
▁empty	-6735
▁quiet	-6736
▁chosen	-6737
▁concur	-6738
▁electr	-6739
▁judges	-6740
▁beliefs	-6741
▁chamber	-6742
▁forests	-6743
▁perhaps	-6744
▁rampant	-6745
▁release	-6746
▁seizing	-6747
▁venture	-6748
▁abundant	-6749
▁covering	-6750
▁discover	-6751
▁imported	-6752
▁markedly	-6753
▁offshore	-6754
▁regulate	-6755
▁rejected	-6756
▁replaced	-6757
▁reviewed	-6758
▁ventures	-6759
▁examining	-6760
▁observers	-6761
▁completing	-6762
▁compromise	-6763
▁indefinite	-6764
▁philosophy	-6765
▁regulatory	-6766
▁supervising	-6767
anes	-6768
ideo	-6769
▁emp	-6770
▁vac	-6771
board	-6772
erent	-6773
irect	-6774
▁bloc	-6775
▁copy	-6776
▁mide	-6777
▁peiy	-6778
▁semi	-6779
▁shif	-6780
▁whom	-6781
▁wise	-6782
encing	-6783
▁brave	-6784
▁eager	-6785
▁embra	-6786
▁magaz	-6787
▁outer	-6788
▁excuse	-6789
▁indisp	-6790
▁inferi	-6791
▁instig	-6792
▁margin	-6793
▁mining	-6794
▁multin	-6795
▁saddam	-6796
▁signal	-6797
▁sphere	-6798
▁widely	-6799
▁wonder	-6800
▁bidding	-6801
▁disease	-6802
▁lecture	-6803
▁marking	-6804
▁mideast	-6805
▁picture	-6806
▁relaxed	-6807
▁revital	-6808
▁usually	-6809
▁deposits	-6810
▁indirect	-6811
▁restrain	-6812
▁urgently	-6813
▁changqing	-6814
▁emphasize	-6815
▁spreading	-6816
▁commenting	-6817
▁consolidated	-6818
▁multinational	-6819
tu	-6820
ana	-6821
kai	-6822
enez	-6823
felt	-6824
▁cry	-6825
▁ech	-6826
▁xie	-6827
place	-6828
▁fake	-6829
▁pack	-6830
▁rain	-6831
▁rend	-6832
▁synd	-6833
▁tank	-6834
▁tons	-6835
▁wart	-6836
▁zeal	-6837
▁ammun	-6838
▁suppl	-6839
▁eradic	-6840
▁fruits	-6841
▁street	-6842
▁tricks	-6843
▁automob	-6844
▁fishery	-6845
▁hosting	-6846
▁lawyers	-6847
▁minimum	-6848
▁reading	-6849
▁worship	-6850
▁apparent	-6851
▁employed	-6852
▁garrison	-6853
▁leninism	-6854
▁maneuver	-6855
▁occupied	-6856
▁ulterior	-6857
▁believers	-6858
▁commodity	-6859
▁deploying	-6860
▁initiated	-6861
▁proceeded	-6862
▁gratifying	-6863
▁literature	-6864
▁reaffirmed	-6865
▁regulating	-6866
▁readjusting	-6867
▁spokeswoman	-6868
▁announcement	-6869
▁urbanization	-6870
▁representations	-6871
ape	-6872
ara	-6873
asc	-6874
▁43	-6875
empl	-6876
west	-6877
▁box	-6878
▁hao	-6879
▁spy	-6880
▁via	-6881
▁caut	-6882
▁pent	-6883
lessly	-6884
▁hsieh	-6885
▁venez	-6886
▁bought	-6887
▁bounds	-6888
▁conver	-6889
▁encoun	-6890
▁exempl	-6891
▁fought	-6892
▁chaotic	-6893
▁cherish	-6894
▁citizen	-6895
▁guizhou	-6896
▁trained	-6897
▁wartime	-6898
istically	-6899
▁boosting	-6900
▁buddhist	-6901
▁complain	-6902
▁directed	-6903
▁infringe	-6904
▁literary	-6905
▁protests	-6906
▁remember	-6907
▁ultimate	-6908
▁venezuel	-6909
▁zhongguo	-6910
▁exploring	-6911
▁expresses	-6912
▁heartfelt	-6913
▁nongovern	-6914
▁stabilize	-6915
▁allocation	-6916
▁disappoint	-6917
▁eliminated	-6918
▁arrangement	-6919
▁helicopters	-6920
▁imperialist	-6921
▁interaction	-6922
▁experimental	-6923
▁geographical	-6924
▁peacekeeping	-6925
▁unreasonable	-6926
▁indispensable	-6927
▁significantly	-6928
▁interpretation	-6929
jud	-6930
▁32	-6931
▁cp	-6932
apse	-6933
fast	-6934
heng	-6935
▁yin	-6936
atism	-6937
erson	-6938
otion	-6939
ounce	-6940
▁calc	-6941
▁5,000	-6942
▁lacks	-6943
▁named	-6944
▁relay	-6945
▁score	-6946
▁christ	-6947
▁cruise	-6948
▁endors	-6949
▁foster	-6950
▁freely	-6951
▁predic	-6952
▁switch	-6953
▁deposit	-6954
▁footing	-6955
▁replied	-6956
▁shocked	-6957
▁worries	-6958
▁carriers	-6959
▁forecast	-6960
▁memorial	-6961
▁readiness	-6962
▁townships	-6963
▁casualties	-6964
▁meticulous	-6965
▁perfecting	-6966
▁centralized	-6967
▁countermeas	-6968
▁fulfillment	-6969
▁indiscrimin	-6970
▁recognition	-6971
▁resolutions	-6972
▁standardize	-6973
▁subordinate	-6974
▁conversation	-6975
▁ju	-6976
obil	-6977
oute	-6978
▁dav	-6979
▁lao	-6980
▁nur	-6981
▁pin	-6982
▁pir	-6983
acies	-6984
▁ceas	-6985
▁drop	-6986
▁shake	-6987
▁teams	-6988
ruption	-6989
willing	-6990
▁autumn	-6991
▁connot	-6992
▁gather	-6993
▁native	-6994
▁syndic	-6995
▁addicts	-6996
▁adviser	-6997
▁appears	-6998
▁chengdu	-6999
▁covered	-7000
▁destiny	-7001
▁digital	-7002
▁prepare	-7003
▁undergo	-7004
▁warhead	-7005
▁barriers	-7006
▁embodied	-7007
▁frontier	-7008
▁interior	-7009
▁morality	-7010
▁accounted	-7011
▁ceaseless	-7012
▁highlight	-7013
▁solutions	-7014
▁unwilling	-7015
▁collecting	-7016
▁convenient	-7017
▁threatened	-7018
▁diversified	-7019
▁broadcasting	-7020
▁conscientious	-7021
▁normalization	-7022
pel	-7023
▁3,	-7024
huai	-7025
▁anc	-7026
▁ben	-7027
▁grew	-7028
▁wild	-7029
▁acute	-7030
▁veter	-7031
▁woman	-7032
▁buying	-7033
▁easing	-7034
▁female	-7035
▁hoping	-7036
▁temple	-7037
▁termin	-7038
▁apology	-7039
▁demobil	-7040
▁invigor	-7041
▁islands	-7042
▁restore	-7043
▁enabling	-7044
▁subjects	-7045
▁suitable	-7046
▁abilities	-7047
▁districts	-7048
▁exemplary	-7049
▁observing	-7050
▁sometimes	-7051
▁complement	-7052
▁stipulates	-7053
▁superpower	-7054
▁convictions	-7055
▁counterfeit	-7056
▁demonstrate	-7057
▁importantly	-7058
fl	-7059
hs	-7060
zts	-7061
enty	-7062
grav	-7063
ords	-7064
rong	-7065
▁aqu	-7066
▁dyn	-7067
▁ing	-7068
▁joy	-7069
▁impr	-7070
▁nurt	-7071
▁pron	-7072
▁unst	-7073
aments	-7074
▁2,000	-7075
▁flour	-7076
▁remin	-7077
▁sites	-7078
▁squad	-7079
▁turmo	-7080
attered	-7081
▁aggrav	-7082
▁brings	-7083
▁dispar	-7084
▁instru	-7085
▁overth	-7086
▁pillar	-7087
▁stages	-7088
▁traged	-7089
▁transn	-7090
▁accused	-7091
▁budgets	-7092
▁factory	-7093
▁harmony	-7094
▁ignored	-7095
▁rectify	-7096
▁sharing	-7097
▁adjusted	-7098
▁blockade	-7099
▁embodies	-7100
▁pentagon	-7101
▁pointing	-7102
▁servants	-7103
▁collected	-7104
▁demanding	-7105
▁permitted	-7106
▁aggressive	-7107
▁australian	-7108
▁completion	-7109
▁necessarily	-7110
▁resignation	-7111
▁willingness	-7112
▁constructing	-7113
▁neighborhood	-7114
▁transnational	-7115
agn	-7116
mak	-7117
umb	-7118
▁uz	-7119
anov	-7120
iren	-7121
▁zuo	-7122
aught	-7123
break	-7124
▁1979	-7125
▁asem	-7126
▁edge	-7127
▁file	-7128
▁soph	-7129
▁span	-7130
▁blair	-7131
▁colin	-7132
▁escal	-7133
▁index	-7134
▁loyal	-7135
▁seats	-7136
▁title	-7137
▁uzbek	-7138
▁vangu	-7139
▁bitter	-7140
▁castro	-7141
▁jiechi	-7142
▁marine	-7143
▁shadow	-7144
▁summed	-7145
▁yongtu	-7146
▁amounts	-7147
▁connect	-7148
▁enemies	-7149
▁flights	-7150
▁handful	-7151
▁mistake	-7152
▁partial	-7153
▁bureaucr	-7154
▁daughter	-7155
▁declined	-7156
▁imprison	-7157
▁sentence	-7158
▁vanguard	-7159
▁weakness	-7160
▁apologize	-7161
▁convinced	-7162
▁educating	-7163
▁pertinent	-7164
▁proactive	-7165
▁residence	-7166
▁concurrent	-7167
▁navigation	-7168
▁obligation	-7169
▁optimistic	-7170
▁systematic	-7171
▁interfering	-7172
▁satisfactory	-7173
▁complementary	-7174
▁congratulated	-7175
▁nongovernmental	-7176
ah	-7177
ug	-7178
ghu	-7179
iph	-7180
▁1.3	-7181
▁abd	-7182
▁die	-7183
▁dog	-7184
▁los	-7185
▁qin	-7186
▁van	-7187
ables	-7188
alian	-7189
iform	-7190
umped	-7191
▁1970	-7192
▁chip	-7193
▁reap	-7194
▁barak	-7195
▁innoc	-7196
▁minor	-7197
▁shout	-7198
▁store	-7199
▁users	-7200
▁circle	-7201
▁dynast	-7202
▁manned	-7203
▁revers	-7204
▁syrian	-7205
▁temper	-7206
▁100,000	-7207
▁condemn	-7208
▁feature	-7209
▁granted	-7210
▁italian	-7211
▁masters	-7212
▁quarant	-7213
▁turkmen	-7214
▁writing	-7215
▁observed	-7216
▁promises	-7217
▁websites	-7218
▁changchun	-7219
▁provision	-7220
▁rightwing	-7221
▁elementary	-7222
▁exposition	-7223
▁reportedly	-7224
▁volunteers	-7225
▁distributed	-7226
▁threatening	-7227
▁unceasingly	-7228
▁meticulously	-7229
▁palestinians	-7230
sk	-7231
cend	-7232
ijan	-7233
ocks	-7234
pass	-7235
▁dia	-7236
▁dim	-7237
▁gir	-7238
▁kao	-7239
▁zha	-7240
gging	-7241
ilong	-7242
ioned	-7243
itage	-7244
ourge	-7245
▁azer	-7246
▁fuel	-7247
▁ambig	-7248
▁boats	-7249
▁cable	-7250
▁david	-7251
▁fores	-7252
▁looks	-7253
▁ports	-7254
▁virus	-7255
▁ancest	-7256
▁athlet	-7257
▁estate	-7258
▁expose	-7259
▁impose	-7260
▁underw	-7261
▁urging	-7262
▁virtue	-7263
▁acquire	-7264
▁periods	-7265
▁recruit	-7266
▁tieying	-7267
▁turmoil	-7268
▁veteran	-7269
▁insisted	-7270
▁mainstay	-7271
▁sabotage	-7272
▁secretly	-7273
▁civilians	-7274
▁emergence	-7275
▁encounter	-7276
▁foresight	-7277
▁subsidies	-7278
▁ammunition	-7279
▁applicable	-7280
▁characters	-7281
▁determines	-7282
▁protracted	-7283
▁quarantine	-7284
▁succession	-7285
▁unemployed	-7286
▁violations	-7287
▁demobilized	-7288
▁inspections	-7289
▁negotiation	-7290
▁stabilizing	-7291
▁subsequently	-7292
▁qualifications	-7293
aka	-7294
key	-7295
uff	-7296
▁48	-7297
ault	-7298
like	-7299
rous	-7300
▁dan	-7301
▁tor	-7302
dated	-7303
▁boat	-7304
▁code	-7305
▁kang	-7306
baijan	-7307
▁crops	-7308
▁foref	-7309
▁lunch	-7310
▁prest	-7311
▁react	-7312
oration	-7313
respons	-7314
▁approx	-7315
▁forged	-7316
▁hinter	-7317
▁mature	-7318
▁prolet	-7319
▁rooted	-7320
▁sought	-7321
▁classes	-7322
▁discard	-7323
▁dynamic	-7324
▁objects	-7325
▁currency	-7326
▁emerging	-7327
▁inferior	-7328
▁commented	-7329
▁continent	-7330
▁fulfilled	-7331
▁hardships	-7332
▁azerbaijan	-7333
▁electrical	-7334
▁journalist	-7335
▁peacefully	-7336
▁relaxation	-7337
▁sentiments	-7338
▁withdrawal	-7339
▁preliminary	-7340
▁departmental	-7341
▁exploitation	-7342
▁publications	-7343
▁readjustments	-7344
▁countermeasures	-7345
aid	-7346
cle	-7347
ezz	-7348
▁33	-7349
▁42	-7350
cher	-7351
iltr	-7352
oles	-7353
▁blo	-7354
▁din	-7355
▁gar	-7356
▁lev	-7357
▁mou	-7358
▁rot	-7359
eland	-7360
lated	-7361
olved	-7362
zheng	-7363
▁forg	-7364
▁huai	-7365
▁ning	-7366
▁pose	-7367
▁urge	-7368
▁vlad	-7369
ichiro	-7370
icking	-7371
linary	-7372
worthy	-7373
▁clash	-7374
▁delib	-7375
▁embar	-7376
▁gains	-7377
▁micro	-7378
▁penal	-7379
▁pharm	-7380
▁posed	-7381
▁renew	-7382
▁risen	-7383
▁wages	-7384
▁doubts	-7385
▁lively	-7386
▁morale	-7387
▁occupy	-7388
▁staged	-7389
▁styles	-7390
▁tranqu	-7391
▁uganda	-7392
▁zhuang	-7393
▁accords	-7394
▁broader	-7395
▁falling	-7396
▁heilong	-7397
▁iceland	-7398
▁infiltr	-7399
▁license	-7400
▁satisfy	-7401
▁scholar	-7402
▁uniform	-7403
mentioned	-7404
▁cultures	-7405
▁medicine	-7406
▁prestige	-7407
▁splendid	-7408
▁totaling	-7409
▁increases	-7410
▁irrespons	-7411
▁recession	-7412
▁attempting	-7413
▁biological	-7414
▁intentions	-7415
▁subjective	-7416
▁deliberation	-7417
▁facilitating	-7418
▁heilongjiang	-7419
▁polarization	-7420
▁considerations	-7421
fu	-7422
ny	-7423
ami	-7424
ois	-7425
rup	-7426
▁nt	-7427
ayev	-7428
ustr	-7429
▁bay	-7430
▁god	-7431
▁mas	-7432
▁mix	-7433
▁tun	-7434
secut	-7435
▁drew	-7436
▁dush	-7437
▁mold	-7438
▁snow	-7439
▁suic	-7440
▁tear	-7441
▁tert	-7442
▁cohen	-7443
▁deadl	-7444
▁downs	-7445
▁holid	-7446
▁joins	-7447
▁leban	-7448
▁recip	-7449
▁renov	-7450
▁seoul	-7451
▁video	-7452
▁proves	-7453
▁resign	-7454
▁secure	-7455
▁shield	-7456
▁approve	-7457
▁bombers	-7458
▁islamic	-7459
▁killing	-7460
▁suspect	-7461
▁applause	-7462
▁artistic	-7463
▁clothing	-7464
▁consecut	-7465
▁contrast	-7466
▁innocent	-7467
▁invasion	-7468
▁isolated	-7469
▁misunder	-7470
▁tertiary	-7471
▁blueprint	-7472
▁employing	-7473
▁peacetime	-7474
▁specified	-7475
▁destroying	-7476
▁diligently	-7477
▁restricted	-7478
▁solidarity	-7479
▁concurrently	-7480
▁interception	-7481
▁approximately	-7482
▁constitutional	-7483
▁liberalization	-7484
co	-7485
els	-7486
mod	-7487
▁id	-7488
▁wo	-7489
gged	-7490
▁hal	-7491
▁ioc	-7492
▁nam	-7493
▁voc	-7494
▁yen	-7495
iated	-7496
oting	-7497
▁2010	-7498
▁dafa	-7499
▁keen	-7500
hsiung	-7501
▁realm	-7502
ienable	-7503
▁banned	-7504
▁claims	-7505
▁except	-7506
▁hsiung	-7507
▁inspir	-7508
▁option	-7509
▁retire	-7510
▁trials	-7511
▁unfold	-7512
▁anticip	-7513
▁confisc	-7514
▁convert	-7515
▁dangers	-7516
▁guangen	-7517
▁maximum	-7518
▁placing	-7519
▁prevail	-7520
▁shortly	-7521
▁treated	-7522
▁coverage	-7523
▁magazine	-7524
▁deflation	-7525
▁democrats	-7526
▁hegemonic	-7527
▁succeeded	-7528
▁controvers	-7529
▁engagement	-7530
▁harmonious	-7531
▁modernized	-7532
▁disciplinary	-7533
▁indefinitely	-7534
▁transforming	-7535
▁procuratorates	-7536
▁39	-7537
buro	-7538
esth	-7539
kang	-7540
uten	-7541
▁awa	-7542
▁bai	-7543
▁mof	-7544
▁mur	-7545
chuan	-7546
orest	-7547
▁1978	-7548
▁exag	-7549
▁gate	-7550
▁item	-7551
▁loud	-7552
▁meng	-7553
▁shao	-7554
▁vain	-7555
▁vary	-7556
laimed	-7557
▁ching	-7558
▁floor	-7559
▁gangs	-7560
▁helps	-7561
▁logic	-7562
▁owing	-7563
▁photo	-7564
▁prede	-7565
▁smoke	-7566
▁thank	-7567
▁throw	-7568
ensions	-7569
ivalent	-7570
▁bourge	-7571
▁shanxi	-7572
▁worthy	-7573
▁compete	-7574
▁highway	-7575
▁qinghai	-7576
▁records	-7577
▁staying	-7578
▁zealand	-7579
▁zhongyu	-7580
▁acquired	-7581
▁balanced	-7582
▁diseases	-7583
▁pleasure	-7584
▁scientif	-7585
▁squarely	-7586
▁widening	-7587
▁attaining	-7588
▁bourgeois	-7589
▁coalition	-7590
▁enforcing	-7591
▁politburo	-7592
▁scattered	-7593
▁terrorist	-7594
▁confronted	-7595
▁emancipate	-7596
▁interested	-7597
▁accordingly	-7598
▁constituted	-7599
▁experiments	-7600
▁transparent	-7601
▁inauguration	-7602
▁personalities	-7603
11	-7604
ko	-7605
bul	-7606
ded	-7607
▁58	-7608
iest	-7609
▁jer	-7610
▁lam	-7611
▁obe	-7612
▁rog	-7613
▁sym	-7614
aunch	-7615
icals	-7616
ients	-7617
▁chao	-7618
▁deny	-7619
▁dieh	-7620
▁hide	-7621
▁shij	-7622
▁tort	-7623
▁unsh	-7624
amount	-7625
atican	-7626
▁afore	-7627
▁calam	-7628
▁crash	-7629
▁homes	-7630
▁lived	-7631
▁marty	-7632
▁phone	-7633
▁reply	-7634
▁strat	-7635
osition	-7636
▁career	-7637
▁caught	-7638
▁define	-7639
▁ending	-7640
▁escape	-7641
▁floods	-7642
▁harbor	-7643
▁promin	-7644
▁reward	-7645
▁sooner	-7646
▁stocks	-7647
▁twists	-7648
▁anticor	-7649
▁courses	-7650
▁diehard	-7651
▁drastic	-7652
▁element	-7653
▁emotion	-7654
▁notable	-7655
▁pledged	-7656
▁portion	-7657
▁tariffs	-7658
▁vatican	-7659
alienable	-7660
▁amounted	-7661
▁audience	-7662
▁certific	-7663
▁recalled	-7664
▁tackling	-7665
▁targeted	-7666
▁weakened	-7667
▁analyzing	-7668
▁celebrate	-7669
▁consumers	-7670
▁macedonia	-7671
▁obtaining	-7672
▁convincing	-7673
▁equivalent	-7674
▁instructed	-7675
▁photograph	-7676
▁successive	-7677
▁suggestion	-7678
▁undertaken	-7679
▁vocational	-7680
▁imprisonment	-7681
▁improvements	-7682
▁installations	-7683
▁irresponsible	-7684
▁aforementioned	-7685
▁anticorruption	-7686
aze	-7687
cco	-7688
see	-7689
uma	-7690
xia	-7691
▁75	-7692
▁86	-7693
cers	-7694
ghan	-7695
mark	-7696
uang	-7697
uctu	-7698
▁600	-7699
▁lad	-7700
▁row	-7701
aceut	-7702
▁depr	-7703
▁dete	-7704
▁lian	-7705
▁shot	-7706
▁stro	-7707
▁ting	-7708
making	-7709
▁brain	-7710
▁spite	-7711
▁story	-7712
▁swift	-7713
▁unman	-7714
▁waged	-7715
▁worse	-7716
▁advert	-7717
▁aerial	-7718
▁fluctu	-7719
▁pieces	-7720
▁praise	-7721
▁seemed	-7722
▁suited	-7723
▁weight	-7724
▁banning	-7725
▁bribery	-7726
▁declare	-7727
▁dynasty	-7728
▁enlight	-7729
▁interim	-7730
▁letting	-7731
▁mineral	-7732
▁passeng	-7733
▁recover	-7734
▁refrain	-7735
▁tighten	-7736
atization	-7737
▁collapse	-7738
▁controls	-7739
▁available	-7740
▁buildings	-7741
▁cordially	-7742
▁dismissed	-7743
▁inaugural	-7744
▁junichiro	-7745
▁kaohsiung	-7746
▁resisting	-7747
▁utilizing	-7748
▁withstand	-7749
▁appreciate	-7750
▁exchanging	-7751
▁geological	-7752
▁hinterland	-7753
▁incomplete	-7754
▁noticeably	-7755
▁pharmaceut	-7756
▁presidency	-7757
▁stubbornly	-7758
▁appreciated	-7759
▁electricity	-7760
▁essentially	-7761
▁immigration	-7762
▁recognizing	-7763
▁republicans	-7764
▁restoration	-7765
▁unilaterally	-7766
▁demonstrations	-7767
▁scientifically	-7768
bb	-7769
ef	-7770
▁/	-7771
bao	-7772
ero	-7773
mon	-7774
omb	-7775
xna	-7776
▁51	-7777
ansu	-7778
ksar	-7779
ught	-7780
▁800	-7781
▁mak	-7782
▁pul	-7783
aling	-7784
azing	-7785
opard	-7786
▁bond	-7787
▁tree	-7788
▁veto	-7789
arrass	-7790
artial	-7791
iances	-7792
orders	-7793
▁accus	-7794
▁alleg	-7795
▁biden	-7796
▁cance	-7797
▁cease	-7798
▁gansu	-7799
▁harsh	-7800
▁heres	-7801
▁notes	-7802
▁teleg	-7803
▁unify	-7804
▁voted	-7805
▁xiong	-7806
igrants	-7807
▁afghan	-7808
▁column	-7809
▁dalian	-7810
▁happen	-7811
▁merits	-7812
▁minded	-7813
▁mostly	-7814
▁periph	-7815
▁resent	-7816
▁unlike	-7817
▁youths	-7818
▁arising	-7819
▁broaden	-7820
▁carries	-7821
▁deficit	-7822
▁divorce	-7823
▁earthqu	-7824
▁funding	-7825
▁prolong	-7826
▁upholds	-7827
▁utilize	-7828
▁warship	-7829
▁yielded	-7830
▁guarding	-7831
▁heighten	-7832
▁optimize	-7833
▁outdated	-7834
▁printing	-7835
▁tolerate	-7836
▁treasure	-7837
▁unmanned	-7838
▁attaching	-7839
▁christian	-7840
▁communism	-7841
▁distorted	-7842
▁embarrass	-7843
▁evolution	-7844
▁extremism	-7845
▁publicize	-7846
▁reserving	-7847
▁attracting	-7848
▁correspond	-7849
▁foreigners	-7850
▁noticeable	-7851
▁appreciates	-7852
▁inalienable	-7853
▁predicament	-7854
▁reactionary	-7855
▁seriousness	-7856
▁demonstrates	-7857
▁explanations	-7858
▁standardizing	-7859
▁popularization	-7860
.0	-7861
yp	-7862
bin	-7863
dom	-7864
och	-7865
▁09	-7866
eman	-7867
lets	-7868
ster	-7869
▁duc	-7870
▁fat	-7871
icked	-7872
▁runs	-7873
▁unsc	-7874
▁allev	-7875
▁asset	-7876
▁leads	-7877
▁patro	-7878
▁write	-7879
utenant	-7880
▁chinas	-7881
▁colomb	-7882
▁rumors	-7883
▁antagon	-7884
▁assault	-7885
▁avoided	-7886
▁belongs	-7887
▁contest	-7888
▁cutting	-7889
▁fortune	-7890
▁jeopard	-7891
▁lowered	-7892
▁monopol	-7893
▁plateau	-7894
▁politic	-7895
▁sharply	-7896
▁staunch	-7897
▁deadlock	-7898
▁educated	-7899
▁factions	-7900
▁offering	-7901
▁pictures	-7902
▁planting	-7903
▁treating	-7904
▁addressed	-7905
▁diplomats	-7906
▁entertain	-7907
▁movements	-7908
▁simulated	-7909
▁functional	-7910
▁indicating	-7911
▁lieutenant	-7912
▁conservative	-7913
▁understandings	-7914
▁administrations	-7915
fan	-7916
son	-7917
▁47	-7918
▁56	-7919
aces	-7920
▁fit	-7921
▁fyp	-7922
▁pon	-7923
▁wee	-7924
gered	-7925
house	-7926
ieved	-7927
roach	-7928
▁busy	-7929
▁clam	-7930
▁gree	-7931
▁xuan	-7932
xinhua	-7933
▁alarm	-7934
▁alban	-7935
▁bills	-7936
▁keeps	-7937
▁perme	-7938
▁veget	-7939
fection	-7940
▁crises	-7941
▁custom	-7942
▁equity	-7943
▁kinmen	-7944
▁minute	-7945
▁screen	-7946
▁turkey	-7947
▁admiral	-7948
▁charged	-7949
▁chilean	-7950
▁harvest	-7951
▁herself	-7952
▁illness	-7953
▁insight	-7954
▁readers	-7955
▁watched	-7956
▁airplane	-7957
▁athletes	-7958
▁fairness	-7959
▁inherent	-7960
▁opponent	-7961
▁surprise	-7962
▁countless	-7963
▁criticize	-7964
▁execution	-7965
▁splittism	-7966
▁authorized	-7967
▁hegemonist	-7968
▁manifested	-7969
▁persistent	-7970
▁prohibited	-7971
▁supplement	-7972
▁tendencies	-7973
▁uzbekistan	-7974
▁introducing	-7975
▁objectively	-7976
▁technicians	-7977
▁turkmenistan	-7978
▁dissatisfaction	-7979
kn	-7980
avo	-7981
aunt	-7982
wait	-7983
▁cpv	-7984
▁hou	-7985
▁ldp	-7986
▁obj	-7987
ishan	-7988
known	-7989
urity	-7990
▁anth	-7991
▁arch	-7992
▁attr	-7993
▁crux	-7994
▁diet	-7995
▁kidd	-7996
▁mand	-7997
▁qizh	-7998
▁rear	-7999
▁sail	-8000
▁soes	-8001
▁tien	-8002
flight	-8003
▁accom	-8004
▁cruel	-8005
▁inhab	-8006
▁laugh	-8007
▁lifel	-8008
▁motiv	-8009
▁plain	-8010
pelling	-8011
▁boldly	-8012
▁dragon	-8013
▁embody	-8014
▁errors	-8015
▁fallen	-8016
▁harmed	-8017
▁kuwait	-8018
▁length	-8019
▁moldov	-8020
▁season	-8021
▁slowly	-8022
▁tonnes	-8023
▁unfair	-8024
▁voting	-8025
▁window	-8026
▁yongbo	-8027
chemical	-8028
ensional	-8029
iliation	-8030
▁diverse	-8031
▁ensured	-8032
▁honored	-8033
▁inherit	-8034
▁resumed	-8035
▁shaking	-8036
▁smaller	-8037
▁upright	-8038
▁verdict	-8039
▁adoption	-8040
▁catching	-8041
▁cautious	-8042
▁compiled	-8043
▁dominant	-8044
▁endorsed	-8045
▁inspired	-8046
▁moderate	-8047
▁railroad	-8048
▁shenzhou	-8049
▁visitors	-8050
▁warheads	-8051
▁advocates	-8052
▁armaments	-8053
▁continual	-8054
▁mobilized	-8055
▁possesses	-8056
▁slightest	-8057
▁committing	-8058
▁cultivated	-8059
▁irrational	-8060
▁perfection	-8061
▁combination	-8062
▁electronics	-8063
▁involvement	-8064
▁stimulating	-8065
▁commemorative	-8066
45	-8067
di	-8068
po	-8069
yg	-8070
giv	-8071
imb	-8072
mer	-8073
tec	-8074
▁52	-8075
iors	-8076
umqi	-8077
▁kai	-8078
▁yue	-8079
eties	-8080
▁belg	-8081
▁cool	-8082
▁jeou	-8083
▁mazu	-8084
▁page	-8085
▁pool	-8086
▁reag	-8087
▁spec	-8088
atible	-8089
ipolar	-8090
tering	-8091
usalem	-8092
▁3,000	-8093
▁antid	-8094
▁helms	-8095
▁ignor	-8096
▁revol	-8097
▁rough	-8098
▁route	-8099
▁ruled	-8100
▁slack	-8101
▁spain	-8102
▁trick	-8103
givings	-8104
ulatory	-8105
▁chiefs	-8106
▁implic	-8107
▁limits	-8108
▁peiyan	-8109
▁purely	-8110
▁renown	-8111
▁sister	-8112
▁slogan	-8113
▁urumqi	-8114
▁affects	-8115
▁borders	-8116
▁commend	-8117
▁exploit	-8118
▁gaining	-8119
▁prudent	-8120
▁reaches	-8121
▁soberly	-8122
▁soldier	-8123
▁strides	-8124
▁unknown	-8125
▁category	-8126
▁crossing	-8127
▁detained	-8128
▁eastward	-8129
▁lectures	-8130
▁ratified	-8131
▁register	-8132
▁reliance	-8133
▁forefront	-8134
▁genuinely	-8135
▁jerusalem	-8136
▁presently	-8137
▁admiration	-8138
▁forcefully	-8139
▁influences	-8140
▁misgivings	-8141
▁standpoint	-8142
▁undermined	-8143
▁approaching	-8144
▁confronting	-8145
▁consecutive	-8146
▁cornerstone	-8147
▁transformed	-8148
▁commissioner	-8149
▁disadvantages	-8150
▁realistically	-8151
dy	-8152
uge	-8153
yev	-8154
▁jr	-8155
▁lt	-8156
▁va	-8157
oufl	-8158
pion	-8159
wang	-8160
zens	-8161
zhao	-8162
▁bow	-8163
▁hes	-8164
▁lou	-8165
▁ram	-8166
▁sam	-8167
▁scr	-8168
▁tow	-8169
erved	-8170
eself	-8171
ortun	-8172
ouses	-8173
rupul	-8174
teous	-8175
▁1985	-8176
▁1989	-8177
▁crow	-8178
▁fled	-8179
▁jose	-8180
▁knew	-8181
▁opec	-8182
▁shop	-8183
▁chech	-8184
▁fired	-8185
▁hksar	-8186
▁mouth	-8187
▁proof	-8188
▁repay	-8189
▁retro	-8190
▁roman	-8191
▁usual	-8192
ounding	-8193
▁afford	-8194
▁attrib	-8195
▁covers	-8196
▁doctor	-8197
▁dollar	-8198
▁donald	-8199
▁dozens	-8200
▁elabor	-8201
▁emerge	-8202
▁enters	-8203
▁guesth	-8204
▁homage	-8205
▁ivanov	-8206
▁scenes	-8207
▁weaken	-8208
cription	-8209
▁appeals	-8210
▁camoufl	-8211
▁conspir	-8212
▁guangya	-8213
▁honesty	-8214
▁oneself	-8215
▁senator	-8216
▁strange	-8217
▁executed	-8218
▁forestry	-8219
▁humanity	-8220
▁intended	-8221
▁obsessed	-8222
▁refusing	-8223
▁restored	-8224
▁briefings	-8225
▁centering	-8226
▁confusion	-8227
▁exceeding	-8228
▁graduates	-8229
▁nationals	-8230
▁purchased	-8231
▁steadfast	-8232
▁xianglong	-8233
▁automobile	-8234
▁complaints	-8235
▁constraint	-8236
▁experiment	-8237
▁explosives	-8238
▁overcoming	-8239
▁philippine	-8240
▁materialism	-8241
▁subsistence	-8242
▁consolidation	-8243
▁encouragement	-8244
▁discrimination	-8245
▁accomplishments	-8246
kh	-8247
cai	-8248
▁kg	-8249
huff	-8250
inte	-8251
ivoc	-8252
▁hat	-8253
▁ine	-8254
▁ltd	-8255
▁sor	-8256
▁upd	-8257
appro	-8258
eries	-8259
▁biao	-8260
▁mete	-8261
▁muse	-8262
▁rang	-8263
embers	-8264
erable	-8265
etable	-8266
▁abuse	-8267
▁disgu	-8268
▁glory	-8269
▁incur	-8270
▁modes	-8271
▁orbit	-8272
▁pride	-8273
▁unavo	-8274
▁wheat	-8275
fulness	-8276
▁chiang	-8277
▁collud	-8278
▁daohan	-8279
▁harder	-8280
▁huaren	-8281
▁noting	-8282
▁relies	-8283
▁tempor	-8284
▁turbul	-8285
▁algeria	-8286
▁backing	-8287
▁disappe	-8288
▁guofang	-8289
▁heights	-8290
▁illustr	-8291
▁lacking	-8292
▁martyrs	-8293
▁organic	-8294
▁predict	-8295
▁qinghua	-8296
▁reshuff	-8297
▁strikes	-8298
▁adequate	-8299
▁avoiding	-8300
▁devoting	-8301
▁doctrine	-8302
▁explored	-8303
▁finished	-8304
▁marching	-8305
▁supplies	-8306
▁unipolar	-8307
▁unstable	-8308
▁violates	-8309
▁abandoned	-8310
▁believing	-8311
▁considers	-8312
▁fallacies	-8313
▁impartial	-8314
▁inflation	-8315
▁reversion	-8316
▁triggered	-8317
▁venezuela	-8318
▁appointing	-8319
▁components	-8320
▁conscience	-8321
▁dialectical	-8322
▁feasibility	-8323
▁undermining	-8324
15	-8325
iu	-8326
oi	-8327
cer	-8328
eon	-8329
pay	-8330
rad	-8331
roc	-8332
▁pu	-8333
enko	-8334
esty	-8335
uded	-8336
▁bin	-8337
▁hai	-8338
▁hsu	-8339
▁las	-8340
▁qiu	-8341
▁sle	-8342
antic	-8343
oking	-8344
otent	-8345
▁1960	-8346
▁balk	-8347
▁barg	-8348
▁cure	-8349
▁dawn	-8350
▁dual	-8351
▁fasc	-8352
▁fool	-8353
▁frig	-8354
▁gamb	-8355
▁hawk	-8356
▁ours	-8357
▁rand	-8358
▁tsai	-8359
arency	-8360
iating	-8361
licted	-8362
▁alloc	-8363
▁angry	-8364
▁audio	-8365
▁junct	-8366
▁weeks	-8367
issions	-8368
▁embezz	-8369
▁encirc	-8370
▁exclud	-8371
▁heroin	-8372
▁inject	-8373
▁moftec	-8374
▁reagan	-8375
▁refuge	-8376
▁relied	-8377
▁spaces	-8378
▁string	-8379
▁checked	-8380
▁croatia	-8381
▁excited	-8382
▁impover	-8383
▁iranian	-8384
▁lifting	-8385
▁tragedy	-8386
▁assuming	-8387
▁deciding	-8388
▁endanger	-8389
▁opposite	-8390
▁sweeping	-8391
▁competent	-8392
▁constrain	-8393
▁destroyer	-8394
▁discharge	-8395
▁overthrow	-8396
▁predecess	-8397
▁privately	-8398
▁punishing	-8399
▁shoulders	-8400
▁worsening	-8401
▁containing	-8402
▁techniques	-8403
▁bureaucracy	-8404
▁advantageous	-8405
▁considerably	-8406
▁transparency	-8407
▁manifestation	-8408
anou	-8409
eney	-8410
fall	-8411
mans	-8412
▁joh	-8413
▁mei	-8414
▁sco	-8415
▁shr	-8416
▁sih	-8417
▁tea	-8418
▁unh	-8419
▁voy	-8420
ifice	-8421
order	-8422
▁2002	-8423
▁dict	-8424
▁gear	-8425
▁geng	-8426
▁hamp	-8427
▁loan	-8428
▁nons	-8429
▁outl	-8430
▁sick	-8431
▁vers	-8432
▁wins	-8433
integr	-8434
▁emper	-8435
▁fails	-8436
▁harms	-8437
▁irres	-8438
▁rival	-8439
▁spots	-8440
ipotent	-8441
▁cheney	-8442
▁doomed	-8443
▁ignore	-8444
▁nether	-8445
▁ponder	-8446
▁thinks	-8447
▁vladim	-8448
▁bureaus	-8449
▁failing	-8450
▁lebanon	-8451
▁machine	-8452
▁rockets	-8453
▁schemes	-8454
▁spirits	-8455
▁sternly	-8456
▁airfield	-8457
▁defeated	-8458
▁delegate	-8459
▁homeland	-8460
▁identity	-8461
▁innovate	-8462
▁luncheon	-8463
▁manpower	-8464
▁pensions	-8465
▁persuade	-8466
▁referred	-8467
▁relation	-8468
▁changxing	-8469
▁corporate	-8470
▁disintegr	-8471
▁extending	-8472
▁importing	-8473
▁similarly	-8474
▁timetable	-8475
▁afterwards	-8476
▁approaches	-8477
▁bankruptcy	-8478
▁earthquake	-8479
▁economists	-8480
▁embodiment	-8481
▁influenced	-8482
▁occurrence	-8483
▁netherlands	-8484
▁temporarily	-8485
▁conservation	-8486
▁environments	-8487
▁examinations	-8488
▁performances	-8489
▁promulgation	-8490
▁entertainment	-8491
▁petrochemical	-8492
▁congratulatory	-8493
40	-8494
99	-8495
ipt	-8496
anbe	-8497
ccer	-8498
flow	-8499
idai	-8500
ouds	-8501
▁160	-8502
▁ard	-8503
▁dow	-8504
▁liv	-8505
▁lod	-8506
▁mov	-8507
▁quo	-8508
andan	-8509
ifies	-8510
ordan	-8511
orers	-8512
▁ange	-8513
▁echo	-8514
▁pien	-8515
▁porn	-8516
▁pull	-8517
▁serf	-8518
▁sums	-8519
▁trib	-8520
▁walk	-8521
estock	-8522
minent	-8523
▁blame	-8524
▁chain	-8525
▁cycle	-8526
▁fault	-8527
▁flags	-8528
▁james	-8529
▁perse	-8530
▁sided	-8531
▁upsur	-8532
astrous	-8533
▁checks	-8534
▁clouds	-8535
▁evoked	-8536
▁milest	-8537
▁soccer	-8538
▁spoken	-8539
▁stayed	-8540
▁suppor	-8541
▁embrace	-8542
▁immense	-8543
▁propose	-8544
▁recount	-8545
▁refuses	-8546
▁savings	-8547
▁suicide	-8548
▁teacher	-8549
▁viewing	-8550
▁accommod	-8551
▁afforest	-8552
▁broadest	-8553
▁centered	-8554
▁dushanbe	-8555
▁enduring	-8556
▁enforced	-8557
▁expedite	-8558
▁exposing	-8559
▁floating	-8560
▁location	-8561
▁renowned	-8562
▁sympathy	-8563
▁behaviors	-8564
▁commended	-8565
▁decreased	-8566
▁investing	-8567
▁livestock	-8568
▁purchases	-8569
▁recommend	-8570
▁apparently	-8571
▁directions	-8572
▁disastrous	-8573
▁greenhouse	-8574
▁pornograph	-8575
▁separating	-8576
▁antidumping	-8577
▁instability	-8578
▁penetrating	-8579
▁understands	-8580
▁coordinating	-8581
▁counterparts	-8582
▁intermediary	-8583
200	-8584
arc	-8585
fia	-8586
▁4,	-8587
▁46	-8588
▁95	-8589
▁bol	-8590
▁jam	-8591
▁pit	-8592
▁sat	-8593
▁tap	-8594
anouk	-8595
inery	-8596
inger	-8597
iping	-8598
qiang	-8599
sters	-8600
▁beat	-8601
▁cong	-8602
▁feet	-8603
▁obey	-8604
▁pick	-8605
▁pret	-8606
▁teen	-8607
▁unus	-8608
cribed	-8609
uously	-8610
zhuang	-8611
▁beach	-8612
▁irreg	-8613
▁overr	-8614
▁paris	-8615
▁qiang	-8616
▁rigor	-8617
▁50,000	-8618
▁borrow	-8619
▁endeav	-8620
▁forgot	-8621
▁jordan	-8622
▁retail	-8623
▁valley	-8624
▁voices	-8625
appropri	-8626
▁chunlin	-8627
▁formula	-8628
▁grasped	-8629
▁retreat	-8630
▁contains	-8631
▁encroach	-8632
▁imposing	-8633
▁laborers	-8634
▁managers	-8635
▁normally	-8636
▁presence	-8637
▁reconsid	-8638
▁requests	-8639
▁revenues	-8640
▁sihanouk	-8641
▁slightly	-8642
▁tourists	-8643
▁unfortun	-8644
▁arbitrary	-8645
▁declining	-8646
▁irreplace	-8647
▁mediation	-8648
▁prolonged	-8649
▁sacrifice	-8650
▁sentences	-8651
▁deterrence	-8652
▁emphasizes	-8653
▁indonesian	-8654
▁multiparty	-8655
▁reflection	-8656
▁containment	-8657
▁distinguish	-8658
▁expositions	-8659
▁flexibility	-8660
▁flourishing	-8661
▁methodology	-8662
▁emancipation	-8663
▁impoverished	-8664
▁productivity	-8665
▁transactions	-8666
▁authorization	-8667
▁deterioration	-8668
▁ideologically	-8669
▁protectionism	-8670
▁diversification	-8671
▁extraordinarily	-8672
44	-8673
hr	-8674
300	-8675
bel	-8676
vol	-8677
▁dw	-8678
▁os	-8679
alle	-8680
cons	-8681
itud	-8682
mail	-8683
ried	-8684
uchi	-8685
xian	-8686
▁iii	-8687
▁map	-8688
▁roc	-8689
agues	-8690
ernal	-8691
ormal	-8692
reath	-8693
▁1984	-8694
▁bull	-8695
▁liqu	-8696
▁alert	-8697
▁cubic	-8698
▁disag	-8699
▁hydro	-8700
▁looph	-8701
▁magic	-8702
▁noble	-8703
▁raidi	-8704
▁recur	-8705
▁roads	-8706
▁sympt	-8707
▁wuhan	-8708
▁affirm	-8709
▁detect	-8710
▁earned	-8711
▁flames	-8712
▁infant	-8713
▁merger	-8714
▁museum	-8715
▁obuchi	-8716
▁papers	-8717
▁benevol	-8718
▁deceive	-8719
▁equally	-8720
▁exagger	-8721
▁existed	-8722
▁intends	-8723
▁kingdom	-8724
▁posture	-8725
▁slogans	-8726
▁upsurge	-8727
▁virtual	-8728
▁accorded	-8729
▁damaging	-8730
▁identify	-8731
▁ignoring	-8732
▁reemploy	-8733
▁resuming	-8734
▁slovakia	-8735
▁stopping	-8736
▁vladimir	-8737
▁campaigns	-8738
▁deterrent	-8739
▁fostering	-8740
▁hospitals	-8741
▁irregular	-8742
▁machinery	-8743
▁milestone	-8744
▁responded	-8745
▁searching	-8746
▁suspended	-8747
▁conversion	-8748
▁counteratt	-8749
▁criticisms	-8750
▁formidable	-8751
▁guesthouse	-8752
▁inspecting	-8753
▁rationally	-8754
▁resumption	-8755
▁accountable	-8756
▁afghanistan	-8757
▁backgrounds	-8758
▁comparative	-8759
▁forthcoming	-8760
▁militarists	-8761
▁prefectural	-8762
▁reinforcing	-8763
▁restricting	-8764
▁incorporated	-8765
▁verification	-8766
▁exceptionally	-8767
▁irreplaceable	-8768
tc	-8769
-16	-8770
dad	-8771
irk	-8772
urg	-8773
▁65	-8774
aked	-8775
arer	-8776
drop	-8777
room	-8778
ubin	-8779
▁192	-8780
▁boy	-8781
▁hol	-8782
▁mad	-8783
▁naz	-8784
▁raw	-8785
adequ	-8786
iumph	-8787
▁bish	-8788
▁crop	-8789
▁curb	-8790
▁deli	-8791
▁hack	-8792
▁inex	-8793
▁salv	-8794
▁trag	-8795
▁ugly	-8796
ieties	-8797
ighted	-8798
itudes	-8799
opular	-8800
▁barra	-8801
▁borne	-8802
▁crewm	-8803
▁detri	-8804
▁feels	-8805
▁fewer	-8806
▁indif	-8807
▁manip	-8808
▁mirac	-8809
▁misle	-8810
▁music	-8811
▁overt	-8812
▁tenet	-8813
▁warpl	-8814
▁widen	-8815
▁advice	-8816
▁arrive	-8817
▁attent	-8818
▁battal	-8819
▁brazen	-8820
▁burned	-8821
▁consul	-8822
▁memory	-8823
▁offend	-8824
▁shaken	-8825
▁solely	-8826
▁tested	-8827
itorious	-8828
▁blindly	-8829
▁clashes	-8830
▁damages	-8831
▁distant	-8832
▁favored	-8833
▁inadequ	-8834
▁ongoing	-8835
▁richard	-8836
▁signals	-8837
▁streets	-8838
▁surpass	-8839
▁swiftly	-8840
▁triumph	-8841
▁writers	-8842
▁ambition	-8843
▁analyses	-8844
▁armitage	-8845
▁arrogant	-8846
▁boundary	-8847
▁canadian	-8848
▁choosing	-8849
▁claiming	-8850
▁gambling	-8851
▁inviting	-8852
▁recorded	-8853
▁tangible	-8854
▁argentine	-8855
▁combating	-8856
▁eradicate	-8857
▁factories	-8858
▁forgotten	-8859
▁healthily	-8860
▁perfected	-8861
▁requested	-8862
▁subjected	-8863
▁unequivoc	-8864
▁unpopular	-8865
▁varieties	-8866
▁voluntary	-8867
▁acceptable	-8868
▁deliberate	-8869
▁irrigation	-8870
▁peripheral	-8871
▁prominence	-8872
▁retrogress	-8873
▁conferences	-8874
▁confiscated	-8875
▁consequence	-8876
▁crewmembers	-8877
▁imperialism	-8878
▁meritorious	-8879
▁backwardness	-8880
▁rejuvenating	-8881
▁concentrating	-8882
▁developmental	-8883
▁supplementary	-8884
ala	-8885
ato	-8886
qog	-8887
▁di	-8888
aped	-8889
tsin	-8890
▁ale	-8891
▁ice	-8892
▁kon	-8893
▁luk	-8894
▁rig	-8895
atami	-8896
borne	-8897
ipped	-8898
udong	-8899
▁1982	-8900
▁1988	-8901
▁anxi	-8902
▁heed	-8903
▁hint	-8904
▁jief	-8905
▁jung	-8906
▁kiss	-8907
▁noon	-8908
▁peak	-8909
▁tant	-8910
idaihe	-8911
utable	-8912
▁cited	-8913
▁cloth	-8914
▁corre	-8915
▁finds	-8916
▁lings	-8917
▁panel	-8918
▁prize	-8919
▁quota	-8920
▁shook	-8921
▁simpl	-8922
▁songs	-8923
▁soong	-8924
▁sorry	-8925
▁tears	-8926
▁tools	-8927
▁utter	-8928
▁venue	-8929
manship	-8930
pionage	-8931
▁divide	-8932
▁fright	-8933
▁geared	-8934
▁incess	-8935
▁invite	-8936
▁legqog	-8937
▁obstin	-8938
ighteous	-8939
▁eternal	-8940
▁exerted	-8941
▁expense	-8942
▁frankly	-8943
▁happily	-8944
▁insists	-8945
▁lagging	-8946
▁printed	-8947
▁reconst	-8948
▁yeltsin	-8949
▁appealed	-8950
▁backdrop	-8951
▁colorful	-8952
▁delivery	-8953
▁disorder	-8954
▁earliest	-8955
▁entities	-8956
▁hardware	-8957
▁highways	-8958
▁honorary	-8959
▁imminent	-8960
▁juncture	-8961
▁locality	-8962
▁outbreak	-8963
▁tensions	-8964
▁arguments	-8965
▁assisting	-8966
▁contained	-8967
▁copyright	-8968
▁espionage	-8969
▁financing	-8970
▁inspiring	-8971
▁intervene	-8972
▁revisions	-8973
▁automation	-8974
▁popularize	-8975
▁quantities	-8976
▁reunifying	-8977
▁convenience	-8978
▁detrimental	-8979
▁extricating	-8980
▁hospitality	-8981
▁nationalist	-8982
▁proletarian	-8983
▁provocation	-8984
▁publicizing	-8985
▁historically	-8986
▁infringement	-8987
▁popularizing	-8988
▁preparedness	-8989
▁superstition	-8990
▁functionaries	-8991
fi	-8992
dao	-8993
qun	-8994
▁41	-8995
arak	-8996
ikou	-8997
inal	-8998
llor	-8999
orse	-9000
▁anx	-9001
▁hav	-9002
▁lun	-9003
▁mub	-9004
▁mud	-9005
▁phr	-9006
▁que	-9007
▁syn	-9008
▁unl	-9009
cible	-9010
erest	-9011
ghdad	-9012
ivism	-9013
retch	-9014
▁atom	-9015
▁coin	-9016
▁moro	-9017
▁neut	-9018
▁rebu	-9019
▁rent	-9020
▁ring	-9021
▁shih	-9022
▁swed	-9023
▁visa	-9024
apping	-9025
itious	-9026
▁arise	-9027
▁canon	-9028
▁compr	-9029
▁crude	-9030
▁deals	-9031
▁malta	-9032
▁singh	-9033
ilation	-9034
▁absorb	-9035
▁basing	-9036
▁deaths	-9037
▁domain	-9038
▁guoqin	-9039
▁haikou	-9040
▁incent	-9041
▁inland	-9042
▁patrol	-9043
▁plural	-9044
▁shijia	-9045
▁venues	-9046
▁walked	-9047
▁willia	-9048
▁baghdad	-9049
▁burning	-9050
▁elderly	-9051
▁excuses	-9052
▁fraudul	-9053
▁heading	-9054
▁helpful	-9055
▁khatami	-9056
▁leasing	-9057
▁pursues	-9058
▁survive	-9059
▁totaled	-9060
▁transit	-9061
▁uniting	-9062
▁wounded	-9063
▁advisers	-9064
▁amending	-9065
▁annually	-9066
▁beidaihe	-9067
▁cohesion	-9068
▁decrease	-9069
▁destruct	-9070
▁divorced	-9071
▁lingshui	-9072
▁mingqing	-9073
▁mobility	-9074
▁reckless	-9075
▁symptoms	-9076
▁touching	-9077
▁underest	-9078
▁utilized	-9079
▁xuanping	-9080
▁abolished	-9081
▁alternate	-9082
▁approving	-9083
▁centuries	-9084
▁emissions	-9085
▁endeavors	-9086
▁husbandry	-9087
▁regularly	-9088
▁concluding	-9089
▁conspiracy	-9090
▁contracted	-9091
▁pronounced	-9092
▁recognizes	-9093
▁simulation	-9094
▁tantamount	-9095
▁attentively	-9096
▁challenging	-9097
▁collectives	-9098
▁dimensional	-9099
▁plenipotent	-9100
▁practically	-9101
▁residential	-9102
▁restriction	-9103
▁spaceflight	-9104
▁shijiazhuang	-9105
▁manufacturers	-9106
cp	-9107
fp	-9108
asy	-9109
eas	-9110
jia	-9111
ole	-9112
udi	-9113
▁cd	-9114
▁tu	-9115
asse	-9116
ayan	-9117
eder	-9118
oguo	-9119
owed	-9120
ushi	-9121
▁abn	-9122
▁eat	-9123
▁mel	-9124
▁slu	-9125
liang	-9126
ueher	-9127
▁chou	-9128
▁duma	-9129
▁girl	-9130
▁john	-9131
▁kham	-9132
▁monu	-9133
▁noes	-9134
▁pays	-9135
▁reop	-9136
▁sand	-9137
▁stor	-9138
▁warn	-9139
angjun	-9140
orized	-9141
▁boast	-9142
▁cryst	-9143
▁downt	-9144
▁firms	-9145
▁globe	-9146
▁invin	-9147
▁lands	-9148
▁laser	-9149
▁mafia	-9150
▁merit	-9151
▁rogue	-9152
isition	-9153
▁bloody	-9154
▁breaks	-9155
▁comply	-9156
▁hiring	-9157
▁jinmen	-9158
▁joseph	-9159
▁layout	-9160
▁meteor	-9161
▁rarely	-9162
▁twenty	-9163
▁winter	-9164
▁yunlin	-9165
▁ceremon	-9166
▁conceal	-9167
▁consumm	-9168
▁denying	-9169
▁dumping	-9170
▁exceeds	-9171
▁mubarak	-9172
▁ningxia	-9173
▁prueher	-9174
▁reverse	-9175
▁spanish	-9176
▁stretch	-9177
▁touched	-9178
▁varying	-9179
▁warming	-9180
▁zhaoguo	-9181
isticated	-9182
▁guangkai	-9183
▁messages	-9184
▁monaster	-9185
▁openness	-9186
▁postpone	-9187
▁rigorous	-9188
▁smuggled	-9189
▁tracking	-9190
▁ambiguous	-9191
▁ancestors	-9192
▁exercised	-9193
▁frontline	-9194
▁preceding	-9195
▁righteous	-9196
▁camouflage	-9197
▁encourages	-9198
▁optimizing	-9199
▁persisting	-9200
▁resentment	-9201
▁shouldered	-9202
▁celebration	-9203
▁connotation	-9204
▁countryside	-9205
▁excessively	-9206
▁academicians	-9207
▁confidential	-9208
▁ratification	-9209
▁reemployment	-9210
▁strategically	-9211
▁indiscriminate	-9212
17	-9213
35	-9214
ki	-9215
pu	-9216
hou	-9217
iad	-9218
ima	-9219
qiu	-9220
uli	-9221
▁6,	-9222
ares	-9223
arma	-9224
ashi	-9225
ball	-9226
educ	-9227
uman	-9228
▁120	-9229
▁ham	-9230
▁ipu	-9231
▁jew	-9232
▁qat	-9233
▁yaf	-9234
haust	-9235
mates	-9236
pered	-9237
▁feed	-9238
▁frag	-9239
▁lift	-9240
▁ruan	-9241
▁scra	-9242
▁tall	-9243
▁unne	-9244
▁zero	-9245
bances	-9246
ighter	-9247
▁chose	-9248
▁erect	-9249
▁jingl	-9250
▁regen	-9251
▁rumor	-9252
iliated	-9253
▁allows	-9254
▁awards	-9255
▁demarc	-9256
▁entity	-9257
▁fortun	-9258
▁junior	-9259
▁lukash	-9260
▁nobody	-9261
▁provoc	-9262
▁recomm	-9263
▁routes	-9264
▁ruined	-9265
▁tactic	-9266
▁tragic	-9267
▁waging	-9268
leration	-9269
▁angeles	-9270
▁aquatic	-9271
▁contend	-9272
▁discont	-9273
▁heavily	-9274
▁imagine	-9275
▁pension	-9276
▁storage	-9277
▁summary	-9278
▁telling	-9279
▁walking	-9280
▁abnormal	-9281
▁airborne	-9282
▁barracks	-9283
▁brothers	-9284
▁buddhism	-9285
▁enriched	-9286
▁infantry	-9287
▁patterns	-9288
▁reformed	-9289
▁rightist	-9290
▁sinister	-9291
▁unlikely	-9292
▁airplanes	-9293
▁forbidden	-9294
▁inhabited	-9295
▁isolation	-9296
▁northwest	-9297
▁strengths	-9298
▁tolerance	-9299
▁bargaining	-9300
▁dominating	-9301
▁groundless	-9302
▁jiefangjun	-9303
▁managerial	-9304
▁mobilizing	-9305
▁renovation	-9306
▁struggling	-9307
▁destructive	-9308
▁determining	-9309
▁legislators	-9310
▁proposition	-9311
▁unavoidable	-9312
▁disturbances	-9313
▁dissemination	-9314
▁sophisticated	-9315
70	-9316
do	-9317
eem	-9318
▁53	-9319
▁ak	-9320
▁ka	-9321
▁pb	-9322
jpay	-9323
olit	-9324
onts	-9325
▁1.6	-9326
▁ber	-9327
▁der	-9328
▁dry	-9329
▁kar	-9330
▁ush	-9331
▁wah	-9332
adays	-9333
erves	-9334
ested	-9335
ional	-9336
rible	-9337
uplic	-9338
▁chat	-9339
▁kono	-9340
▁lags	-9341
▁mail	-9342
▁sons	-9343
▁zong	-9344
ercuss	-9345
ilding	-9346
inking	-9347
isible	-9348
jpayee	-9349
▁farce	-9350
▁indul	-9351
▁khamt	-9352
▁rigid	-9353
▁schro	-9354
▁stagn	-9355
▁sword	-9356
alemate	-9357
ificial	-9358
ressing	-9359
▁agents	-9360
▁astron	-9361
▁atomic	-9362
▁buddha	-9363
▁covert	-9364
▁exempt	-9365
▁extrad	-9366
▁fronts	-9367
▁liquid	-9368
▁retain	-9369
▁rushed	-9370
▁trails	-9371
▁voiced	-9372
▁xinwen	-9373
▁yellow	-9374
▁zhuhai	-9375
▁abiding	-9376
▁adheres	-9377
▁answers	-9378
▁bullied	-9379
▁devices	-9380
▁edition	-9381
▁farther	-9382
▁prosper	-9383
▁quietly	-9384
▁shifted	-9385
▁stating	-9386
▁stealth	-9387
▁william	-9388
▁consists	-9389
▁diligent	-9390
▁entrance	-9391
▁estimate	-9392
▁facility	-9393
▁hangzhou	-9394
▁irresist	-9395
▁nonsense	-9396
▁nowadays	-9397
▁secondly	-9398
▁situated	-9399
▁sticking	-9400
▁unnecess	-9401
rupulously	-9402
▁battalion	-9403
▁collusion	-9404
▁departure	-9405
▁diversity	-9406
▁graduated	-9407
▁kissinger	-9408
▁loopholes	-9409
▁persisted	-9410
▁prevented	-9411
▁producers	-9412
▁proposing	-9413
▁recovered	-9414
▁repercuss	-9415
▁stalemate	-9416
▁artificial	-9417
▁continents	-9418
▁invincible	-9419
▁possession	-9420
▁proclaimed	-9421
▁readjusted	-9422
▁resettling	-9423
▁straighten	-9424
▁syndicates	-9425
▁celebrating	-9426
▁disparities	-9427
▁distinctive	-9428
▁emphasizing	-9429
▁instruments	-9430
▁progressing	-9431
▁shouldering	-9432
▁accumulation	-9433
▁battlefields	-9434
▁certificates	-9435
▁dissatisfied	-9436
▁infiltration	-9437
▁afforestation	-9438
▁distinguished	-9439
▁substantially	-9440
▁accomplishment	-9441
▁plenipotentiary	-9442
da	-9443
▁+	-9444
600	-9445
har	-9446
hih	-9447
shi	-9448
▁63	-9449
greg	-9450
nake	-9451
▁110	-9452
▁700	-9453
▁cul	-9454
▁cyl	-9455
▁eag	-9456
▁pfp	-9457
arged	-9458
inter	-9459
zhang	-9460
▁bare	-9461
▁barr	-9462
▁hing	-9463
▁hsin	-9464
▁impl	-9465
▁mart	-9466
▁mush	-9467
hihara	-9468
izhong	-9469
person	-9470
▁bread	-9471
▁evade	-9472
▁hanoi	-9473
▁horiz	-9474
▁popul	-9475
▁retal	-9476
▁saudi	-9477
▁smash	-9478
▁snake	-9479
▁stone	-9480
▁surre	-9481
▁tells	-9482
▁uncle	-9483
▁worst	-9484
comings	-9485
holders	-9486
ouncing	-9487
▁agrees	-9488
▁couple	-9489
▁driven	-9490
▁evaded	-9491
▁heresy	-9492
▁nonpro	-9493
▁reeduc	-9494
▁sharon	-9495
▁sloven	-9496
▁storms	-9497
▁suprem	-9498
▁tenure	-9499
▁unrest	-9500
cessions	-9501
official	-9502
▁choices	-9503
▁paralle	-9504
▁qizheng	-9505
▁radical	-9506
▁singing	-9507
▁sounded	-9508
▁turkish	-9509
▁captured	-9510
▁egyptian	-9511
▁everyday	-9512
▁friction	-9513
▁frigates	-9514
▁generals	-9515
▁ishihara	-9516
▁monument	-9517
▁operated	-9518
▁pioneers	-9519
▁pipeline	-9520
▁removing	-9521
▁shocking	-9522
▁telegram	-9523
▁upgraded	-9524
▁vajpayee	-9525
▁benefited	-9526
▁budgetary	-9527
▁communiqu	-9528
▁comparing	-9529
▁daughters	-9530
▁depending	-9531
▁directing	-9532
▁languages	-9533
▁mastering	-9534
▁chancellor	-9535
▁contradict	-9536
▁faithfully	-9537
▁mentioning	-9538
▁troublemak	-9539
▁arbitrarily	-9540
▁ceaselessly	-9541
▁concessions	-9542
▁cooperating	-9543
▁demarcation	-9544
▁recruitment	-9545
▁statistical	-9546
▁territories	-9547
▁transmitted	-9548
▁unnecessary	-9549
▁irresistible	-9550
▁shortcomings	-9551
▁transferring	-9552
▁repercussions	-9553
▁pharmaceutical	-9554
▁democratization	-9555
app	-9556
rel	-9557
▁54	-9558
▁62	-9559
▁68	-9560
▁ah	-9561
▁nd	-9562
back	-9563
grim	-9564
ifts	-9565
ixin	-9566
ixon	-9567
oddy	-9568
outs	-9569
▁bed	-9570
▁tse	-9571
asive	-9572
atics	-9573
bayev	-9574
elect	-9575
ifeng	-9576
isted	-9577
▁1986	-9578
▁bars	-9579
▁bell	-9580
▁chir	-9581
▁club	-9582
▁evol	-9583
▁fert	-9584
▁frat	-9585
▁jeff	-9586
▁sham	-9587
▁tent	-9588
ateful	-9589
essing	-9590
▁acced	-9591
▁ample	-9592
▁badly	-9593
▁datab	-9594
▁eased	-9595
▁giant	-9596
▁jinan	-9597
▁loved	-9598
▁memor	-9599
▁nixon	-9600
▁plots	-9601
▁qatar	-9602
▁saint	-9603
▁serge	-9604
▁shock	-9605
ections	-9606
▁angang	-9607
▁contra	-9608
▁dinner	-9609
▁duplic	-9610
▁hatred	-9611
▁inquir	-9612
▁koreas	-9613
▁myself	-9614
▁nandan	-9615
▁postal	-9616
▁quoted	-9617
▁shoddy	-9618
▁strata	-9619
▁stride	-9620
▁unjust	-9621
▁disturb	-9622
▁fastest	-9623
▁forbear	-9624
▁hitting	-9625
▁jianhui	-9626
▁lawless	-9627
▁legally	-9628
▁lightly	-9629
▁pilgrim	-9630
▁breeding	-9631
▁collabor	-9632
▁collided	-9633
▁deficits	-9634
▁deprived	-9635
▁energies	-9636
▁exported	-9637
▁jeffords	-9638
▁logistic	-9639
▁perverse	-9640
▁proposes	-9641
▁railways	-9642
▁relieved	-9643
▁squadron	-9644
▁consulate	-9645
▁economist	-9646
▁extremist	-9647
▁operators	-9648
▁opponents	-9649
▁postponed	-9650
▁requiring	-9651
▁spaceship	-9652
▁substance	-9653
▁unfolding	-9654
▁concession	-9655
▁cooperated	-9656
▁definition	-9657
▁displaying	-9658
▁instituted	-9659
▁lukashenko	-9660
▁priorities	-9661
▁reflecting	-9662
▁socialized	-9663
▁sufferings	-9664
▁conventions	-9665
▁criticizing	-9666
▁disciplines	-9667
▁indifferent	-9668
▁nationalism	-9669
▁periodicals	-9670
▁prohibition	-9671
▁temperature	-9672
▁acceleration	-9673
▁consummation	-9674
▁invigorating	-9675
▁shareholding	-9676
-7	-9677
wu	-9678
aro	-9679
iev	-9680
itz	-9681
met	-9682
tic	-9683
▁00	-9684
▁5,	-9685
▁74	-9686
▁92	-9687
bert	-9688
guan	-9689
▁193	-9690
▁bag	-9691
▁bog	-9692
▁hyp	-9693
▁ipr	-9694
▁lei	-9695
▁mun	-9696
▁ped	-9697
▁sne	-9698
▁tex	-9699
▁umb	-9700
▁uyg	-9701
▁wre	-9702
itate	-9703
odong	-9704
owing	-9705
ramid	-9706
table	-9707
uchao	-9708
▁bent	-9709
▁cart	-9710
▁huan	-9711
▁jong	-9712
▁liao	-9713
▁mood	-9714
▁quad	-9715
▁silk	-9716
▁stem	-9717
▁wire	-9718
▁yard	-9719
ignant	-9720
termin	-9721
▁burma	-9722
▁exile	-9723
▁habit	-9724
▁jiyun	-9725
▁libya	-9726
▁luong	-9727
▁meets	-9728
▁mixed	-9729
▁overl	-9730
▁overs	-9731
▁remed	-9732
▁thick	-9733
▁thres	-9734
erating	-9735
ication	-9736
ologies	-9737
▁beings	-9738
▁chirac	-9739
▁device	-9740
▁greece	-9741
▁guards	-9742
▁hinder	-9743
▁judged	-9744
▁lifted	-9745
▁mighty	-9746
▁murder	-9747
▁photos	-9748
▁plenum	-9749
▁poland	-9750
▁replen	-9751
▁ruchao	-9752
▁silver	-9753
▁struck	-9754
▁themes	-9755
▁unreal	-9756
▁valued	-9757
▁zhubin	-9758
lamation	-9759
▁anxious	-9760
▁clearer	-9761
▁delayed	-9762
▁desired	-9763
▁earning	-9764
▁ecology	-9765
▁hearted	-9766
▁jinlong	-9767
▁moldova	-9768
▁nanning	-9769
▁neutral	-9770
▁pyramid	-9771
▁ranging	-9772
▁sitting	-9773
▁surveys	-9774
▁trustee	-9775
▁unequal	-9776
▁albanian	-9777
▁lifeline	-9778
▁likewise	-9779
▁lowering	-9780
▁maturity	-9781
▁parallel	-9782
▁reciproc	-9783
▁reversed	-9784
▁selfless	-9785
▁vigilant	-9786
▁concealed	-9787
▁connected	-9788
▁energetic	-9789
▁extricate	-9790
▁inflicted	-9791
▁installed	-9792
▁judgement	-9793
▁liability	-9794
▁possessed	-9795
▁presidium	-9796
▁promising	-9797
▁rejecting	-9798
▁restoring	-9799
▁schroeder	-9800
▁societies	-9801
▁threshold	-9802
▁boundaries	-9803
▁centralism	-9804
▁generating	-9805
▁helicopter	-9806
▁inadequate	-9807
▁inappropri	-9808
▁possessing	-9809
▁potentials	-9810
▁protestant	-9811
▁recruiting	-9812
▁supporters	-9813
▁unofficial	-9814
▁anticipated	-9815
▁obstinately	-9816
▁reeducation	-9817
▁celebrations	-9818
▁degeneration	-9819
▁disappointed	-9820
▁missionaries	-9821
▁regeneration	-9822
▁bureaucratism	-9823
▁confrontations	-9824
▁industrialized	-9825
np	-9826
ago	-9827
fei	-9828
ket	-9829
ris	-9830
wto	-9831
▁78	-9832
ilty	-9833
metr	-9834
rant	-9835
rell	-9836
usal	-9837
▁1.5	-9838
▁863	-9839
▁ash	-9840
▁bei	-9841
▁daw	-9842
▁ken	-9843
▁lux	-9844
▁mrs	-9845
▁sew	-9846
▁vic	-9847
▁zai	-9848
ggish	-9849
▁buhe	-9850
▁cann	-9851
▁corp	-9852
▁gist	-9853
▁harn	-9854
▁lobb	-9855
▁shou	-9856
▁tune	-9857
▁unac	-9858
acious	-9859
▁audit	-9860
▁brink	-9861
▁camps	-9862
▁chess	-9863
▁coinc	-9864
▁dared	-9865
▁epoch	-9866
▁kuang	-9867
▁midst	-9868
▁polls	-9869
▁preca	-9870
▁scand	-9871
▁spare	-9872
▁spect	-9873
▁tries	-9874
▁vague	-9875
▁wheel	-9876
▁20,000	-9877
▁aiming	-9878
▁breach	-9879
▁confed	-9880
▁daring	-9881
▁easier	-9882
▁guilty	-9883
▁havana	-9884
▁hereby	-9885
▁leaves	-9886
▁locust	-9887
▁makers	-9888
▁malays	-9889
▁miners	-9890
▁occurs	-9891
▁racial	-9892
▁reveal	-9893
▁robber	-9894
▁rounds	-9895
▁shubei	-9896
▁voyage	-9897
▁300,000	-9898
▁advised	-9899
▁anxiety	-9900
▁finland	-9901
▁harming	-9902
▁instill	-9903
▁militia	-9904
▁refusal	-9905
▁sponsor	-9906
▁tightly	-9907
▁umbrell	-9908
▁unusual	-9909
▁wishful	-9910
▁colombia	-9911
▁confused	-9912
▁croatian	-9913
▁disagree	-9914
▁embarked	-9915
▁grateful	-9916
▁greeting	-9917
▁launches	-9918
▁nurtured	-9919
▁overlook	-9920
▁salaries	-9921
▁sections	-9922
▁sluggish	-9923
▁unaccept	-9924
▁boundless	-9925
▁dedicated	-9926
▁detention	-9927
▁infringed	-9928
▁maneuvers	-9929
▁propagate	-9930
▁quickened	-9931
▁referring	-9932
▁acceptance	-9933
▁appliances	-9934
▁colleagues	-9935
▁contention	-9936
▁creatively	-9937
▁fraudulent	-9938
▁militaries	-9939
▁summarized	-9940
▁underwater	-9941
▁weaknesses	-9942
▁academician	-9943
▁alternative	-9944
▁benevolence	-9945
▁composition	-9946
▁controversy	-9947
▁negotiating	-9948
▁pornography	-9949
▁punishments	-9950
▁voluntarily	-9951
▁chairmanship	-9952
▁collectively	-9953
▁domestically	-9954
▁experiencing	-9955
▁optimization	-9956
▁unequivocally	-9957
95	-9958
ii	-9959
700	-9960
adu	-9961
jiu	-9962
rid	-9963
xiu	-9964
yss	-9965
▁44	-9966
▁57	-9967
▁ng	-9968
amat	-9969
auth	-9970
fers	-9971
lers	-9972
▁bou	-9973
▁dod	-9974
▁gnp	-9975
▁kit	-9976
▁lax	-9977
▁zou	-9978
eming	-9979
erred	-9980
ersed	-9981
icing	-9982
inson	-9983
ixing	-9984
ulgar	-9985
▁1987	-9986
▁abst	-9987
▁alex	-9988
▁ally	-9989
▁boss	-9990
▁brut	-9991
▁halt	-9992
▁jial	-9993
▁jiao	-9994
▁mald	-9995
▁mere	-9996
▁nurs	-9997
▁pboc	-9998
akable	-9999
matism	-10000
▁4,000	-10001
▁abyss	-10002
▁alive	-10003
▁burst	-10004
▁cargo	-10005
▁chips	-10006
▁clock	-10007
▁gifts	-10008
▁imbal	-10009
▁miles	-10010
▁movie	-10011
▁sland	-10012
▁tomur	-10013
▁uygur	-10014
▁waver	-10015
▁weigh	-10016
oresaid	-10017
western	-10018
working	-10019
▁adopts	-10020
▁arabia	-10021
▁ardent	-10022
▁bombed	-10023
▁differ	-10024
▁escort	-10025
▁finish	-10026
▁hinges	-10027
▁lowest	-10028
▁penghu	-10029
▁scores	-10030
▁seated	-10031
▁suspic	-10032
▁termed	-10033
▁unauth	-10034
▁500,000	-10035
▁counsel	-10036
▁creates	-10037
▁dawamat	-10038
▁enacted	-10039
▁greeted	-10040
▁knowing	-10041
▁lanzhou	-10042
▁meizhou	-10043
▁notably	-10044
▁passive	-10045
▁qingdao	-10046
▁rebates	-10047
▁relayed	-10048
▁sailing	-10049
▁substit	-10050
▁surrend	-10051
▁advisory	-10052
▁arousing	-10053
▁arriving	-10054
▁calamity	-10055
▁conclude	-10056
▁dividing	-10057
▁exerting	-10058
▁holidays	-10059
▁improper	-10060
▁wherever	-10061
▁yonghuai	-10062
▁affection	-10063
▁aforesaid	-10064
▁balancing	-10065
▁compelled	-10066
▁denounced	-10067
▁divisions	-10068
▁donations	-10069
▁estimates	-10070
▁feudalism	-10071
▁ignorance	-10072
▁notorious	-10073
▁pipelines	-10074
▁supremacy	-10075
▁syndicate	-10076
▁uruguayan	-10077
▁announcing	-10078
▁attendance	-10079
▁complexity	-10080
▁currencies	-10081
▁grasslands	-10082
▁indication	-10083
▁indicators	-10084
▁indirectly	-10085
▁quickening	-10086
▁recurrence	-10087
▁surrounded	-10088
▁forbearance	-10089
▁interceptor	-10090
▁prosecution	-10091
▁transaction	-10092
▁continuation	-10093
▁simultaneous	-10094
▁unacceptable	-10095
▁unauthorized	-10096
▁confederation	-10097
▁unremittingly	-10098
▁reconstruction	-10099
▁systematically	-10100
▁interpretations	-10101
▁revolutionaries	-10102
28	-10103
jo	-10104
nmd	-10105
ops	-10106
sen	-10107
yin	-10108
▁49	-10109
▁66	-10110
▁85	-10111
▁gy	-10112
gral	-10113
roll	-10114
tery	-10115
▁cla	-10116
▁dae	-10117
▁etc	-10118
▁fer	-10119
▁jen	-10120
▁kad	-10121
▁koo	-10122
▁tab	-10123
▁uss	-10124
axing	-10125
irong	-10126
ivals	-10127
iyuan	-10128
monov	-10129
strum	-10130
▁bird	-10131
▁cell	-10132
▁deed	-10133
▁hood	-10134
▁kung	-10135
▁lots	-10136
▁pier	-10137
▁ruin	-10138
▁sant	-10139
▁tail	-10140
▁tone	-10141
▁unde	-10142
▁unim	-10143
around	-10144
irming	-10145
soever	-10146
▁adjud	-10147
▁armen	-10148
▁calif	-10149
▁cards	-10150
▁decad	-10151
▁fifty	-10152
▁fines	-10153
▁imped	-10154
▁jialu	-10155
▁lying	-10156
▁nazar	-10157
▁nobel	-10158
▁ought	-10159
▁parag	-10160
▁raids	-10161
▁reloc	-10162
▁swing	-10163
▁triad	-10164
▁tsang	-10165
▁urges	-10166
▁usher	-10167
▁wound	-10168
ceptive	-10169
eastern	-10170
ignment	-10171
rainian	-10172
▁advers	-10173
▁basket	-10174
▁betray	-10175
▁colors	-10176
▁dished	-10177
▁extort	-10178
▁forums	-10179
▁merged	-10180
▁overst	-10181
▁refere	-10182
▁uneven	-10183
▁unhapp	-10184
▁upward	-10185
▁varied	-10186
▁winner	-10187
▁xuezhi	-10188
veringly	-10189
▁abolish	-10190
▁applies	-10191
▁banners	-10192
▁chechen	-10193
▁descend	-10194
▁dismant	-10195
▁emperor	-10196
▁enables	-10197
▁endorse	-10198
▁evading	-10199
▁focuses	-10200
▁happens	-10201
▁hungary	-10202
▁kunming	-10203
▁mingwei	-10204
▁pillars	-10205
▁pioneer	-10206
▁pirated	-10207
▁rostrum	-10208
▁yingfan	-10209
▁cardinal	-10210
▁chunwang	-10211
▁downward	-10212
▁graduate	-10213
▁integral	-10214
▁israelis	-10215
▁jinglian	-10216
▁nepalese	-10217
▁promotes	-10218
▁senators	-10219
▁shooting	-10220
▁transmit	-10221
▁traveled	-10222
▁verified	-10223
▁wenchang	-10224
▁absorbing	-10225
▁amounting	-10226
▁appraised	-10227
▁assurance	-10228
▁astronaut	-10229
▁dependent	-10230
▁disciples	-10231
▁evidently	-10232
▁extension	-10233
▁fraternal	-10234
▁gangchuan	-10235
▁incentive	-10236
▁insisting	-10237
▁medicines	-10238
▁nominated	-10239
▁offenders	-10240
▁perfectly	-10241
▁presiding	-10242
▁pressures	-10243
▁trampling	-10244
▁ukrainian	-10245
▁warplanes	-10246
▁withstood	-10247
▁aggressors	-10248
▁antagonism	-10249
▁commentary	-10250
▁elaborated	-10251
▁explosions	-10252
▁immigrants	-10253
▁mechanized	-10254
▁prescribed	-10255
▁researcher	-10256
▁whatsoever	-10257
▁accusations	-10258
▁affiliation	-10259
▁comfortable	-10260
▁contingents	-10261
▁contracting	-10262
▁materialize	-10263
▁prospecting	-10264
▁manufactured	-10265
▁programmatic	-10266
▁disintegration	-10267
▁revitalization	-10268
19	-10269
ada	-10270
atu	-10271
ham	-10272
hin	-10273
ids	-10274
ius	-10275
npc	-10276
oct	-10277
olf	-10278
▁sd	-10279
▁ww	-10280
duct	-10281
eing	-10282
ghua	-10283
lene	-10284
lesh	-10285
math	-10286
recy	-10287
rium	-10288
umes	-10289
▁asc	-10290
▁asy	-10291
▁jub	-10292
▁tip	-10293
itted	-10294
ornia	-10295
uding	-10296
ulian	-10297
▁eros	-10298
▁fold	-10299
▁gent	-10300
▁hast	-10301
▁kidn	-10302
▁leak	-10303
▁luli	-10304
▁puts	-10305
▁qiao	-10306
▁rall	-10307
▁reex	-10308
▁stam	-10309
▁sung	-10310
▁tick	-10311
▁upro	-10312
▁wear	-10313
▁yung	-10314
ficial	-10315
iverse	-10316
rewell	-10317
romagn	-10318
ulsion	-10319
▁1,500	-10320
▁aides	-10321
▁alter	-10322
▁assid	-10323
▁bears	-10324
▁chuan	-10325
▁clues	-10326
▁conqu	-10327
▁crush	-10328
▁culpr	-10329
▁flesh	-10330
▁kitty	-10331
▁opens	-10332
▁overn	-10333
▁saved	-10334
▁seeks	-10335
▁swind	-10336
▁trump	-10337
iencies	-10338
▁aggreg	-10339
▁brains	-10340
▁bumped	-10341
▁dispos	-10342
▁embark	-10343
▁incite	-10344
▁invari	-10345
▁jizhou	-10346
▁louder	-10347
▁massac	-10348
▁persec	-10349
▁picked	-10350
▁ranked	-10351
▁sewage	-10352
▁slowed	-10353
▁thesis	-10354
▁thrown	-10355
atorship	-10356
▁alexand	-10357
▁ballots	-10358
▁brother	-10359
▁compare	-10360
▁desires	-10361
▁dragged	-10362
▁forcing	-10363
▁holiday	-10364
▁instant	-10365
▁invaded	-10366
▁nigeria	-10367
▁omitted	-10368
▁package	-10369
▁penalty	-10370
▁pressed	-10371
▁secrecy	-10372
▁surging	-10373
▁vividly	-10374
▁wording	-10375
▁awaiting	-10376
▁brazenly	-10377
▁commands	-10378
▁describe	-10379
▁deserves	-10380
▁farewell	-10381
▁forceful	-10382
▁generate	-10383
▁intruded	-10384
▁lobbying	-10385
▁renounce	-10386
▁slovenia	-10387
▁speakers	-10388
▁universe	-10389
romagnetic	-10390
▁adversely	-10391
▁aftermath	-10392
▁cherished	-10393
▁confessed	-10394
▁deceiving	-10395
▁dominated	-10396
▁generated	-10397
▁invention	-10398
▁overnight	-10399
▁permeated	-10400
▁preaching	-10401
▁reiterate	-10402
▁replacing	-10403
▁reshuffle	-10404
▁teachings	-10405
▁attractive	-10406
▁california	-10407
▁consulting	-10408
▁dependence	-10409
▁exploiting	-10410
▁interviews	-10411
▁mechanical	-10412
▁passengers	-10413
▁procedural	-10414
▁prosecuted	-10415
▁questioned	-10416
▁sacrifices	-10417
▁turbulence	-10418
▁calculation	-10419
▁expressions	-10420
▁limitations	-10421
▁obstruction	-10422
▁provocative	-10423
▁superficial	-10424
▁uncondition	-10425
▁courageously	-10426
▁dictatorship	-10427
▁longstanding	-10428
▁unexpectedly	-10429
▁commemorating	-10430
▁demonstrating	-10431
▁disseminating	-10432
▁inappropriate	-10433
▁possibilities	-10434
▁socialization	-10435
▁thoroughgoing	-10436
▁identification	-10437
▁electromagnetic	-10438
▁unprecedentedly	-10439
cs	-10440
800	-10441
aur	-10442
bar	-10443
hei	-10444
iot	-10445
omu	-10446
pan	-10447
▁96	-10448
▁yo	-10449
arms	-10450
hand	-10451
ider	-10452
ijun	-10453
ilib	-10454
imed	-10455
inqu	-10456
note	-10457
▁8.2	-10458
▁cct	-10459
▁cia	-10460
▁jiu	-10461
▁kas	-10462
▁kel	-10463
▁mit	-10464
▁woe	-10465
aksin	-10466
andum	-10467
antou	-10468
cript	-10469
▁1945	-10470
▁1949	-10471
▁cass	-10472
▁malt	-10473
▁meat	-10474
▁orch	-10475
▁till	-10476
▁weal	-10477
ischer	-10478
▁cater	-10479
▁cling	-10480
▁dance	-10481
▁grams	-10482
▁hypoc	-10483
▁juven	-10484
▁marsh	-10485
▁merge	-10486
▁panch	-10487
▁paths	-10488
▁queen	-10489
▁reads	-10490
▁siren	-10491
▁sleep	-10492
▁smart	-10493
▁spell	-10494
▁texas	-10495
▁theft	-10496
▁tiger	-10497
▁trips	-10498
▁valid	-10499
▁yohei	-10500
▁30,000	-10501
▁abrupt	-10502
▁allied	-10503
▁benign	-10504
▁caihou	-10505
▁campus	-10506
▁condol	-10507
▁copies	-10508
▁esteem	-10509
▁format	-10510
▁gentle	-10511
▁hiding	-10512
▁jiahua	-10513
▁lacked	-10514
▁lately	-10515
▁loudly	-10516
▁mirror	-10517
▁outsid	-10518
▁ratify	-10519
▁reexam	-10520
▁script	-10521
▁tunnel	-10522
▁visual	-10523
ilibrium	-10524
▁animals	-10525
▁artists	-10526
▁belgium	-10527
▁boosted	-10528
▁bravely	-10529
▁captain	-10530
▁evasion	-10531
▁founder	-10532
▁nowhere	-10533
▁players	-10534
▁subsidy	-10535
▁thaksin	-10536
▁tieshan	-10537
▁wearing	-10538
▁whereby	-10539
▁adapting	-10540
▁drinking	-10541
▁elevated	-10542
▁fanatics	-10543
▁foremost	-10544
▁incoming	-10545
▁incurred	-10546
▁rendered	-10547
▁verdicts	-10548
▁assigning	-10549
▁associate	-10550
▁declaring	-10551
▁deepgoing	-10552
▁disparity	-10553
▁frequency	-10554
▁liberated	-10555
▁narrowing	-10556
▁negotiate	-10557
▁sentiment	-10558
▁successor	-10559
▁surprised	-10560
▁traveling	-10561
▁delivering	-10562
▁escalation	-10563
▁evaluating	-10564
▁ideologies	-10565
▁instrument	-10566
▁interfered	-10567
▁laboratory	-10568
▁legislator	-10569
▁lightening	-10570
▁memorandum	-10571
▁objections	-10572
▁occupation	-10573
▁publicized	-10574
▁reasonably	-10575
▁reinforced	-10576
▁successors	-10577
▁suspension	-10578
▁vegetables	-10579
▁competitors	-10580
▁deteriorate	-10581
▁indications	-10582
▁recommended	-10583
▁respondents	-10584
▁safeguarded	-10585
▁trustworthy	-10586
▁unrealistic	-10587
▁adjudication	-10588
▁appointments	-10589
▁competitions	-10590
▁contributing	-10591
▁fluctuations	-10592
▁transitional	-10593
▁counterattack	-10594
▁decisionmaking	-10595
▁standardization	-10596
50	-10597
ye	-10598
400	-10599
amy	-10600
ati	-10601
yao	-10602
▁64	-10603
▁77	-10604
▁98	-10605
▁ai	-10606
ales	-10607
arra	-10608
chao	-10609
dney	-10610
ibin	-10611
iguo	-10612
ilan	-10613
ndum	-10614
prus	-10615
roph	-10616
sels	-10617
uras	-10618
▁900	-10619
▁hub	-10620
anted	-10621
apped	-10622
apsed	-10623
arked	-10624
bered	-10625
dling	-10626
eness	-10627
ffect	-10628
ondon	-10629
pleas	-10630
urate	-10631
uster	-10632
▁1983	-10633
▁angr	-10634
▁brus	-10635
▁cctv	-10636
▁cens	-10637
▁chih	-10638
▁exit	-10639
▁hier	-10640
▁lake	-10641
▁mort	-10642
▁plag	-10643
▁ripe	-10644
▁shin	-10645
▁shun	-10646
▁sult	-10647
▁unwa	-10648
imming	-10649
▁6,000	-10650
▁blank	-10651
▁chart	-10652
▁digit	-10653
▁echel	-10654
▁indom	-10655
▁meter	-10656
▁shame	-10657
▁shore	-10658
▁spear	-10659
▁steal	-10660
▁subur	-10661
atories	-10662
veloped	-10663
▁aiding	-10664
▁arming	-10665
▁assert	-10666
▁bullet	-10667
▁cyprus	-10668
▁defect	-10669
▁disgra	-10670
▁heated	-10671
▁ismail	-10672
▁jewish	-10673
▁london	-10674
▁metall	-10675
▁parach	-10676
▁prince	-10677
▁rebate	-10678
▁safely	-10679
▁salary	-10680
▁victor	-10681
▁writer	-10682
▁awarded	-10683
▁barrier	-10684
▁breadth	-10685
▁clothes	-10686
▁concoct	-10687
▁crashed	-10688
▁curtain	-10689
▁hanging	-10690
▁impress	-10691
▁jamming	-10692
▁listing	-10693
▁merging	-10694
▁mislead	-10695
▁options	-10696
▁shantou	-10697
▁sorties	-10698
▁spouses	-10699
▁airports	-10700
▁brussels	-10701
▁commonly	-10702
▁decadent	-10703
▁flooding	-10704
▁injuries	-10705
▁inquired	-10706
▁irrevers	-10707
▁malaysia	-10708
▁mastered	-10709
▁mentally	-10710
▁mistaken	-10711
▁occupies	-10712
▁patients	-10713
▁premiers	-10714
▁refugees	-10715
▁relaxing	-10716
▁robinson	-10717
▁shouting	-10718
▁aggravate	-10719
▁aggregate	-10720
▁clarified	-10721
▁converted	-10722
▁corrected	-10723
▁deception	-10724
▁disguised	-10725
▁disrupted	-10726
▁explosive	-10727
▁exporting	-10728
▁incessant	-10729
▁judgments	-10730
▁passenger	-10731
▁penalties	-10732
▁policeman	-10733
▁reasoning	-10734
▁recalling	-10735
▁regulated	-10736
▁tolerated	-10737
▁variables	-10738
▁allowances	-10739
▁associated	-10740
▁attributed	-10741
▁broadcasts	-10742
▁compatible	-10743
▁condemning	-10744
▁correction	-10745
▁countrymen	-10746
▁credential	-10747
▁furthering	-10748
▁geographic	-10749
▁identified	-10750
▁instigated	-10751
▁politician	-10752
▁referendum	-10753
▁safeguards	-10754
▁subsequent	-10755
▁touchstone	-10756
▁unshakable	-10757
▁bourgeoisie	-10758
▁connections	-10759
▁deliberated	-10760
▁equilibrium	-10761
▁intensively	-10762
▁positioning	-10763
▁qualitative	-10764
▁restructure	-10765
▁steadfastly	-10766
▁superstruct	-10767
▁canonization	-10768
▁collectivism	-10769
▁condemnation	-10770
▁congratulate	-10771
▁connotations	-10772
▁intercepting	-10773
▁predecessors	-10774
▁congressional	-10775
33	-10776
zi	-10777
cop	-10778
cun	-10779
ips	-10780
que	-10781
rop	-10782
wed	-10783
▁cn	-10784
▁ms	-10785
▁na	-10786
▁sn	-10787
bits	-10788
load	-10789
onym	-10790
rams	-10791
rang	-10792
teen	-10793
ugal	-10794
urse	-10795
▁ali	-10796
▁bub	-10797
▁fbi	-10798
▁hau	-10799
▁tum	-10800
▁unw	-10801
▁wed	-10802
aders	-10803
adesh	-10804
bacco	-10805
oline	-10806
pract	-10807
yanov	-10808
▁aids	-10809
▁amph	-10810
▁beef	-10811
▁fame	-10812
▁fern	-10813
▁gaps	-10814
▁kofi	-10815
▁lays	-10816
▁luck	-10817
▁pave	-10818
▁perf	-10819
▁wood	-10820
seeing	-10821
▁appla	-10822
▁assim	-10823
▁blunt	-10824
▁craft	-10825
▁delhi	-10826
▁enlai	-10827
▁enshr	-10828
▁euras	-10829
▁films	-10830
▁pages	-10831
▁plung	-10832
▁remun	-10833
▁shell	-10834
▁tower	-10835
▁uncom	-10836
▁upset	-10837
▁wives	-10838
ishment	-10839
roughts	-10840
▁anthem	-10841
▁appreh	-10842
▁clever	-10843
▁envoys	-10844
▁heroes	-10845
▁inclus	-10846
▁mayors	-10847
▁metric	-10848
▁offers	-10849
▁pudong	-10850
▁rating	-10851
▁render	-10852
▁robots	-10853
▁shaped	-10854
▁acquain	-10855
▁amazing	-10856
▁authors	-10857
▁blazing	-10858
▁clauses	-10859
▁consent	-10860
▁enlarge	-10861
▁erosion	-10862
▁fernand	-10863
▁fragile	-10864
▁hackers	-10865
▁monthly	-10866
▁morocco	-10867
▁powered	-10868
▁profile	-10869
▁reacted	-10870
▁rolling	-10871
▁seattle	-10872
▁setback	-10873
▁shouted	-10874
▁solicit	-10875
▁speeded	-10876
▁stances	-10877
▁temples	-10878
▁tobacco	-10879
▁tonight	-10880
▁torture	-10881
▁trusted	-10882
▁unclear	-10883
▁widened	-10884
haustible	-10885
matically	-10886
▁algerian	-10887
▁bottlene	-10888
▁cohesive	-10889
▁droughts	-10890
▁engineer	-10891
▁evaluate	-10892
▁failures	-10893
▁finances	-10894
▁gasoline	-10895
▁hardline	-10896
▁honestly	-10897
▁kasyanov	-10898
▁malpract	-10899
▁protects	-10900
▁tortuous	-10901
▁updating	-10902
▁worrying	-10903
▁worsened	-10904
▁zhenghua	-10905
▁appealing	-10906
▁assembled	-10907
▁convening	-10908
▁dismissal	-10909
▁diversion	-10910
▁elsewhere	-10911
▁grassland	-10912
▁guangzhao	-10913
▁happening	-10914
▁honorable	-10915
▁inquiries	-10916
▁millenium	-10917
▁neglected	-10918
▁placement	-10919
▁recruited	-10920
▁southwest	-10921
▁uncovered	-10922
▁weakening	-10923
▁accidental	-10924
▁accumulate	-10925
▁calamities	-10926
▁dedication	-10927
▁fabricated	-10928
▁invariably	-10929
▁militarily	-10930
▁militarist	-10931
▁motivation	-10932
▁preventive	-10933
▁properties	-10934
▁responding	-10935
▁restrained	-10936
▁retirement	-10937
▁submitting	-10938
▁supervised	-10939
▁youngsters	-10940
▁conclusions	-10941
▁directional	-10942
▁elimination	-10943
▁enlightened	-10944
▁exclusively	-10945
▁expectation	-10946
▁extradition	-10947
▁foundations	-10948
▁inheritance	-10949
▁modernizing	-10950
▁penetration	-10951
▁reorganized	-10952
▁cooperatives	-10953
▁irreversible	-10954
▁propositions	-10955
▁transporting	-10956
▁troublemaker	-10957
▁truthfulness	-10958
▁inexhaustible	-10959
▁retrogression	-10960
22	-10961
98	-10962
kov	-10963
sha	-10964
vag	-10965
▁72	-10966
▁73	-10967
▁lc	-10968
▁ya	-10969
ania	-10970
bear	-10971
ched	-10972
gang	-10973
ocai	-10974
▁140	-10975
▁190	-10976
▁2.5	-10977
▁abo	-10978
▁bum	-10979
▁ree	-10980
▁rua	-10981
▁sri	-10982
▁xig	-10983
▁yam	-10984
acult	-10985
isons	-10986
iyang	-10987
rears	-10988
▁2020	-10989
▁bree	-10990
▁duan	-10991
▁flat	-10992
▁garb	-10993
▁gest	-10994
▁gets	-10995
▁hill	-10996
▁manh	-10997
▁maur	-10998
▁medi	-10999
▁nonp	-11000
▁pair	-11001
▁sang	-11002
▁thir	-11003
abouts	-11004
elling	-11005
ichang	-11006
ucheng	-11007
▁antim	-11008
▁crowd	-11009
▁deton	-11010
▁elite	-11011
▁fatal	-11012
▁georg	-11013
▁hosts	-11014
▁infra	-11015
▁manch	-11016
▁monit	-11017
▁parad	-11018
▁quint	-11019
▁reimb	-11020
▁rises	-11021
▁threw	-11022
▁unres	-11023
astroph	-11024
imental	-11025
isively	-11026
tically	-11027
▁begins	-11028
▁calmly	-11029
▁carter	-11030
▁ceased	-11031
▁clause	-11032
▁coping	-11033
▁flaunt	-11034
▁keming	-11035
▁nearby	-11036
▁prejud	-11037
▁redund	-11038
▁sydney	-11039
▁tanaka	-11040
▁timing	-11041
▁topped	-11042
▁tracks	-11043
▁verbal	-11044
▁arrears	-11045
▁boxiong	-11046
▁bridges	-11047
▁caliber	-11048
▁clarify	-11049
▁confuse	-11050
▁doctors	-11051
▁drafted	-11052
▁keynote	-11053
▁miracle	-11054
▁mounted	-11055
▁outflow	-11056
▁planted	-11057
▁restaur	-11058
▁reveals	-11059
▁robbery	-11060
▁romania	-11061
▁roughly	-11062
▁spectac	-11063
▁tablets	-11064
▁tackled	-11065
▁unhappy	-11066
▁wealthy	-11067
▁aquacult	-11068
▁chapters	-11069
▁clearing	-11070
▁contempt	-11071
▁disgrace	-11072
▁extravag	-11073
▁faithful	-11074
▁firearms	-11075
▁fostered	-11076
▁preached	-11077
▁reminded	-11078
▁residing	-11079
▁sponsors	-11080
▁subscrib	-11081
▁suggests	-11082
▁suppress	-11083
▁switched	-11084
▁theaters	-11085
▁trampled	-11086
▁advertise	-11087
▁arranging	-11088
▁competing	-11089
▁emotional	-11090
▁enriching	-11091
▁expecting	-11092
▁expertise	-11093
▁governors	-11094
▁guangying	-11095
▁mongolian	-11096
▁pondering	-11097
▁radiation	-11098
▁strongest	-11099
▁tranquill	-11100
▁accusation	-11101
▁belarusian	-11102
▁broadening	-11103
▁catastroph	-11104
▁confession	-11105
▁minorities	-11106
▁nazarbayev	-11107
▁nomination	-11108
▁organizers	-11109
▁prevailing	-11110
▁soliciting	-11111
▁commentator	-11112
▁communicate	-11113
▁condolences	-11114
▁disappeared	-11115
▁drastically	-11116
▁indomitable	-11117
▁interpreted	-11118
▁precautions	-11119
▁prefectures	-11120
▁professions	-11121
▁replacement	-11122
▁researchers	-11123
▁uncertainty	-11124
▁whereabouts	-11125
▁administered	-11126
▁spokesperson	-11127
▁sufficiently	-11128
▁concentration	-11129
▁deteriorating	-11130
▁marketization	-11131
▁meteorological	-11132
▁specialization	-11133
ja	-11134
zy	-11135
gen	-11136
ker	-11137
kui	-11138
kun	-11139
lan	-11140
ums	-11141
▁cz	-11142
▁ry	-11143
▁zi	-11144
amdo	-11145
bang	-11146
isen	-11147
iyaz	-11148
iyev	-11149
mble	-11150
olan	-11151
olly	-11152
stri	-11153
unct	-11154
▁130	-11155
▁180	-11156
▁aum	-11157
▁ble	-11158
▁dir	-11159
▁fro	-11160
▁kle	-11161
▁kuo	-11162
▁sav	-11163
▁som	-11164
▁unm	-11165
aired	-11166
banov	-11167
copic	-11168
etime	-11169
iairc	-11170
leted	-11171
orong	-11172
pidem	-11173
xiong	-11174
▁2003	-11175
▁aven	-11176
▁coer	-11177
▁fond	-11178
▁gard	-11179
▁murd	-11180
▁perp	-11181
▁pray	-11182
▁sees	-11183
▁sele	-11184
▁shim	-11185
▁tomb	-11186
isheng	-11187
itated	-11188
makers	-11189
usheng	-11190
▁anger	-11191
▁antib	-11192
▁buyer	-11193
▁camer	-11194
▁climb	-11195
▁fiber	-11196
▁footh	-11197
▁hired	-11198
▁homet	-11199
▁irref	-11200
▁lagos	-11201
▁lunar	-11202
▁poses	-11203
▁qamdo	-11204
▁refue	-11205
▁remov	-11206
▁royal	-11207
▁souls	-11208
▁unden	-11209
▁yanan	-11210
▁zhili	-11211
hausted	-11212
▁admire	-11213
▁advent	-11214
▁beihai	-11215
▁bomber	-11216
▁dispel	-11217
▁eating	-11218
▁epidem	-11219
▁flower	-11220
▁haocai	-11221
▁hongxi	-11222
▁infatu	-11223
▁intent	-11224
▁jinhua	-11225
▁ladies	-11226
▁lawful	-11227
▁martin	-11228
▁maurit	-11229
▁phrase	-11230
▁plenty	-11231
▁profic	-11232
▁pulled	-11233
▁quotas	-11234
▁random	-11235
▁reluct	-11236
▁saints	-11237
▁shrink	-11238
▁superb	-11239
▁wholly	-11240
building	-11241
termined	-11242
▁400,000	-11243
▁abusing	-11244
▁assured	-11245
▁bluntly	-11246
▁columns	-11247
▁confirm	-11248
▁context	-11249
▁curbing	-11250
▁festive	-11251
▁impasse	-11252
▁lighten	-11253
▁panchen	-11254
▁salvage	-11255
▁shaomin	-11256
▁sisters	-11257
▁slowing	-11258
▁smashed	-11259
▁stirred	-11260
▁xiulian	-11261
iaircraft	-11262
▁database	-11263
▁dealings	-11264
▁exposure	-11265
▁foothold	-11266
▁formerly	-11267
▁hardship	-11268
▁hearings	-11269
▁hometown	-11270
▁imagined	-11271
▁investor	-11272
▁klebanov	-11273
▁machines	-11274
▁offenses	-11275
▁passport	-11276
▁perfunct	-11277
▁rescuing	-11278
▁rongrong	-11279
▁sounding	-11280
▁spurring	-11281
▁stirring	-11282
▁thriving	-11283
▁unfolded	-11284
▁unifying	-11285
▁apartment	-11286
▁attitudes	-11287
▁engineers	-11288
▁enshrined	-11289
▁icelandic	-11290
▁incorrect	-11291
▁modernize	-11292
▁monastery	-11293
▁munitions	-11294
▁objection	-11295
▁occurring	-11296
▁outsiders	-11297
▁paragraph	-11298
▁platforms	-11299
▁prejudice	-11300
▁reunified	-11301
▁signboard	-11302
▁suspicion	-11303
▁treasured	-11304
▁underwent	-11305
▁abandoning	-11306
▁continuity	-11307
▁discontent	-11308
▁explaining	-11309
▁hydropower	-11310
▁originated	-11311
▁overriding	-11312
▁popularity	-11313
▁solicitude	-11314
▁beneficiary	-11315
▁commemorate	-11316
▁correctness	-11317
▁efficiently	-11318
▁influencing	-11319
▁separatists	-11320
▁antiaircraft	-11321
▁bureaucratic	-11322
▁circumstance	-11323
▁incompatible	-11324
▁practitioner	-11325
▁revitalizing	-11326
▁scrupulously	-11327
▁tranquillity	-11328
▁transmitting	-11329
▁straightening	-11330
▁traditionally	-11331
▁unilateralism	-11332
▁establishments	-11333
▁desertification	-11334
16	-11335
cn	-11336
▁*	-11337
-27	-11338
cit	-11339
mad	-11340
ode	-11341
ola	-11342
xun	-11343
zed	-11344
▁67	-11345
▁69	-11346
▁76	-11347
▁ox	-11348
▁rh	-11349
abad	-11350
beki	-11351
chen	-11352
gels	-11353
icon	-11354
ipts	-11355
ivar	-11356
umin	-11357
▁2.4	-11358
▁kan	-11359
▁nak	-11360
▁sed	-11361
▁wra	-11362
ensed	-11363
iders	-11364
inity	-11365
otech	-11366
roads	-11367
shine	-11368
stick	-11369
ukang	-11370
▁amat	-11371
▁arts	-11372
▁belt	-11373
▁cuts	-11374
▁flut	-11375
▁fren	-11376
▁igor	-11377
▁lock	-11378
▁owed	-11379
▁retr	-11380
▁salt	-11381
▁tied	-11382
▁weiz	-11383
iaries	-11384
iguang	-11385
issile	-11386
itting	-11387
powder	-11388
usions	-11389
▁aging	-11390
▁aired	-11391
▁besie	-11392
▁chien	-11393
▁coins	-11394
▁dense	-11395
▁drove	-11396
▁falls	-11397
▁filed	-11398
▁grief	-11399
▁hawai	-11400
▁hills	-11401
▁hurry	-11402
▁insec	-11403
▁maybe	-11404
▁mbeki	-11405
▁opium	-11406
▁pains	-11407
▁revam	-11408
▁serfs	-11409
▁siwei	-11410
▁tunis	-11411
▁unbal	-11412
▁unlaw	-11413
forward	-11414
irkable	-11415
ustomed	-11416
▁antiso	-11417
▁balkan	-11418
▁citing	-11419
▁corpse	-11420
▁decree	-11421
▁distin	-11422
▁hinted	-11423
▁huzhou	-11424
▁insult	-11425
▁legacy	-11426
▁misery	-11427
▁myster	-11428
▁nights	-11429
▁repeat	-11430
▁sailed	-11431
▁senses	-11432
▁sensit	-11433
▁shinri	-11434
▁spying	-11435
▁sultan	-11436
▁sweden	-11437
▁thirds	-11438
▁vacill	-11439
▁weekly	-11440
▁wreath	-11441
allistic	-11442
atellite	-11443
ursement	-11444
▁200,000	-11445
▁absence	-11446
▁airstri	-11447
▁beating	-11448
▁belgian	-11449
▁bingcai	-11450
▁colonel	-11451
▁decrees	-11452
▁descent	-11453
▁deserve	-11454
▁designs	-11455
▁doubled	-11456
▁elevate	-11457
▁evasive	-11458
▁evolved	-11459
▁heavier	-11460
▁inmates	-11461
▁khamtay	-11462
▁lawsuit	-11463
▁readily	-11464
▁rebound	-11465
▁ridicul	-11466
▁rushing	-11467
▁selfish	-11468
▁solidly	-11469
▁teenage	-11470
▁terrain	-11471
▁ushered	-11472
▁utterly	-11473
▁winners	-11474
▁wishing	-11475
continent	-11476
criptions	-11477
▁counting	-11478
▁dominate	-11479
▁downturn	-11480
▁expelled	-11481
▁handover	-11482
▁ineffect	-11483
▁infrared	-11484
▁interrog	-11485
▁lifetime	-11486
▁maldives	-11487
▁massacre	-11488
▁patience	-11489
▁resorted	-11490
▁sanction	-11491
▁shifting	-11492
▁stealing	-11493
▁umbrella	-11494
▁admission	-11495
▁alliances	-11496
▁blockades	-11497
▁conferred	-11498
▁discarded	-11499
▁elevation	-11500
▁europeans	-11501
▁exhausted	-11502
▁expulsion	-11503
▁gunpowder	-11504
▁imbalance	-11505
▁mandatory	-11506
▁migration	-11507
▁precedent	-11508
▁reactions	-11509
▁redundant	-11510
▁responses	-11511
▁seemingly	-11512
▁shameless	-11513
▁sophistry	-11514
▁transfers	-11515
▁willingly	-11516
▁yardstick	-11517
▁astronauts	-11518
▁complained	-11519
▁defendants	-11520
▁distorting	-11521
▁governance	-11522
▁graduation	-11523
▁heightened	-11524
▁noteworthy	-11525
▁obstructed	-11526
▁regimental	-11527
▁reservoirs	-11528
▁stimulated	-11529
▁telephones	-11530
▁tightening	-11531
▁translated	-11532
▁underestim	-11533
▁venezuelan	-11534
▁acquisition	-11535
▁antimissile	-11536
▁assiduously	-11537
▁automobiles	-11538
▁colonialism	-11539
▁constraints	-11540
▁contingency	-11541
▁disturbance	-11542
▁initiatives	-11543
▁irrefutable	-11544
▁proceedings	-11545
▁sightseeing	-11546
▁speculation	-11547
▁unfortunate	-11548
▁unshirkable	-11549
▁withdrawing	-11550
▁aggressively	-11551
▁cohesiveness	-11552
▁disadvantage	-11553
▁distributing	-11554
▁encirclement	-11555
▁remuneration	-11556
▁shipbuilding	-11557
▁antiballistic	-11558
▁antisatellite	-11559
▁contradictory	-11560
▁deliberations	-11561
▁intentionally	-11562
▁superstructure	-11563
▁understandable	-11564
▁straightforward	-11565
12	-11566
gn	-11567
mt	-11568
gui	-11569
izo	-11570
kia	-11571
osa	-11572
unk	-11573
usp	-11574
▁59	-11575
▁61	-11576
▁dh	-11577
▁ti	-11578
akov	-11579
arat	-11580
avez	-11581
hard	-11582
ieve	-11583
lick	-11584
miss	-11585
pedo	-11586
uity	-11587
zing	-11588
▁112	-11589
▁113	-11590
▁cun	-11591
▁edm	-11592
▁ell	-11593
▁kui	-11594
▁nut	-11595
▁xiz	-11596
after	-11597
arraf	-11598
aving	-11599
ayama	-11600
guang	-11601
imize	-11602
imony	-11603
mount	-11604
night	-11605
ocked	-11606
oyang	-11607
riend	-11608
weigh	-11609
▁1000	-11610
▁1975	-11611
▁abet	-11612
▁ausp	-11613
▁dies	-11614
▁ends	-11615
▁flaw	-11616
▁hind	-11617
▁hire	-11618
▁offs	-11619
▁samp	-11620
▁wipe	-11621
contro	-11622
ladesh	-11623
lantic	-11624
opolit	-11625
▁assad	-11626
▁attra	-11627
▁badge	-11628
▁daunt	-11629
▁delta	-11630
▁error	-11631
▁fever	-11632
▁graft	-11633
▁herds	-11634
▁hoodw	-11635
▁kilog	-11636
▁knife	-11637
▁lakes	-11638
▁lilan	-11639
▁moder	-11640
▁niyaz	-11641
▁osaka	-11642
▁panic	-11643
▁prodi	-11644
▁prone	-11645
▁sells	-11646
▁sheep	-11647
▁sheer	-11648
▁spies	-11649
▁stuck	-11650
▁stuff	-11651
▁toast	-11652
▁wings	-11653
▁zaixi	-11654
aughter	-11655
▁40,000	-11656
▁baltic	-11657
▁barbar	-11658
▁bashar	-11659
▁berlin	-11660
▁bogged	-11661
▁bumper	-11662
▁chavez	-11663
▁curbed	-11664
▁decent	-11665
▁denies	-11666
▁dharma	-11667
▁echoed	-11668
▁engels	-11669
▁fisher	-11670
▁garden	-11671
▁gotten	-11672
▁infect	-11673
▁jumped	-11674
▁lodged	-11675
▁oceans	-11676
▁parade	-11677
▁paraly	-11678
▁pledge	-11679
▁precip	-11680
▁purity	-11681
▁remind	-11682
▁siyuan	-11683
▁waving	-11684
▁xizang	-11685
▁yeping	-11686
itiously	-11687
junction	-11688
▁adapted	-11689
▁augment	-11690
▁balkans	-11691
▁breakup	-11692
▁changli	-11693
▁coexist	-11694
▁colored	-11695
▁dealers	-11696
▁decides	-11697
▁deviate	-11698
▁echelon	-11699
▁formosa	-11700
▁georgia	-11701
▁huangpu	-11702
▁illiter	-11703
▁implies	-11704
▁incited	-11705
▁inspire	-11706
▁jiaquan	-11707
▁matched	-11708
▁mexican	-11709
▁painful	-11710
▁physics	-11711
▁provoke	-11712
▁refuted	-11713
▁smiling	-11714
▁suspend	-11715
▁torpedo	-11716
▁tougher	-11717
▁unitary	-11718
▁visitor	-11719
▁absorbed	-11720
▁advocacy	-11721
▁asserted	-11722
▁billions	-11723
▁bombings	-11724
▁churches	-11725
▁colluded	-11726
▁deceived	-11727
▁defining	-11728
▁denounce	-11729
▁duration	-11730
▁explains	-11731
▁governed	-11732
▁greening	-11733
▁guardian	-11734
▁heedless	-11735
▁heritage	-11736
▁hesitate	-11737
▁highland	-11738
▁incompet	-11739
▁invading	-11740
▁licenses	-11741
▁midnight	-11742
▁noninter	-11743
▁notified	-11744
▁observer	-11745
▁paradise	-11746
▁populace	-11747
▁proceeds	-11748
▁proclaim	-11749
▁rallying	-11750
▁recruits	-11751
▁resigned	-11752
▁strained	-11753
▁sunshine	-11754
▁academics	-11755
▁allocated	-11756
▁ambitions	-11757
▁automatic	-11758
▁colombian	-11759
▁deceptive	-11760
▁designing	-11761
▁featuring	-11762
▁guanzheng	-11763
▁indicator	-11764
▁measuring	-11765
▁musharraf	-11766
▁nurturing	-11767
▁oversight	-11768
▁partially	-11769
▁prudently	-11770
▁regiments	-11771
▁shinrikyo	-11772
▁signature	-11773
▁smugglers	-11774
▁virtually	-11775
▁accustomed	-11776
▁allegation	-11777
▁antisocial	-11778
▁bangladesh	-11779
▁degenerate	-11780
▁dependents	-11781
▁directives	-11782
▁harnessing	-11783
▁infringing	-11784
▁innovating	-11785
▁integrates	-11786
▁jeopardize	-11787
▁liberating	-11788
▁reconsider	-11789
▁turnaround	-11790
▁advertising	-11791
▁contentment	-11792
▁credentials	-11793
▁disciplined	-11794
▁instigating	-11795
▁instituting	-11796
▁intercepted	-11797
▁nonetheless	-11798
▁obstructing	-11799
▁organically	-11800
▁personality	-11801
▁photographs	-11802
▁researching	-11803
▁revolutions	-11804
▁antagonistic	-11805
▁commissioned	-11806
▁reservations	-11807
▁investigators	-11808
▁painstakingly	-11809
▁unfortunately	-11810
-5	-11811
36	-11812
bm	-11813
pk	-11814
100	-11815
bai	-11816
bay	-11817
cur	-11818
mir	-11819
tan	-11820
vic	-11821
▁87	-11822
alog	-11823
illa	-11824
irsk	-11825
lude	-11826
qiao	-11827
reet	-11828
uant	-11829
ulty	-11830
worn	-11831
zied	-11832
▁270	-11833
▁bew	-11834
▁cow	-11835
▁dui	-11836
▁enm	-11837
▁fox	-11838
▁gig	-11839
▁hem	-11840
▁imf	-11841
▁jet	-11842
▁meg	-11843
▁omn	-11844
▁pup	-11845
▁rub	-11846
▁sez	-11847
▁tak	-11848
▁tsu	-11849
▁yat	-11850
bally	-11851
ddess	-11852
grade	-11853
human	-11854
itzer	-11855
orter	-11856
relic	-11857
unity	-11858
▁1981	-11859
▁asym	-11860
▁auto	-11861
▁deem	-11862
▁fans	-11863
▁fran	-11864
▁hair	-11865
▁heat	-11866
▁hunt	-11867
▁idly	-11868
▁inch	-11869
▁jail	-11870
▁latv	-11871
▁mich	-11872
▁nans	-11873
▁pour	-11874
▁rash	-11875
▁roll	-11876
▁seal	-11877
▁shed	-11878
▁ther	-11879
▁tojo	-11880
▁topp	-11881
▁truc	-11882
▁vist	-11883
▁yafu	-11884
▁zhuo	-11885
athers	-11886
enting	-11887
ibious	-11888
icable	-11889
oguang	-11890
otechn	-11891
rantly	-11892
retien	-11893
rupted	-11894
▁arrow	-11895
▁arsen	-11896
▁birds	-11897
▁cairo	-11898
▁capac	-11899
▁czech	-11900
▁dares	-11901
▁decor	-11902
▁doctr	-11903
▁eagle	-11904
▁ellip	-11905
▁eston	-11906
▁flame	-11907
▁fulin	-11908
▁girls	-11909
▁henry	-11910
▁hiros	-11911
▁hsiao	-11912
▁merch	-11913
▁noise	-11914
▁reinv	-11915
▁skies	-11916
▁strip	-11917
▁sweat	-11918
▁tacit	-11919
▁ultra	-11920
▁wield	-11921
▁yayan	-11922
ctional	-11923
▁aboard	-11924
▁annals	-11925
▁ascend	-11926
▁backed	-11927
▁bishop	-11928
▁breath	-11929
▁breeze	-11930
▁compos	-11931
▁counts	-11932
▁curing	-11933
▁edmund	-11934
▁genome	-11935
▁habits	-11936
▁hideki	-11937
▁hsiang	-11938
▁images	-11939
▁jiaxun	-11940
▁manual	-11941
▁monday	-11942
▁offset	-11943
▁phones	-11944
▁piracy	-11945
▁plight	-11946
▁pollut	-11947
▁portra	-11948
▁posted	-11949
▁refine	-11950
▁relent	-11951
▁reopen	-11952
▁scenic	-11953
▁spared	-11954
▁sticks	-11955
▁stormy	-11956
▁taoist	-11957
▁taught	-11958
▁uneasy	-11959
▁warmth	-11960
▁weaker	-11961
▁zhenyu	-11962
▁zukang	-11963
ceptions	-11964
pleasure	-11965
roscopic	-11966
▁advisor	-11967
▁assimil	-11968
▁assumes	-11969
▁binding	-11970
▁cannons	-11971
▁capture	-11972
▁crossed	-11973
▁debates	-11974
▁derelic	-11975
▁england	-11976
▁expound	-11977
▁faculty	-11978
▁foresee	-11979
▁garbage	-11980
▁goddess	-11981
▁guoquan	-11982
▁hastily	-11983
▁jianguo	-11984
▁largely	-11985
▁mediate	-11986
▁origins	-11987
▁plotted	-11988
▁plunged	-11989
▁rallies	-11990
▁refined	-11991
▁removal	-11992
▁rongkai	-11993
▁scenery	-11994
▁suburbs	-11995
▁switzer	-11996
▁uttered	-11997
▁viewers	-11998
▁visible	-11999
▁abruptly	-12000
▁accuracy	-12001
▁assessed	-12002
▁assisted	-12003
▁brigades	-12004
▁brighter	-12005
▁changsha	-12006
▁chretien	-12007
▁circuits	-12008
▁compound	-12009
▁creditor	-12010
▁delaying	-12011
▁discount	-12012
▁dongfang	-12013
▁entirety	-12014
▁fengchao	-12015
▁fiercely	-12016
▁frenzied	-12017
▁initiate	-12018
▁juvenile	-12019
▁migrants	-12020
▁nanchang	-12021
▁outweigh	-12022
▁petition	-12023
▁portugal	-12024
▁pursuant	-12025
▁reviving	-12026
▁virtuous	-12027
▁warnings	-12028
metrically	-12029
▁alleviate	-12030
▁ambiguity	-12031
▁antihuman	-12032
▁assessing	-12033
▁breakfast	-12034
▁collapsed	-12035
▁disappear	-12036
▁diverting	-12037
▁enlighten	-12038
▁expensive	-12039
▁exploited	-12040
▁impressed	-12041
▁indignant	-12042
▁inspector	-12043
▁locations	-12044
▁optimized	-12045
▁processed	-12046
▁reversing	-12047
▁shortages	-12048
▁signatory	-12049
▁spearhead	-12050
▁stipulate	-12051
▁summation	-12052
▁surrender	-12053
▁teenagers	-12054
▁willfully	-12055
▁wonderful	-12056
▁zhongshan	-12057
continental	-12058
▁addressing	-12059
▁affiliated	-12060
▁amphibious	-12061
▁attainment	-12062
▁capacities	-12063
▁celebrated	-12064
▁comprehend	-12065
▁expediting	-12066
▁flagrantly	-12067
▁inspectors	-12068
▁limitation	-12069
▁meaningful	-12070
▁monopolies	-12071
▁mysterious	-12072
▁overlooked	-12073
▁performers	-12074
▁reelection	-12075
▁serviceman	-12076
▁stabilized	-12077
▁unbalanced	-12078
▁businessman	-12079
▁catholicism	-12080
▁certificate	-12081
▁convocation	-12082
▁displeasure	-12083
▁emancipated	-12084
▁endangering	-12085
▁intelligent	-12086
▁predecessor	-12087
▁proletariat	-12088
▁sensitivity	-12089
▁switzerland	-12090
▁tranquility	-12091
▁deficiencies	-12092
▁journalistic	-12093
▁northwestern	-12094
▁perspectives	-12095
▁shareholders	-12096
▁southeastern	-12097
▁streamlining	-12098
▁unwaveringly	-12099
▁commemoration	-12100
▁constructions	-12101
▁convertibility	-12102
▁intensification	-12103
▁noninterference	-12104
▁pharmaceuticals	-12105
25	-12106
ju	-12107
la	-12108
oa	-12109
awa	-12110
bon	-12111
dup	-12112
ftu	-12113
him	-12114
ikh	-12115
kok	-12116
nas	-12117
osn	-12118
run	-12119
san	-12120
uci	-12121
▁ga	-12122
▁rd	-12123
▁sr	-12124
ards	-12125
biao	-12126
from	-12127
iece	-12128
iums	-12129
lose	-12130
osib	-12131
owen	-12132
test	-12133
ulah	-12134
yong	-12135
▁caf	-12136
▁cig	-12137
▁cnn	-12138
▁goh	-12139
▁huo	-12140
▁jes	-12141
▁lob	-12142
▁orb	-12143
▁sag	-12144
▁sdf	-12145
▁sex	-12146
▁vil	-12147
▁xun	-12148
amili	-12149
aping	-12150
erger	-12151
ffick	-12152
force	-12153
gradu	-12154
icago	-12155
ijian	-12156
itory	-12157
rants	-12158
uming	-12159
▁1951	-12160
▁acre	-12161
▁chok	-12162
▁chol	-12163
▁dust	-12164
▁epit	-12165
▁ferv	-12166
▁load	-12167
▁misf	-12168
▁moon	-12169
▁myst	-12170
▁nice	-12171
▁pole	-12172
▁reli	-12173
▁shis	-12174
▁siew	-12175
▁tuan	-12176
▁unse	-12177
▁wolf	-12178
asting	-12179
atical	-12180
imedia	-12181
ording	-12182
osevic	-12183
urated	-12184
▁8,000	-12185
▁fires	-12186
▁gases	-12187
▁genoa	-12188
▁grids	-12189
▁haier	-12190
▁intim	-12191
▁keizo	-12192
▁kelly	-12193
▁lease	-12194
▁likes	-12195
▁metal	-12196
▁recre	-12197
▁remem	-12198
▁rests	-12199
▁shirk	-12200
▁shoes	-12201
▁siber	-12202
▁suits	-12203
▁sworn	-12204
▁uncon	-12205
autical	-12206
ciously	-12207
consist	-12208
ensheng	-12209
▁abused	-12210
▁akayev	-12211
▁angles	-12212
▁arisen	-12213
▁assass	-12214
▁ballot	-12215
▁barrel	-12216
▁bellig	-12217
▁berger	-12218
▁blacks	-12219
▁cigare	-12220
▁divert	-12221
▁fertil	-12222
▁handic	-12223
▁hawaii	-12224
▁indisc	-12225
▁lawyer	-12226
▁lights	-12227
▁passes	-12228
▁pupils	-12229
▁raises	-12230
▁revive	-12231
▁richer	-12232
▁robert	-12233
▁serial	-12234
▁silent	-12235
▁sorrow	-12236
▁stored	-12237
▁tended	-12238
▁theses	-12239
▁thrust	-12240
▁transl	-12241
▁update	-12242
▁vested	-12243
▁worksh	-12244
erations	-12245
ervation	-12246
osibirsk	-12247
▁accepts	-12248
▁altered	-12249
▁bingguo	-12250
▁blocked	-12251
▁buildup	-12252
▁casting	-12253
▁chicago	-12254
▁confuci	-12255
▁dressed	-12256
▁execute	-12257
▁fiercer	-12258
▁formats	-12259
▁genetic	-12260
▁holders	-12261
▁hotline	-12262
▁jieping	-12263
▁locally	-12264
▁logical	-12265
▁mapping	-12266
▁orchest	-12267
▁plagued	-12268
▁privile	-12269
▁renewed	-12270
▁reunion	-12271
▁rewards	-12272
▁skilled	-12273
▁thirdly	-12274
▁wantong	-12275
▁weizman	-12276
▁adequacy	-12277
▁airlines	-12278
▁bullying	-12279
▁crashing	-12280
▁defiance	-12281
▁disclose	-12282
▁disguise	-12283
▁displays	-12284
▁herdsmen	-12285
▁heresies	-12286
▁ignorant	-12287
▁injuring	-12288
▁laboring	-12289
▁laughter	-12290
▁lawsuits	-12291
▁modified	-12292
▁persever	-12293
▁persists	-12294
▁polluted	-12295
▁presents	-12296
▁receipts	-12297
▁retirees	-12298
▁shucheng	-12299
▁traffick	-12300
▁unfamili	-12301
▁vertical	-12302
▁wenzhong	-12303
▁withdrew	-12304
▁xiaoming	-12305
▁affirming	-12306
▁appliance	-12307
▁automated	-12308
▁classroom	-12309
▁clearance	-12310
▁commanded	-12311
▁concocted	-12312
▁contacted	-12313
▁defeating	-12314
▁directive	-12315
▁duplicate	-12316
▁evaluated	-12317
▁inability	-12318
▁inconsist	-12319
▁instances	-12320
▁invisible	-12321
▁kilograms	-12322
▁milosevic	-12323
▁momentous	-12324
▁occupying	-12325
▁pronounce	-12326
▁refueling	-12327
▁resorting	-12328
▁screening	-12329
▁statesmen	-12330
▁therefrom	-12331
▁tragedies	-12332
otechnology	-12333
▁attraction	-12334
▁basketball	-12335
▁cautiously	-12336
▁changeable	-12337
▁competence	-12338
▁conformity	-12339
▁dependants	-12340
▁depression	-12341
▁distribute	-12342
▁emigration	-12343
▁endangered	-12344
▁harvesting	-12345
▁invigorate	-12346
▁kidnapping	-12347
▁litigation	-12348
▁macedonian	-12349
▁missionary	-12350
▁multimedia	-12351
▁negotiator	-12352
▁progressed	-12353
▁recovering	-12354
▁sabotaging	-12355
▁sacrificed	-12356
▁sponsoring	-12357
▁surprising	-12358
▁undeniable	-12359
▁victimized	-12360
▁accommodate	-12361
▁assignments	-12362
▁comfortably	-12363
▁conjunction	-12364
▁constrained	-12365
▁continental	-12366
▁degenerated	-12367
▁dereliction	-12368
▁disseminate	-12369
▁formalities	-12370
▁incompetent	-12371
▁ineffective	-12372
▁interactive	-12373
▁liabilities	-12374
▁novosibirsk	-12375
▁popularized	-12376
▁procurators	-12377
▁propagating	-12378
▁subscribers	-12379
▁embarrassing	-12380
▁implications	-12381
▁installation	-12382
▁policymaking	-12383
▁preservation	-12384
▁diametrically	-12385
▁incorporating	-12386
▁materializing	-12387
▁preliminarily	-12388
▁reimbursement	-12389
▁recommendation	-12390
▁regularization	-12391
▁psychologically	-12392
26	-12393
87	-12394
fn	-12395
sa	-12396
wc	-12397
apa	-12398
asi	-12399
bro	-12400
ino	-12401
mma	-12402
▁82	-12403
▁94	-12404
▁99	-12405
awan	-12406
cott	-12407
enos	-12408
kiah	-12409
lika	-12410
nish	-12411
rose	-12412
ttes	-12413
unge	-12414
▁arc	-12415
▁cel	-12416
▁cis	-12417
▁gmt	-12418
▁hyd	-12419
▁lip	-12420
▁luc	-12421
▁pei	-12422
▁reh	-12423
▁rif	-12424
▁tid	-12425
▁vin	-12426
▁zxs	-12427
athem	-12428
huang	-12429
itect	-12430
outef	-12431
water	-12432
world	-12433
▁1959	-12434
▁adam	-12435
▁awak	-12436
▁bail	-12437
▁boao	-12438
▁cape	-12439
▁daya	-12440
▁dens	-12441
▁dile	-12442
▁dish	-12443
▁earm	-12444
▁famc	-12445
▁fide	-12446
▁gene	-12447
▁kash	-12448
▁lank	-12449
▁lung	-12450
▁pact	-12451
▁paul	-12452
▁plum	-12453
▁poem	-12454
▁puzz	-12455
▁rakh	-12456
▁rape	-12457
▁ruth	-12458
▁seed	-12459
▁sequ	-12460
▁seri	-12461
▁shek	-12462
▁sink	-12463
▁sped	-12464
▁tiny	-12465
▁zald	-12466
anting	-12467
artite	-12468
inable	-12469
irable	-12470
ontane	-12471
resses	-12472
verest	-12473
▁acftu	-12474
▁align	-12475
▁alumn	-12476
▁antip	-12477
▁arose	-12478
▁blaze	-12479
▁brook	-12480
▁dwell	-12481
▁files	-12482
▁flash	-12483
▁franc	-12484
▁golan	-12485
▁greek	-12486
▁impat	-12487
▁indiv	-12488
▁intol	-12489
▁jubil	-12490
▁judic	-12491
▁label	-12492
▁layer	-12493
▁liqun	-12494
▁lured	-12495
▁moham	-12496
▁navig	-12497
▁overc	-12498
▁owner	-12499
▁seeds	-12500
▁selez	-12501
▁shine	-12502
▁solar	-12503
▁squee	-12504
▁subun	-12505
▁tempt	-12506
▁tends	-12507
▁truck	-12508
▁tumor	-12509
bearing	-12510
lements	-12511
sighted	-12512
▁amidst	-12513
▁arable	-12514
▁beaten	-12515
▁boutef	-12516
▁bubble	-12517
▁bypass	-12518
▁cancel	-12519
▁celest	-12520
▁cement	-12521
▁clamor	-12522
▁endure	-12523
▁favors	-12524
▁hamper	-12525
▁invent	-12526
▁lastly	-12527
▁lequan	-12528
▁loaded	-12529
▁mathem	-12530
▁metrop	-12531
▁morals	-12532
▁nansha	-12533
▁noncom	-12534
▁nurses	-12535
▁peiyun	-12536
▁plunge	-12537
▁posing	-12538
▁refund	-12539
▁ridden	-12540
▁rulers	-12541
▁shisun	-12542
▁siying	-12543
▁slaves	-12544
▁sounds	-12545
▁sowing	-12546
▁stores	-12547
▁tenets	-12548
▁thorny	-12549
▁titles	-12550
▁toured	-12551
ceptible	-12552
ensurate	-12553
ineering	-12554
▁albania	-12555
▁alleged	-12556
▁angrily	-12557
▁armenia	-12558
▁bangkok	-12559
▁begawan	-12560
▁bounden	-12561
▁bumping	-12562
▁caution	-12563
▁chances	-12564
▁climbed	-12565
▁concert	-12566
▁consort	-12567
▁denmark	-12568
▁dilemma	-12569
▁endured	-12570
▁fallacy	-12571
▁fascist	-12572
▁filling	-12573
▁hurried	-12574
▁jichuan	-12575
▁laotian	-12576
▁leaping	-12577
▁lifesty	-12578
▁locusts	-12579
▁niyazov	-12580
▁passion	-12581
▁peiding	-12582
▁perpetr	-12583
▁pricing	-12584
▁pulling	-12585
▁shelved	-12586
▁spurred	-12587
▁trustor	-12588
▁vincent	-12589
cientific	-12590
▁abstract	-12591
▁advisors	-12592
▁atlantic	-12593
▁bitterly	-12594
▁clamored	-12595
▁confined	-12596
▁crystall	-12597
▁designer	-12598
▁diehards	-12599
▁diplomat	-12600
▁dramatic	-12601
▁enlarged	-12602
▁epidemic	-12603
▁eventual	-12604
▁fertiliz	-12605
▁hallmark	-12606
▁horrible	-12607
▁hypocrit	-12608
▁immunity	-12609
▁intimate	-12610
▁painting	-12611
▁rotation	-12612
▁sergeyev	-12613
▁spontane	-12614
▁surmount	-12615
▁terrible	-12616
▁throwing	-12617
▁trustees	-12618
▁unlawful	-12619
▁youngest	-12620
▁zaldivar	-12621
▁architect	-12622
▁arresting	-12623
▁customers	-12624
▁delighted	-12625
▁differing	-12626
▁discovery	-12627
▁dogmatism	-12628
▁embassies	-12629
▁festivals	-12630
▁gratified	-12631
▁illusions	-12632
▁instigate	-12633
▁monitored	-12634
▁propelled	-12635
▁provoking	-12636
▁rakhmonov	-12637
▁ratifying	-12638
▁recording	-12639
▁rejection	-12640
▁reluctant	-12641
▁surpassed	-12642
▁aggravated	-12643
▁assignment	-12644
▁assistants	-12645
▁assumption	-12646
▁competitor	-12647
▁converting	-12648
▁crossroads	-12649
▁culturally	-12650
▁enormously	-12651
▁essentials	-12652
▁impressive	-12653
▁inheriting	-12654
▁insistence	-12655
▁persuasion	-12656
▁pertaining	-12657
▁prediction	-12658
▁reiterates	-12659
▁revitalize	-12660
▁stationing	-12661
▁underworld	-12662
▁unfamiliar	-12663
▁discovering	-12664
▁dispatching	-12665
▁disregarded	-12666
▁economizing	-12667
▁humiliation	-12668
▁incorporate	-12669
▁perfunctory	-12670
▁reclamation	-12671
▁suppression	-12672
▁commendation	-12673
▁commensurate	-12674
▁constraining	-12675
▁deliberating	-12676
▁disregarding	-12677
▁enterprising	-12678
▁impartiality	-12679
▁interactions	-12680
▁laboratories	-12681
▁occupational	-12682
▁overthrowing	-12683
▁universality	-12684
▁beneficiaries	-12685
▁controversial	-12686
▁enlightenment	-12687
▁manifestations	-12688
▁representation	-12689
▁humanitarianism	-12690
▁infrastructural	-12691
▁interventionism	-12692
13	-12693
34	-12694
67	-12695
:00	-12696
acc	-12697
apt	-12698
ccc	-12699
ean	-12700
ena	-12701
far	-12702
gar	-12703
ibo	-12704
ieu	-12705
jib	-12706
nar	-12707
net	-12708
oid	-12709
roy	-12710
tes	-12711
tex	-12712
ths	-12713
uce	-12714
▁zu	-12715
abon	-12716
ails	-12717
bean	-12718
berg	-12719
fter	-12720
hima	-12721
olen	-12722
olin	-12723
oons	-12724
oted	-12725
rels	-12726
ules	-12727
unci	-12728
utai	-12729
ygen	-12730
▁186	-12731
▁ebb	-12732
▁fet	-12733
▁hid	-12734
▁jim	-12735
▁kha	-12736
▁npt	-12737
▁sla	-12738
▁wpk	-12739
achev	-12740
archy	-12741
atile	-12742
cppcc	-12743
gment	-12744
orted	-12745
oured	-12746
priot	-12747
texts	-12748
urned	-12749
▁1911	-12750
▁airb	-12751
▁alas	-12752
▁baos	-12753
▁bath	-12754
▁deaf	-12755
▁dorm	-12756
▁hate	-12757
▁hits	-12758
▁invo	-12759
▁jump	-12760
▁kuan	-12761
▁kuch	-12762
▁lady	-12763
▁lith	-12764
▁mary	-12765
▁mian	-12766
▁mour	-12767
▁nour	-12768
▁phan	-12769
▁roof	-12770
▁samo	-12771
▁sank	-12772
▁sigh	-12773
▁skin	-12774
▁trap	-12775
▁unch	-12776
▁vied	-12777
▁wine	-12778
alling	-12779
ancies	-12780
atures	-12781
ayanan	-12782
imited	-12783
ometer	-12784
ulahat	-12785
umbent	-12786
▁1,200	-12787
▁1,600	-12788
▁abdur	-12789
▁alley	-12790
▁aznar	-12791
▁breat	-12792
▁cafes	-12793
▁cheap	-12794
▁coden	-12795
▁comic	-12796
▁congo	-12797
▁crown	-12798
▁dates	-12799
▁drain	-12800
▁gabon	-12801
▁incap	-12802
▁inequ	-12803
▁lobby	-12804
▁neill	-12805
▁perce	-12806
▁phieu	-12807
▁randt	-12808
▁sanya	-12809
▁sects	-12810
▁shoot	-12811
▁slide	-12812
▁sonar	-12813
▁token	-12814
▁trail	-12815
▁tsing	-12816
redited	-12817
ulative	-12818
ulgaria	-12819
urgical	-12820
▁60,000	-12821
▁advise	-12822
▁bandar	-12823
▁biased	-12824
▁boeing	-12825
▁buried	-12826
▁cultic	-12827
▁dehuai	-12828
▁devalu	-12829
▁dissol	-12830
▁equals	-12831
▁evolve	-12832
▁freeze	-12833
▁fuqing	-12834
▁guides	-12835
▁latvia	-12836
▁locked	-12837
▁medals	-12838
▁modest	-12839
▁notion	-12840
▁opined	-12841
▁overly	-12842
▁oxygen	-12843
▁propel	-12844
▁qiushi	-12845
▁realms	-12846
▁rebuff	-12847
▁scales	-12848
▁stolen	-12849
▁suzhou	-12850
▁taoism	-12851
▁trucks	-12852
▁untold	-12853
▁verify	-12854
▁worsen	-12855
▁yearly	-12856
electron	-12857
missible	-12858
undering	-12859
▁admired	-12860
▁bolkiah	-12861
▁briefly	-12862
▁circuit	-12863
▁crystal	-12864
▁cypriot	-12865
▁domains	-12866
▁ensures	-12867
▁erected	-12868
▁intimid	-12869
▁lateral	-12870
▁leakage	-12871
▁lithuan	-12872
▁longest	-12873
▁majesty	-12874
▁married	-12875
▁mastery	-12876
▁mindset	-12877
▁pledges	-12878
▁shining	-12879
▁stroyev	-12880
▁subvert	-12881
▁swedish	-12882
▁takeoff	-12883
▁tunisia	-12884
▁winding	-12885
▁acceding	-12886
▁belgrade	-12887
▁betrayed	-12888
▁bulgaria	-12889
▁chaoyang	-12890
▁defended	-12891
▁departed	-12892
▁devotion	-12893
▁distorts	-12894
▁distrust	-12895
▁diverted	-12896
▁dongfeng	-12897
▁drilling	-12898
▁employee	-12899
▁featured	-12900
▁founders	-12901
▁geopolit	-12902
▁murayama	-12903
▁narcotic	-12904
▁nigerian	-12905
▁optimism	-12906
▁outlined	-12907
▁pretexts	-12908
▁prompted	-12909
▁prosecut	-12910
▁provoked	-12911
▁quadrang	-12912
▁quintess	-12913
▁supposed	-12914
▁troubled	-12915
▁yongkang	-12916
▁ambitious	-12917
▁attendees	-12918
▁borrowing	-12919
▁defendant	-12920
▁digitized	-12921
▁educators	-12922
▁employers	-12923
▁fishermen	-12924
▁frictions	-12925
▁gentlemen	-12926
▁hiroshima	-12927
▁inclusion	-12928
▁incumbent	-12929
▁malicious	-12930
▁narayanan	-12931
▁opportune	-12932
▁paramount	-12933
▁statesman	-12934
▁stringent	-12935
▁struggled	-12936
▁summarize	-12937
▁targeting	-12938
▁testimony	-12939
▁turbulent	-12940
▁zhongguan	-12941
▁beforehand	-12942
▁benefiting	-12943
▁bottleneck	-12944
▁bouteflika	-12945
▁cigarettes	-12946
▁conception	-12947
▁consisting	-12948
▁dedicating	-12949
▁depositors	-12950
▁discharged	-12951
▁executives	-12952
▁humiliated	-12953
▁presenting	-12954
▁renouncing	-12955
▁requesting	-12956
▁restaurant	-12957
▁substitute	-12958
▁terminated	-12959
▁treatments	-12960
▁vegetation	-12961
▁victorious	-12962
▁westernize	-12963
▁catastrophe	-12964
▁descendants	-12965
▁description	-12966
▁facilitated	-12967
▁fluctuation	-12968
▁necessities	-12969
▁permanently	-12970
▁provisional	-12971
▁reliability	-12972
▁restrictive	-12973
▁sacrificing	-12974
▁singaporean	-12975
▁adaptability	-12976
▁appropriated	-12977
▁constituting	-12978
▁embezzlement	-12979
▁perseverance	-12980
▁subordinates	-12981
▁automatically	-12982
▁metallurgical	-12983
▁penetratingly	-12984
▁underestimate	-12985
▁industrialists	-12986
▁informationized	-12987
▁technologically	-12988
42	-12989
58	-12990
79	-12991
my	-12992
ss	-12993
ael	-12994
aki	-12995
chu	-12996
log	-12997
lun	-12998
mal	-12999
uns	-13000
▁81	-13001
▁kl	-13002
▁mi	-13003
▁ni	-13004
▁ri	-13005
avat	-13006
brid	-13007
ends	-13008
ente	-13009
face	-13010
hang	-13011
irts	-13012
nday	-13013
outi	-13014
ston	-13015
usen	-13016
▁250	-13017
▁3.5	-13018
▁360	-13019
▁ccp	-13020
▁cui	-13021
▁egg	-13022
▁exh	-13023
▁gal	-13024
▁ink	-13025
▁mfn	-13026
▁rim	-13027
▁rud	-13028
▁soy	-13029
▁stu	-13030
▁vcp	-13031
erant	-13032
estic	-13033
icter	-13034
iming	-13035
leine	-13036
lings	-13037
mbled	-13038
otive	-13039
quets	-13040
rogen	-13041
sofar	-13042
stage	-13043
ushun	-13044
vened	-13045
▁1900	-13046
▁1964	-13047
▁alto	-13048
▁cdic	-13049
▁disg	-13050
▁djib	-13051
▁gatt	-13052
▁glor	-13053
▁gran	-13054
▁hect	-13055
▁hein	-13056
▁holy	-13057
▁jind	-13058
▁krem	-13059
▁lamy	-13060
▁milk	-13061
▁pock	-13062
▁pond	-13063
▁sown	-13064
▁subd	-13065
▁tanz	-13066
▁twel	-13067
arians	-13068
enspan	-13069
himoto	-13070
isting	-13071
▁7,000	-13072
▁abrog	-13073
▁aires	-13074
▁bloss	-13075
▁cared	-13076
▁champ	-13077
▁conve	-13078
▁cries	-13079
▁cripp	-13080
▁curry	-13081
▁dawei	-13082
▁dimin	-13083
▁dirty	-13084
▁dodge	-13085
▁farms	-13086
▁flown	-13087
▁flows	-13088
▁grows	-13089
▁homic	-13090
▁horse	-13091
▁humor	-13092
▁karma	-13093
▁kehui	-13094
▁kobay	-13095
▁luxur	-13096
▁meted	-13097
▁monks	-13098
▁nucle	-13099
▁ordin	-13100
▁quasi	-13101
▁reass	-13102
▁resid	-13103
▁robot	-13104
▁rooms	-13105
▁shops	-13106
▁swall	-13107
▁sweet	-13108
▁swept	-13109
▁synch	-13110
▁taste	-13111
▁torch	-13112
▁yafei	-13113
related	-13114
ricular	-13115
▁abduct	-13116
▁alaska	-13117
▁alumni	-13118
▁arenas	-13119
▁behave	-13120
▁bigamy	-13121
▁brutal	-13122
▁buenos	-13123
▁cables	-13124
▁caring	-13125
▁chechn	-13126
▁diesel	-13127
▁fooled	-13128
▁futile	-13129
▁holbro	-13130
▁inclin	-13131
▁junjiu	-13132
▁kadena	-13133
▁kuchma	-13134
▁levies	-13135
▁liable	-13136
▁module	-13137
▁negate	-13138
▁neglig	-13139
▁perish	-13140
▁pretty	-13141
▁protes	-13142
▁pushes	-13143
▁reaped	-13144
▁relics	-13145
▁remedy	-13146
▁riding	-13147
▁rolled	-13148
▁shibao	-13149
▁starts	-13150
▁stroke	-13151
▁sunday	-13152
▁traced	-13153
▁unease	-13154
▁unimag	-13155
▁vetoed	-13156
▁wiping	-13157
▁xigaze	-13158
▁yining	-13159
breaking	-13160
ternally	-13161
▁apparat	-13162
▁arsenal	-13163
▁attache	-13164
▁austria	-13165
▁bombard	-13166
▁bullets	-13167
▁counted	-13168
▁defects	-13169
▁derived	-13170
▁discord	-13171
▁engages	-13172
▁engines	-13173
▁fischer	-13174
▁freeing	-13175
▁funeral	-13176
▁ignores	-13177
▁insofar	-13178
▁jinping	-13179
▁kremlin	-13180
▁lending	-13181
▁loading	-13182
▁loyalty	-13183
▁matches	-13184
▁michael	-13185
▁optical	-13186
▁outlays	-13187
▁overest	-13188
▁pending	-13189
▁permits	-13190
▁phrases	-13191
▁plummet	-13192
▁pooling	-13193
▁rebuild	-13194
▁receipt	-13195
▁repairs	-13196
▁reprint	-13197
▁rivalry	-13198
▁salient	-13199
▁scandal	-13200
▁seconds	-13201
▁secured	-13202
▁sensing	-13203
▁shelton	-13204
▁slavery	-13205
▁stories	-13206
▁summits	-13207
▁telecon	-13208
▁tending	-13209
▁thunder	-13210
▁volumes	-13211
▁wingers	-13212
▁xiaohua	-13213
▁yanhong	-13214
▁yaobang	-13215
▁yunshan	-13216
ativeness	-13217
▁appraise	-13218
▁birthday	-13219
▁blocking	-13220
▁climatic	-13221
▁culprits	-13222
▁currents	-13223
▁disposal	-13224
▁djibouti	-13225
▁downtown	-13226
▁emperors	-13227
▁findings	-13228
▁gigantic	-13229
▁guoguang	-13230
▁hampered	-13231
▁impacted	-13232
▁indisput	-13233
▁invaders	-13234
▁limiting	-13235
▁outlines	-13236
▁patriots	-13237
▁pleasant	-13238
▁poisoned	-13239
▁predomin	-13240
▁reaffirm	-13241
▁remarked	-13242
▁resisted	-13243
▁retained	-13244
▁shelving	-13245
▁solidify	-13246
▁somebody	-13247
▁stricter	-13248
▁swimming	-13249
▁tempered	-13250
▁tranquil	-13251
▁variable	-13252
▁vicinity	-13253
▁ancestral	-13254
▁belonging	-13255
▁brazilian	-13256
▁colluding	-13257
▁confusing	-13258
▁consuming	-13259
▁designate	-13260
▁doctrines	-13261
▁executing	-13262
▁fabricate	-13263
▁finalized	-13264
▁fortunate	-13265
▁greenspan	-13266
▁hashimoto	-13267
▁hungarian	-13268
▁judiciary	-13269
▁justified	-13270
▁kobayashi	-13271
▁madeleine	-13272
▁manifests	-13273
▁poisonous	-13274
▁releasing	-13275
▁relocated	-13276
▁rendering	-13277
▁repayment	-13278
▁revolving	-13279
▁secession	-13280
▁tentative	-13281
▁threatens	-13282
▁unanimous	-13283
▁unlimited	-13284
▁volunteer	-13285
▁altogether	-13286
▁cherishing	-13287
▁circulated	-13288
▁concretely	-13289
▁conforming	-13290
▁countering	-13291
▁dialectics	-13292
▁escalating	-13293
▁illiteracy	-13294
▁indiscreet	-13295
▁interchang	-13296
▁networking	-13297
▁normalized	-13298
▁oppression	-13299
▁perception	-13300
▁periodical	-13301
▁physically	-13302
▁pilgrimage	-13303
▁professors	-13304
▁psychology	-13305
▁rejuvenate	-13306
▁relocation	-13307
▁ridiculous	-13308
▁rotational	-13309
▁satisfying	-13310
▁skillfully	-13311
▁supportive	-13312
▁compilation	-13313
▁constructed	-13314
▁convertible	-13315
▁exaggerated	-13316
▁fabrication	-13317
▁forecasting	-13318
▁frightening	-13319
▁highlighted	-13320
▁implication	-13321
▁indivisible	-13322
▁inspiration	-13323
▁macroscopic	-13324
▁manipulated	-13325
▁meaningless	-13326
▁persecution	-13327
▁prohibiting	-13328
▁propagation	-13329
▁reciprocity	-13330
▁requisition	-13331
▁restraining	-13332
▁spectacular	-13333
▁traffickers	-13334
▁transported	-13335
▁artificially	-13336
▁calculations	-13337
▁commentaries	-13338
▁disagreement	-13339
▁dramatically	-13340
▁entrepreneur	-13341
▁extravagance	-13342
▁interrelated	-13343
▁quadrangular	-13344
▁zhongguancun	-13345
▁clarification	-13346
▁demonstrators	-13347
▁expeditiously	-13348
▁philosophical	-13349
▁qualification	-13350
▁theoretically	-13351
▁appropriations	-13352
▁correspondents	-13353
▁distinguishing	-13354
▁underestimated	-13355
▁confrontational	-13356
▁crystallization	-13357
▁reconsideration	-13358
14	-13359
39	-13360
46	-13361
55	-13362
88	-13363
cl	-13364
za	-13365
ani	-13366
ayn	-13367
bly	-13368
cra	-13369
eth	-13370
iji	-13371
isk	-13372
iyu	-13373
mei	-13374
nom	-13375
oli	-13376
opp	-13377
ori	-13378
sky	-13379
yue	-13380
▁71	-13381
▁79	-13382
▁83	-13383
▁mc	-13384
-199	-13385
clad	-13386
enna	-13387
esco	-13388
iago	-13389
icit	-13390
irms	-13391
isan	-13392
kong	-13393
ndra	-13394
nedy	-13395
nyov	-13396
pntr	-13397
royo	-13398
vals	-13399
▁2.3	-13400
▁3.1	-13401
▁4.2	-13402
▁410	-13403
▁7.5	-13404
▁8.3	-13405
▁acr	-13406
▁dri	-13407
▁dub	-13408
▁gaz	-13409
▁haz	-13410
▁jig	-13411
▁lav	-13412
▁ngu	-13413
▁nod	-13414
▁pad	-13415
▁qia	-13416
▁rac	-13417
▁rio	-13418
▁tat	-13419
▁usa	-13420
▁yer	-13421
aires	-13422
ching	-13423
ecked	-13424
ender	-13425
essim	-13426
gence	-13427
idong	-13428
igong	-13429
inked	-13430
itong	-13431
ivial	-13432
nance	-13433
pical	-13434
reast	-13435
ulner	-13436
▁0900	-13437
▁aziz	-13438
▁beib	-13439
▁bire	-13440
▁blat	-13441
▁clan	-13442
▁clin	-13443
▁cogn	-13444
▁damp	-13445
▁deck	-13446
▁dian	-13447
▁dues	-13448
▁gift	-13449
▁grab	-13450
▁guer	-13451
▁guix	-13452
▁huaq	-13453
▁leaf	-13454
▁libr	-13455
▁mang	-13456
▁null	-13457
▁obsc	-13458
▁penh	-13459
▁peru	-13460
▁slip	-13461
▁stad	-13462
▁tand	-13463
▁tsea	-13464
▁unve	-13465
▁ussr	-13466
▁wash	-13467
igible	-13468
retary	-13469
skirts	-13470
stream	-13471
wardly	-13472
▁1,400	-13473
▁admon	-13474
▁betra	-13475
▁cheer	-13476
▁chieh	-13477
▁clark	-13478
▁coach	-13479
▁cpccc	-13480
▁cyber	-13481
▁draws	-13482
▁dushi	-13483
▁evils	-13484
▁exagg	-13485
▁fatig	-13486
▁fidel	-13487
▁flies	-13488
▁forty	-13489
▁guise	-13490
▁lanka	-13491
▁lodge	-13492
▁loves	-13493
▁minsk	-13494
▁moore	-13495
▁opera	-13496
▁phnom	-13497
▁probe	-13498
▁shack	-13499
▁sinic	-13500
▁slump	-13501
▁smile	-13502
▁socio	-13503
▁spark	-13504
▁sudan	-13505
▁trace	-13506
▁undis	-13507
▁unrel	-13508
▁waved	-13509
▁winds	-13510
ensives	-13511
ingshan	-13512
overing	-13513
riendly	-13514
rifying	-13515
verting	-13516
▁arroyo	-13517
▁barren	-13518
▁brands	-13519
▁cadets	-13520
▁coasts	-13521
▁columb	-13522
▁crowds	-13523
▁deemed	-13524
▁devoid	-13525
▁entang	-13526
▁excite	-13527
▁fights	-13528
▁fleets	-13529
▁frozen	-13530
▁harbin	-13531
▁hotels	-13532
▁hunger	-13533
▁husayn	-13534
▁immort	-13535
▁injust	-13536
▁interd	-13537
▁jingji	-13538
▁misled	-13539
▁overha	-13540
▁pessim	-13541
▁plague	-13542
▁radars	-13543
▁rammed	-13544
▁regain	-13545
▁shoals	-13546
▁speaks	-13547
▁stimul	-13548
▁stupid	-13549
▁tabled	-13550
▁thrift	-13551
▁ticket	-13552
graduate	-13553
ographic	-13554
▁abreast	-13555
▁accedes	-13556
▁acreage	-13557
▁anthems	-13558
▁closest	-13559
▁conquer	-13560
▁cropped	-13561
▁custody	-13562
▁delinqu	-13563
▁discern	-13564
▁embargo	-13565
▁expired	-13566
▁feeding	-13567
▁finnish	-13568
▁flowing	-13569
▁forerun	-13570
▁gesture	-13571
▁guoqing	-13572
▁harshly	-13573
▁heroism	-13574
▁horizon	-13575
▁insider	-13576
▁jindong	-13577
▁kashmir	-13578
▁kennedy	-13579
▁kuangdi	-13580
▁magistr	-13581
▁motorcy	-13582
▁offense	-13583
▁optimal	-13584
▁patents	-13585
▁pouring	-13586
▁prelude	-13587
▁refugee	-13588
▁regrets	-13589
▁repatri	-13590
▁sailors	-13591
▁shipped	-13592
▁sighted	-13593
▁staging	-13594
▁strains	-13595
▁taiyuan	-13596
▁trivial	-13597
▁unident	-13598
▁wasting	-13599
roduction	-13600
secretary	-13601
ulnerable	-13602
▁acquaint	-13603
▁assemble	-13604
▁birendra	-13605
▁chechnya	-13606
▁cleaning	-13607
▁condemns	-13608
▁conducts	-13609
▁convener	-13610
▁convince	-13611
▁deadline	-13612
▁decontro	-13613
▁democrat	-13614
▁deviated	-13615
▁dropping	-13616
▁enacting	-13617
▁eurasian	-13618
▁extracur	-13619
▁fascists	-13620
▁fengshan	-13621
▁firmness	-13622
▁flourish	-13623
▁freedoms	-13624
▁harvests	-13625
▁inciting	-13626
▁ironclad	-13627
▁journals	-13628
▁lawfully	-13629
▁meanings	-13630
▁metropol	-13631
▁nautical	-13632
▁ordnance	-13633
▁outgoing	-13634
▁overcame	-13635
▁pilgrims	-13636
▁quanjing	-13637
▁quanzhou	-13638
▁romanian	-13639
▁santiago	-13640
▁scandals	-13641
▁sensible	-13642
▁sickness	-13643
▁striding	-13644
▁subunits	-13645
▁summoned	-13646
▁symbolic	-13647
▁tropical	-13648
▁truthful	-13649
▁tsinghua	-13650
▁weighing	-13651
▁yunsheng	-13652
▁applauded	-13653
▁apportion	-13654
▁approvals	-13655
▁blackmail	-13656
▁celestial	-13657
▁codenamed	-13658
▁conveying	-13659
▁convicted	-13660
▁decentral	-13661
▁earmarked	-13662
▁endlessly	-13663
▁excluding	-13664
▁incapable	-13665
▁inventory	-13666
▁islamabad	-13667
▁lithuania	-13668
▁marriages	-13669
▁mechanics	-13670
▁miserable	-13671
▁outskirts	-13672
▁poisoning	-13673
▁prohibits	-13674
▁projected	-13675
▁recipient	-13676
▁repairing	-13677
▁seleznyov	-13678
▁shortened	-13679
▁strenuous	-13680
▁supplying	-13681
▁zhangzhou	-13682
▁airstrikes	-13683
▁auspicious	-13684
▁ceremonies	-13685
▁challenged	-13686
▁clarifying	-13687
▁comparable	-13688
▁describing	-13689
▁disrupting	-13690
▁distortion	-13691
▁economical	-13692
▁insecurity	-13693
▁internally	-13694
▁journalism	-13695
▁marketable	-13696
▁misleading	-13697
▁progresses	-13698
▁protesters	-13699
▁protesting	-13700
▁recklessly	-13701
▁suggesting	-13702
▁undermines	-13703
▁undertakes	-13704
▁unfriendly	-13705
▁azerbaijani	-13706
▁belligerent	-13707
▁colonialist	-13708
▁contractual	-13709
▁corresponds	-13710
▁deployments	-13711
▁devaluation	-13712
▁distinction	-13713
▁domineering	-13714
▁endorsement	-13715
▁exhibitions	-13716
▁federations	-13717
▁hardworking	-13718
▁hostilities	-13719
▁illustrated	-13720
▁inaugurated	-13721
▁instigation	-13722
▁legislature	-13723
▁monasteries	-13724
▁overlapping	-13725
▁prominently	-13726
▁realignment	-13727
▁regrettable	-13728
▁sufficiency	-13729
▁deteriorated	-13730
▁exaggeration	-13731
▁hypocritical	-13732
▁inconsistent	-13733
▁indisputable	-13734
▁localization	-13735
▁presentation	-13736
▁quintessence	-13737
▁triumphantly	-13738
▁unidentified	-13739
▁unimaginable	-13740
▁biotechnology	-13741
▁collaboration	-13742
▁conversations	-13743
▁embarrassment	-13744
▁knowledgeable	-13745
▁superiorities	-13746
▁uncertainties	-13747
▁unconditional	-13748
▁antiscientific	-13749
▁congratulating	-13750
▁geographically	-13751
▁irregularities	-13752
▁undersecretary	-13753
▁extracurricular	-13754
06	-13755
24	-13756
69	-13757
76	-13758
78	-13759
86	-13760
fk	-13761
ox	-13762
xu	-13763
-30	-13764
aus	-13765
eme	-13766
lim	-13767
lle	-13768
mat	-13769
oty	-13770
oys	-13771
pes	-13772
rez	-13773
rot	-13774
the	-13775
ugu	-13776
uts	-13777
▁8,	-13778
▁84	-13779
▁93	-13780
▁ol	-13781
▁zo	-13782
aker	-13783
arin	-13784
atts	-13785
aval	-13786
ccan	-13787
cles	-13788
ezza	-13789
heed	-13790
ilai	-13791
illy	-13792
ishi	-13793
ldom	-13794
nell	-13795
odom	-13796
omas	-13797
ovic	-13798
pers	-13799
qian	-13800
stit	-13801
ursk	-13802
▁0.5	-13803
▁1.4	-13804
▁eru	-13805
▁fen	-13806
▁guy	-13807
▁hir	-13808
▁imb	-13809
▁jas	-13810
▁mah	-13811
▁mes	-13812
▁ske	-13813
▁tok	-13814
▁vor	-13815
▁xiu	-13816
armed	-13817
asone	-13818
awang	-13819
ichun	-13820
ician	-13821
igang	-13822
inees	-13823
osity	-13824
ourse	-13825
ullah	-13826
▁1965	-13827
▁2015	-13828
▁bias	-13829
▁bonn	-13830
▁coup	-13831
▁drum	-13832
▁ears	-13833
▁fant	-13834
▁folk	-13835
▁ford	-13836
▁gall	-13837
▁icbm	-13838
▁khai	-13839
▁lion	-13840
▁male	-13841
▁mans	-13842
▁neck	-13843
▁obso	-13844
▁oral	-13845
▁pawn	-13846
▁pope	-13847
▁ride	-13848
▁rome	-13849
▁scar	-13850
▁sezs	-13851
▁surn	-13852
▁tarn	-13853
▁temp	-13854
▁trou	-13855
▁typh	-13856
▁usel	-13857
▁wool	-13858
▁wore	-13859
abilit	-13860
arging	-13861
guised	-13862
houses	-13863
iatory	-13864
itants	-13865
itched	-13866
ixiang	-13867
ortune	-13868
sified	-13869
uguese	-13870
▁afflu	-13871
▁amass	-13872
▁annih	-13873
▁beibu	-13874
▁beset	-13875
▁blocs	-13876
▁breed	-13877
▁brown	-13878
▁burns	-13879
▁codes	-13880
▁cried	-13881
▁delic	-13882
▁doors	-13883
▁dover	-13884
▁drama	-13885
▁drank	-13886
▁drink	-13887
▁everl	-13888
▁float	-13889
▁guerr	-13890
▁guine	-13891
▁halls	-13892
▁hated	-13893
▁immol	-13894
▁incon	-13895
▁indel	-13896
▁innum	-13897
▁jigme	-13898
▁knock	-13899
▁kursk	-13900
▁loose	-13901
▁loses	-13902
▁mitch	-13903
▁mitig	-13904
▁novel	-13905
▁paved	-13906
▁perez	-13907
▁races	-13908
▁revis	-13909
▁smell	-13910
▁stall	-13911
▁timor	-13912
▁undes	-13913
▁usage	-13914
▁wreck	-13915
ionship	-13916
oleezza	-13917
shaking	-13918
▁80,000	-13919
▁accede	-13920
▁actors	-13921
▁antich	-13922
▁argued	-13923
▁avenue	-13924
▁backup	-13925
▁beauty	-13926
▁bijian	-13927
▁brooks	-13928
▁cheers	-13929
▁climax	-13930
▁colony	-13931
▁conced	-13932
▁corros	-13933
▁cracks	-13934
▁danish	-13935
▁demean	-13936
▁desper	-13937
▁divine	-13938
▁driver	-13939
▁enunci	-13940
▁gladly	-13941
▁hacker	-13942
▁huijun	-13943
▁junshi	-13944
▁lessen	-13945
▁levied	-13946
▁makeup	-13947
▁mekong	-13948
▁missed	-13949
▁mortal	-13950
▁multid	-13951
▁multif	-13952
▁perple	-13953
▁pocket	-13954
▁poured	-13955
▁prefer	-13956
▁qigong	-13957
▁raging	-13958
▁rebell	-13959
▁robust	-13960
▁seldom	-13961
▁shells	-13962
▁shimon	-13963
▁stockp	-13964
▁subtle	-13965
▁thomas	-13966
▁tribun	-13967
▁unesco	-13968
▁vulgar	-13969
▁wasted	-13970
▁zhuoji	-13971
breakers	-13972
inations	-13973
lessness	-13974
▁antisub	-13975
▁batches	-13976
▁boucher	-13977
▁canrong	-13978
▁chariot	-13979
▁cooking	-13980
▁cunning	-13981
▁dialogs	-13982
▁enliven	-13983
▁estonia	-13984
▁exclude	-13985
▁extends	-13986
▁fertile	-13987
▁freight	-13988
▁fullest	-13989
▁gerhard	-13990
▁impract	-13991
▁indices	-13992
▁jamyang	-13993
▁jianmin	-13994
▁kaifeng	-13995
▁khamtai	-13996
▁leaking	-13997
▁lengthy	-13998
▁maltese	-13999
▁matured	-14000
▁mergers	-14001
▁nanfang	-14002
▁nominal	-14003
▁norodom	-14004
▁optimum	-14005
▁outlets	-14006
▁picking	-14007
▁portray	-14008
▁precond	-14009
▁probing	-14010
▁queries	-14011
▁reaping	-14012
▁renewal	-14013
▁revival	-14014
▁ruining	-14015
▁sharpen	-14016
▁silence	-14017
▁silicon	-14018
▁slander	-14019
▁sorting	-14020
▁stamina	-14021
▁strives	-14022
▁tapping	-14023
▁tickets	-14024
▁travers	-14025
▁useless	-14026
▁wenzhao	-14027
[...]
